{
  "version": "1.0",
  "truncation": null,
  "padding": null,
  "added_tokens": [
    {
      "id": 0,
      "content": "<|endoftext|>",
      "single_word": false,
      "lstrip": false,
      "rstrip": false,
      "normalized": false,
      "special": true
    },
    {
      "id": 1,
      "content": "<|unk|>",
      "single_word": false,
      "lstrip": false,
      "rstrip": false,
      "normalized": false,
      "special": true
    },
    {
      "id": 2,
      "content": "<|sep|>",
      "single_word": false,
      "lstrip": false,
      "rstrip": false,
      "normalized": false,
      "special": true
    },
    {
      "id": 3,
      "content": "<|pad|>",
      "single_word": false,
      "lstrip": false,
      "rstrip": false,
      "normalized": false,
      "special": true
    },
    {
      "id": 4,
      "content": "<|mask|>",
      "single_word": false,
      "lstrip": false,
      "rstrip": false,
      "normalized": false,
      "special": true
    },
    {
      "id": 5,
      "content": "<|newline|>",
      "single_word": false,
      "lstrip": false,
      "rstrip": false,
      "normalized": false,
      "special": true
    }
  ],
  "normalizer": {
    "type": "BertNormalizer",
    "clean_text": true,
    "handle_chinese_chars": true,
    "strip_accents": null,
    "lowercase": false
  },
  "pre_tokenizer": {
    "type": "BertPreTokenizer"
  },
  "post_processor": null,
  "decoder": {
    "type": "BPEDecoder",
    "suffix": "</w>"
  },
  "model": {
    "type": "BPE",
    "dropout": null,
    "unk_token": "<unk>",
    "continuing_subword_prefix": null,
    "end_of_word_suffix": "</w>",
    "fuse_unk": false,
    "byte_fallback": false,
    "ignore_merges": false,
    "vocab": {
      "<|endoftext|>": 0,
      "<|unk|>": 1,
      "<|sep|>": 2,
      "<|pad|>": 3,
      "<|mask|>": 4,
      "<|newline|>": 5,
      "!": 6,
      "\"": 7,
      "#": 8,
      "$": 9,
      "%": 10,
      "&": 11,
      "'": 12,
      "(": 13,
      ")": 14,
      "*": 15,
      "+": 16,
      ",": 17,
      "-": 18,
      ".": 19,
      "/": 20,
      ":": 21,
      ";": 22,
      "<": 23,
      "=": 24,
      ">": 25,
      "@": 26,
      "[": 27,
      "\\": 28,
      "]": 29,
      "^": 30,
      "_": 31,
      "`": 32,
      "c": 33,
      "d": 34,
      "e": 35,
      "o": 36,
      "p": 37,
      "r": 38,
      "s": 39,
      "t": 40,
      "x": 41,
      "{": 42,
      "|": 43,
      "}": 44,
      "~": 45,
      "ँ": 46,
      "ं": 47,
      "ः": 48,
      "अ": 49,
      "आ": 50,
      "इ": 51,
      "ई": 52,
      "उ": 53,
      "ऊ": 54,
      "ऋ": 55,
      "ऌ": 56,
      "ऍ": 57,
      "ऎ": 58,
      "ए": 59,
      "ऐ": 60,
      "ऑ": 61,
      "ऒ": 62,
      "ओ": 63,
      "औ": 64,
      "क": 65,
      "ख": 66,
      "ग": 67,
      "घ": 68,
      "ङ": 69,
      "च": 70,
      "छ": 71,
      "ज": 72,
      "झ": 73,
      "ञ": 74,
      "ट": 75,
      "ठ": 76,
      "ड": 77,
      "ढ": 78,
      "ण": 79,
      "त": 80,
      "थ": 81,
      "द": 82,
      "ध": 83,
      "न": 84,
      "ऩ": 85,
      "प": 86,
      "फ": 87,
      "ब": 88,
      "भ": 89,
      "म": 90,
      "य": 91,
      "र": 92,
      "ऱ": 93,
      "ल": 94,
      "ळ": 95,
      "ऴ": 96,
      "व": 97,
      "श": 98,
      "ष": 99,
      "स": 100,
      "ह": 101,
      "ऻ": 102,
      "़": 103,
      "ऽ": 104,
      "ा": 105,
      "ि": 106,
      "ी": 107,
      "ु": 108,
      "ू": 109,
      "ृ": 110,
      "ॄ": 111,
      "ॅ": 112,
      "ॆ": 113,
      "े": 114,
      "ै": 115,
      "ॉ": 116,
      "ॊ": 117,
      "ो": 118,
      "ौ": 119,
      "्": 120,
      "ॐ": 121,
      "॑": 122,
      "॒": 123,
      "॓": 124,
      "॔": 125,
      "क़": 126,
      "ख़": 127,
      "ग़": 128,
      "ज़": 129,
      "ड़": 130,
      "ढ़": 131,
      "फ़": 132,
      "य़": 133,
      "ॠ": 134,
      "।": 135,
      "॥": 136,
      "०": 137,
      "१": 138,
      "२": 139,
      "३": 140,
      "४": 141,
      "५": 142,
      "६": 143,
      "७": 144,
      "८": 145,
      "९": 146,
      "॰": 147,
      "ॱ": 148,
      "ॲ": 149,
      "ॽ": 150,
      "ो</w>": 151,
      "ा</w>": 152,
      "द</w>": 153,
      "ी</w>": 154,
      "ि</w>": 155,
      "ु</w>": 156,
      "१</w>": 157,
      "ः</w>": 158,
      "त</w>": 159,
      "ज</w>": 160,
      "म</w>": 161,
      "े</w>": 162,
      "ट</w>": 163,
      "ं</w>": 164,
      "र</w>": 165,
      "ै</w>": 166,
      "क</w>": 167,
      "ॽ</w>": 168,
      "ँ</w>": 169,
      "ई</w>": 170,
      "स</w>": 171,
      "व</w>": 172,
      "न</w>": 173,
      "छ</w>": 174,
      "य</w>": 175,
      "्</w>": 176,
      "फ</w>": 177,
      "९</w>": 178,
      "०</w>": 179,
      "ग</w>": 180,
      "ल</w>": 181,
      "ऊ</w>": 182,
      "च</w>": 183,
      "ड</w>": 184,
      "३</w>": 185,
      "ख</w>": 186,
      "ध</w>": 187,
      "ह</w>": 188,
      "इ</w>": 189,
      "ण</w>": 190,
      "थ</w>": 191,
      "४</w>": 192,
      "श</w>": 193,
      "ू</w>": 194,
      "उ</w>": 195,
      "ठ</w>": 196,
      "५</w>": 197,
      "ए</w>": 198,
      "ओ</w>": 199,
      "ङ</w>": 200,
      "६</w>": 201,
      "प</w>": 202,
      "२</w>": 203,
      "घ</w>": 204,
      "८</w>": 205,
      "ौ</w>": 206,
      "भ</w>": 207,
      "ृ</w>": 208,
      "झ</w>": 209,
      "ब</w>": 210,
      "ष</w>": 211,
      "ञ</w>": 212,
      "़</w>": 213,
      "७</w>": 214,
      "ॅ</w>": 215,
      "ज़</w>": 216,
      "अ</w>": 217,
      "ढ</w>": 218,
      "औ</w>": 219,
      "ऐ</w>": 220,
      "आ</w>": 221,
      "ॉ</w>": 222,
      "ॊ</w>": 223,
      "ऽ</w>": 224,
      "ऋ</w>": 225,
      "ॐ</w>": 226,
      "^</w>": 227,
      "ड़</w>": 228,
      "फ़</w>": 229,
      "|</w>": 230,
      "ढ़</w>": 231,
      "$</w>": 232,
      ";</w>": 233,
      "t</w>": 234,
      "ॆ</w>": 235,
      "}</w>": 236,
      "*</w>": 237,
      "/</w>": 238,
      "ऴ</w>": 239,
      "(</w>": 240,
      "@</w>": 241,
      "=</w>": 242,
      "></w>": 243,
      "ळ</w>": 244,
      "॥</w>": 245,
      "ऍ</w>": 246,
      "क़</w>": 247,
      "॒</w>": 248,
      "ॠ</w>": 249,
      "d</w>": 250,
      "॔</w>": 251,
      "॑</w>": 252,
      ":</w>": 253,
      "॰</w>": 254,
      "[</w>": 255,
      "_</w>": 256,
      "]</w>": 257,
      "{</w>": 258,
      ",</w>": 259,
      "+</w>": 260,
      "`</w>": 261,
      "-</w>": 262,
      "<</w>": 263,
      "ॱ</w>": 264,
      "\\</w>": 265,
      ".</w>": 266,
      "ख़</w>": 267,
      "&</w>": 268,
      "॓</w>": 269,
      "#</w>": 270,
      "ऎ</w>": 271,
      "\"</w>": 272,
      "'</w>": 273,
      "!</w>": 274,
      "~</w>": 275,
      "%</w>": 276,
      "ऩ</w>": 277,
      "।</w>": 278,
      ")</w>": 279,
      "को</w>": 280,
      "र्": 281,
      "्र": 282,
      "मा</w>": 283,
      "न्": 284,
      "ले</w>": 285,
      "का</w>": 286,
      "का": 287,
      "्य": 288,
      "ला": 289,
      "स्": 290,
      "ने</w>": 291,
      "प्र": 292,
      "मा": 293,
      "क्": 294,
      "गर": 295,
      "पा": 296,
      "वि": 297,
      "एको</w>": 298,
      "रा": 299,
      "नि": 300,
      "ेको</w>": 301,
      "बा": 302,
      "ना": 303,
      "वा": 304,
      "ता": 305,
      "सम": 306,
      "ने": 307,
      "सा": 308,
      "ति": 309,
      "गर्": 310,
      "लाई</w>": 311,
      "न्</w>": 312,
      "हा": 313,
      "त्": 314,
      "हर": 315,
      "या": 316,
      "हु": 317,
      "दे": 318,
      "त्र": 319,
      "्या": 320,
      "नु": 321,
      "स्थ": 322,
      "हि": 323,
      "पन": 324,
      "दि": 325,
      "लि": 326,
      "ल्": 327,
      "क्ष": 328,
      "कार": 329,
      "यो</w>": 330,
      "जा": 331,
      "सं": 332,
      "रि": 333,
      "छन्</w>": 334,
      "भा": 335,
      "रह": 336,
      "ता</w>": 337,
      "पनि</w>": 338,
      "गा": 339,
      "उन": 340,
      "चा": 341,
      "थि": 342,
      "न्द": 343,
      "पु": 344,
      "ना</w>": 345,
      "धा": 346,
      "क्र": 347,
      "लाग": 348,
      "ष्": 349,
      "त्य": 350,
      "ेका</w>": 351,
      "सम्": 352,
      "भएको</w>": 353,
      "रो": 354,
      "म्": 355,
      "सु": 356,
      "सि": 357,
      "मि": 358,
      "यो": 359,
      "के": 360,
      "दा": 361,
      "ति</w>": 362,
      "जि": 363,
      "एका</w>": 364,
      "नेपा": 365,
      "बाट</w>": 366,
      "रु": 367,
      "री</w>": 368,
      "को": 369,
      "कार्": 370,
      "पर्": 371,
      "कु": 372,
      "कि": 373,
      "न्त्र": 374,
      "ीले</w>": 375,
      "गरि": 376,
      "निर्": 377,
      "ला</w>": 378,
      "मु": 379,
      "धि": 380,
      "स्था": 381,
      "द्": 382,
      "गरेको</w>": 383,
      "पछ": 384,
      "भि": 385,
      "दु": 386,
      "ीय</w>": 387,
      "ले": 388,
      "बता": 389,
      "मे": 390,
      "दै</w>": 391,
      "भने</w>": 392,
      "स्त": 393,
      "लागि</w>": 394,
      "देख": 395,
      "चि": 396,
      "वर्": 397,
      "रहेको</w>": 398,
      "मन्त्र": 399,
      "सर": 400,
      "उँ": 401,
      "नै</w>": 402,
      "हो</w>": 403,
      "ीको</w>": 404,
      "बि": 405,
      "पछि</w>": 406,
      "ली</w>": 407,
      "अनु": 408,
      "प्रति": 409,
      "व्य": 410,
      "ष्ट": 411,
      "दा</w>": 412,
      "त्र</w>": 413,
      "देश": 414,
      "गर्न</w>": 415,
      "गर्ने</w>": 416,
      "नमा</w>": 417,
      "तथ": 418,
      "थियो</w>": 419,
      "ध्य": 420,
      "श्": 421,
      "हरु": 422,
      "री": 423,
      "रे": 424,
      "ण्": 425,
      "जना": 426,
      "से": 427,
      "जन": 428,
      "बै": 429,
      "तथा</w>": 430,
      "सँ": 431,
      "खे": 432,
      "ग्र": 433,
      "उनले</w>": 434,
      "आफ": 435,
      "उप": 436,
      "बढ": 437,
      "लो</w>": 438,
      "उने</w>": 439,
      "ही</w>": 440,
      "पू": 441,
      "न्त": 442,
      "उन</w>": 443,
      "शा": 444,
      "कारी</w>": 445,
      "की</w>": 446,
      "नी</w>": 447,
      "लगा": 448,
      "यस": 449,
      "रा</w>": 450,
      "रमा</w>": 451,
      "प्": 452,
      "लमा</w>": 453,
      "भए": 454,
      "भन्द": 455,
      "डा": 456,
      "सह": 457,
      "न्छ</w>": 458,
      "ौं</w>": 459,
      "खा": 460,
      "ङ्": 461,
      "टा": 462,
      "डि": 463,
      "था": 464,
      "कार्य": 465,
      "हुने</w>": 466,
      "परि": 467,
      "एक</w>": 468,
      "नको</w>": 469,
      "ञ्": 470,
      "कर्": 471,
      "क्रम": 472,
      "टि": 473,
      "राष्ट": 474,
      "अव": 475,
      "बन्": 476,
      "जना</w>": 477,
      "्य</w>": 478,
      "जे": 479,
      "नुपर्": 480,
      "सरकार": 481,
      "यु": 482,
      "वा</w>": 483,
      "वे": 484,
      "काठ": 485,
      "बार</w>": 486,
      "बु": 487,
      "पूर्": 488,
      "भन्": 489,
      "काठमा": 490,
      "बना": 491,
      "ेर</w>": 492,
      "सार</w>": 493,
      "थिए</w>": 494,
      "तर</w>": 495,
      "व्यव": 496,
      "ीमा</w>": 497,
      "लय": 498,
      "पार्": 499,
      "गरेका</w>": 500,
      "हरू": 501,
      "जार</w>": 502,
      "अर्": 503,
      "वर्ष": 504,
      "गरी</w>": 505,
      "बे": 506,
      "काठमाड": 507,
      "ित</w>": 508,
      "ैन</w>": 509,
      "कृ": 510,
      "हो": 511,
      "महा": 512,
      "बताए</w>": 513,
      "रुप": 514,
      "त्यस": 515,
      "ग्": 516,
      "राष्ट्र": 517,
      "मन्त्री</w>": 518,
      "सो": 519,
      "सम्म</w>": 520,
      "पालि": 521,
      "क्षे": 522,
      "प्रहर": 523,
      "सद": 524,
      "सँग</w>": 525,
      "कै</w>": 526,
      "धान": 527,
      "गु": 528,
      "कार</w>": 529,
      "गरिएको</w>": 530,
      "राज": 531,
      "एर</w>": 532,
      "क्त</w>": 533,
      "हजार</w>": 534,
      "रण</w>": 535,
      "देखि</w>": 536,
      "प्रा": 537,
      "सक": 538,
      "लको</w>": 539,
      "रको</w>": 540,
      "लले</w>": 541,
      "नेपाल</w>": 542,
      "समे": 543,
      "टा</w>": 544,
      "हाम": 545,
      "क्ष</w>": 546,
      "याँ</w>": 547,
      "ठा": 548,
      "लो": 549,
      "जो": 550,
      "अधि": 551,
      "देश</w>": 552,
      "सक्": 553,
      "्रो</w>": 554,
      "अध्य": 555,
      "जिल्": 556,
      "ज्": 557,
      "शि": 558,
      "ती": 559,
      "विद": 560,
      "अनुसार</w>": 561,
      "नगर": 562,
      "समा": 563,
      "डा</w>": 564,
      "ती</w>": 565,
      "काम</w>": 566,
      "कार्या": 567,
      "न्न</w>": 568,
      "पहि": 569,
      "योग": 570,
      "ट्": 571,
      "रण": 572,
      "नी": 573,
      "समेत</w>": 574,
      "हे": 575,
      "रहेका</w>": 576,
      "हरु</w>": 577,
      "या</w>": 578,
      "पो": 579,
      "आफ्": 580,
      "भार": 581,
      "भन्दा</w>": 582,
      "ल्या": 583,
      "पार्ट": 584,
      "हुँ": 585,
      "पर": 586,
      "न्द्र": 587,
      "स्वा": 588,
      "गत</w>": 589,
      "काले</w>": 590,
      "गो": 591,
      "अहि": 592,
      "खो": 593,
      "बो": 594,
      "मो": 595,
      "जान": 596,
      "भएका</w>": 597,
      "पि": 598,
      "अघ": 599,
      "श्र": 600,
      "अन्": 601,
      "च्": 602,
      "२०": 603,
      "महि": 604,
      "धे": 605,
      "ण्ड": 606,
      "निर्मा": 607,
      "गर्दै</w>": 608,
      "स्प": 609,
      "जु": 610,
      "क्षेत्र": 611,
      "रु</w>": 612,
      "शु": 613,
      "चाल": 614,
      "स्ता": 615,
      "विश्": 616,
      "लु": 617,
      "फा": 618,
      "नो</w>": 619,
      "चार</w>": 620,
      "स्था</w>": 621,
      "राम": 622,
      "प्रधान": 623,
      "्र</w>": 624,
      "िय</w>": 625,
      "देखि": 626,
      "राख": 627,
      "ली": 628,
      "कोरो": 629,
      "सञ्": 630,
      "निक</w>": 631,
      "दुई</w>": 632,
      "गत": 633,
      "्या</w>": 634,
      "टे": 635,
      "उत्": 636,
      "जानकारी</w>": 637,
      "योग</w>": 638,
      "इएको</w>": 639,
      "कारण</w>": 640,
      "काठमाडौं</w>": 641,
      "सी</w>": 642,
      "नका</w>": 643,
      "ंग": 644,
      "मुख</w>": 645,
      "स्व": 646,
      "भे": 647,
      "नुपर्ने</w>": 648,
      "िक</w>": 649,
      "कमा</w>": 650,
      "दिन</w>": 651,
      "भयो</w>": 652,
      "बी": 653,
      "अघि</w>": 654,
      "डे": 655,
      "सय</w>": 656,
      "नेपाली</w>": 657,
      "कम्": 658,
      "नु</w>": 659,
      "रै</w>": 660,
      "भन्ने</w>": 661,
      "केही</w>": 662,
      "मार्": 663,
      "र्व": 664,
      "छैन</w>": 665,
      "टो": 666,
      "तको</w>": 667,
      "सरकारले</w>": 668,
      "लय</w>": 669,
      "धि</w>": 670,
      "लाख</w>": 671,
      "निय": 672,
      "समि": 673,
      "तिक</w>": 674,
      "खु": 675,
      "हुन्छ</w>": 676,
      "सी": 677,
      "गरा": 678,
      "पुग": 679,
      "भइ": 680,
      "हुन्</w>": 681,
      "भाग": 682,
      "छा": 683,
      "नले</w>": 684,
      "यमा</w>": 685,
      "रक्ष": 686,
      "उनी": 687,
      "घट": 688,
      "गाउँ": 689,
      "स्वास्थ": 690,
      "हरू</w>": 691,
      "बैठ": 692,
      "वाद": 693,
      "ट्र": 694,
      "रू": 695,
      "नगरपालि": 696,
      "कको</w>": 697,
      "सो</w>": 698,
      "कम": 699,
      "राष्ट्रिय</w>": 700,
      "विष": 701,
      "ज्ञ": 702,
      "आइ": 703,
      "सको</w>": 704,
      "अन्त": 705,
      "स्तो</w>": 706,
      "विद्या": 707,
      "निर्वा": 708,
      "एक": 709,
      "प्रमुख</w>": 710,
      "हुन</w>": 711,
      "धान</w>": 712,
      "अहिले</w>": 713,
      "केन्द्र": 714,
      "चु": 715,
      "अध्यक्ष</w>": 716,
      "स्तै</w>": 717,
      "ब्": 718,
      "आफ्नो</w>": 719,
      "सकि": 720,
      "पे": 721,
      "नेछ</w>": 722,
      "्यु": 723,
      "ीका</w>": 724,
      "सब": 725,
      "दर्": 726,
      "प्रहरी</w>": 727,
      "कले</w>": 728,
      "क्रि": 729,
      "ग्रे": 730,
      "सकेको</w>": 731,
      "विका": 732,
      "पा</w>": 733,
      "अस्प": 734,
      "मात्र</w>": 735,
      "मृ": 736,
      "सहि": 737,
      "ड्": 738,
      "अस्पता": 739,
      "स्थान": 740,
      "सभा": 741,
      "सँग": 742,
      "शे": 743,
      "कां": 744,
      "भारत": 745,
      "िल्": 746,
      "कोरोना</w>": 747,
      "दै": 748,
      "दो": 749,
      "घा": 750,
      "गरे</w>": 751,
      "ीलाई</w>": 752,
      "सम्बन्": 753,
      "मै</w>": 754,
      "आएको</w>": 755,
      "सङ्": 756,
      "निर्ण": 757,
      "प्रदेश</w>": 758,
      "रीक्ष": 759,
      "भू": 760,
      "जिल्ला</w>": 761,
      "गरेर</w>": 762,
      "आयो": 763,
      "न्द्र</w>": 764,
      "हरुले</w>": 765,
      "हाँ": 766,
      "रका</w>": 767,
      "ताको</w>": 768,
      "सबै</w>": 769,
      "मी</w>": 770,
      "द्ध</w>": 771,
      "बहा": 772,
      "मन्त्रा": 773,
      "मह": 774,
      "रुपमा</w>": 775,
      "दिए</w>": 776,
      "उनको</w>": 777,
      "लगाय": 778,
      "पट": 779,
      "क्रममा</w>": 780,
      "सले</w>": 781,
      "सामा": 782,
      "स्थानीय</w>": 783,
      "निर्माण</w>": 784,
      "तर्": 785,
      "ौँ</w>": 786,
      "जी": 787,
      "मुख": 788,
      "मू": 789,
      "पमा</w>": 790,
      "प्रधानमन्त्री</w>": 791,
      "बार": 792,
      "अभि": 793,
      "झा": 794,
      "तया": 795,
      "भए</w>": 796,
      "यी</w>": 797,
      "लका</w>": 798,
      "आर्": 799,
      "वर्ष</w>": 800,
      "्यो</w>": 801,
      "ैले</w>": 802,
      "भन्दै</w>": 803,
      "१०</w>": 804,
      "नयाँ</w>": 805,
      "जनाएको</w>": 806,
      "ममा</w>": 807,
      "कुनै</w>": 808,
      "प्रतिश": 809,
      "भाव": 810,
      "यन</w>": 811,
      "क्ति": 812,
      "भने": 813,
      "टर</w>": 814,
      "लेको</w>": 815,
      "वै": 816,
      "पक्ष": 817,
      "समस": 818,
      "आव": 819,
      "गरे": 820,
      "दुर</w>": 821,
      "धन</w>": 822,
      "मान": 823,
      "म्ब": 824,
      "दिएको</w>": 825,
      "फल</w>": 826,
      "फे": 827,
      "शिक्ष": 828,
      "स्वास्थ्य</w>": 829,
      "सञ्चाल": 830,
      "वन</w>": 831,
      "बढी</w>": 832,
      "ष्ट</w>": 833,
      "सन्": 834,
      "सड": 835,
      "संघ": 836,
      "र्थ": 837,
      "निर्वाच": 838,
      "रुपै": 839,
      "टी</w>": 840,
      "श्य": 841,
      "समिति": 842,
      "लामा</w>": 843,
      "करो": 844,
      "रो</w>": 845,
      "जी</w>": 846,
      "रले</w>": 847,
      "सू": 848,
      "त्व": 849,
      "समा</w>": 850,
      "पहिलो</w>": 851,
      "मात्र": 852,
      "धेरै</w>": 853,
      "छि": 854,
      "मान</w>": 855,
      "बहादुर</w>": 856,
      "नो": 857,
      "दन</w>": 858,
      "हरुको</w>": 859,
      "गठ": 860,
      "कुरा</w>": 861,
      "पी</w>": 862,
      "कम्पन": 863,
      "कम</w>": 864,
      "लीले</w>": 865,
      "मृत्य": 866,
      "मन्त्रालय": 867,
      "डी</w>": 868,
      "नेको</w>": 869,
      "भिन्न</w>": 870,
      "सन</w>": 871,
      "नामा</w>": 872,
      "स्थित</w>": 873,
      "सँगै</w>": 874,
      "पूर्ण</w>": 875,
      "तीन</w>": 876,
      "राजन": 877,
      "इन</w>": 878,
      "यस</w>": 879,
      "कांग्रे": 880,
      "जन</w>": 881,
      "बैं": 882,
      "नन्</w>": 883,
      "दैन</w>": 884,
      "ही": 885,
      "सचि": 886,
      "बस्": 887,
      "सहित</w>": 888,
      "इन्": 889,
      "दिने</w>": 890,
      "तका</w>": 891,
      "बाँ": 892,
      "पटक</w>": 893,
      "द्य": 894,
      "कर्म": 895,
      "टमा</w>": 896,
      "सबै": 897,
      "मध्य": 898,
      "उनी</w>": 899,
      "निर्णय</w>": 900,
      "णा": 901,
      "राजनी": 902,
      "के</w>": 903,
      "वार</w>": 904,
      "पत्र": 905,
      "स्रो</w>": 906,
      "तमा</w>": 907,
      "तह": 908,
      "फो": 909,
      "विश्व": 910,
      "विभिन्न</w>": 911,
      "एपछि</w>": 912,
      "पति</w>": 913,
      "तले</w>": 914,
      "गर्दा</w>": 915,
      "हाँ</w>": 916,
      "गाउँपालि": 917,
      "भो": 918,
      "छो": 919,
      "व्या": 920,
      "सुरक्ष": 921,
      "करोड</w>": 922,
      "उक्त</w>": 923,
      "चौ": 924,
      "पार्टी</w>": 925,
      "विकास</w>": 926,
      "अन्तर्": 927,
      "प्रदेश": 928,
      "क्रम</w>": 929,
      "पत्": 930,
      "माथ": 931,
      "निर्देश": 932,
      "चे": 933,
      "गते</w>": 934,
      "्ने</w>": 935,
      "द्ध": 936,
      "सा</w>": 937,
      "दान</w>": 938,
      "पी": 939,
      "मृत्यु</w>": 940,
      "ते": 941,
      "एमा": 942,
      "परीक्ष": 943,
      "व्यवस्था</w>": 944,
      "बजे": 945,
      "मको</w>": 946,
      "नेक": 947,
      "लन</w>": 948,
      "उँदै</w>": 949,
      "ध्या": 950,
      "सक्ने</w>": 951,
      "उल्": 952,
      "सका</w>": 953,
      "आर्थि": 954,
      "नुपर्छ</w>": 955,
      "त्यो</w>": 956,
      "मेरि": 957,
      "क्रा": 958,
      "आर्थिक</w>": 959,
      "न्या": 960,
      "मात्रै</w>": 961,
      "नागरि": 962,
      "मित</w>": 963,
      "स्ता</w>": 964,
      "२०</w>": 965,
      "आवश्य": 966,
      "ठू": 967,
      "जा</w>": 968,
      "शन</w>": 969,
      "अमेरि": 970,
      "समस्या</w>": 971,
      "हरूले</w>": 972,
      "एउ": 973,
      "कुमा": 974,
      "वटा</w>": 975,
      "अन्य</w>": 976,
      "स्थाप": 977,
      "म्मे": 978,
      "निका": 979,
      "नेता</w>": 980,
      "माथि</w>": 981,
      "क्षेत्रमा</w>": 982,
      "रूपमा</w>": 983,
      "आधा": 984,
      "समू": 985,
      "पोख": 986,
      "प्रतिनि": 987,
      "फर्": 988,
      "परा": 989,
      "पुर</w>": 990,
      "आफू": 991,
      "कामा</w>": 992,
      "यर</w>": 993,
      "साथ": 994,
      "तृ": 995,
      "न्य": 996,
      "कार्यालय": 997,
      "संवि": 998,
      "फि": 999,
      "सार्व": 1000,
      "जित</w>": 1001,
      "आज</w>": 1002,
      "कार्यालय</w>": 1003,
      "प्रतिशत</w>": 1004,
      "अवस्था": 1005,
      "वादी</w>": 1006,
      "तो": 1007,
      "पाँ": 1008,
      "लेख": 1009,
      "वार्": 1010,
      "समय</w>": 1011,
      "क्रमण</w>": 1012,
      "रहे": 1013,
      "सेवा</w>": 1014,
      "ख्या</w>": 1015,
      "तामा</w>": 1016,
      "जारी</w>": 1017,
      "्न</w>": 1018,
      "स्य": 1019,
      "ची": 1020,
      "मानि": 1021,
      "छल": 1022,
      "नुभयो</w>": 1023,
      "दू": 1024,
      "प्त</w>": 1025,
      "सां": 1026,
      "घर</w>": 1027,
      "बारे</w>": 1028,
      "चित</w>": 1029,
      "सार्वज": 1030,
      "बीच</w>": 1031,
      "अब</w>": 1032,
      "कस": 1033,
      "१९</w>": 1034,
      "परेको</w>": 1035,
      "सार्वजनिक</w>": 1036,
      "हरुलाई</w>": 1037,
      "भु": 1038,
      "सुरु</w>": 1039,
      "पद": 1040,
      "बढा": 1041,
      "भाइ": 1042,
      "वी": 1043,
      "चार": 1044,
      "छु</w>": 1045,
      "धु": 1046,
      "१५</w>": 1047,
      "प्रसा": 1048,
      "सरकार</w>": 1049,
      "भित्र</w>": 1050,
      "वृ": 1051,
      "गि": 1052,
      "प्रहरीले</w>": 1053,
      "पुर": 1054,
      "रुपैयाँ</w>": 1055,
      "शो": 1056,
      "थप</w>": 1057,
      "टै</w>": 1058,
      "जनाको</w>": 1059,
      "सर्": 1060,
      "व्यक्ति": 1061,
      "्रो": 1062,
      "क्ति</w>": 1063,
      "भनेर</w>": 1064,
      "भइरहेको</w>": 1065,
      "सम्बन्ध": 1066,
      "बेला</w>": 1067,
      "ेष्": 1068,
      "ज्ञा": 1069,
      "नेतृ": 1070,
      "खर्": 1071,
      "नग": 1072,
      "नाको</w>": 1073,
      "शी": 1074,
      "आएका</w>": 1075,
      "क्या": 1076,
      "लेख</w>": 1077,
      "युक्त</w>": 1078,
      "भना": 1079,
      "२०७": 1080,
      "लागेको</w>": 1081,
      "यट": 1082,
      "बताएका</w>": 1083,
      "अन": 1084,
      "टो</w>": 1085,
      "लक्ष": 1086,
      "हुँदा</w>": 1087,
      "हरूको</w>": 1088,
      "नगरपालिका</w>": 1089,
      "माग</w>": 1090,
      "शर्": 1091,
      "जिक</w>": 1092,
      "सूच": 1093,
      "भ्र": 1094,
      "पुन": 1095,
      "स्य</w>": 1096,
      "तिमा</w>": 1097,
      "न्व": 1098,
      "घो": 1099,
      "द्यो": 1100,
      "वारी</w>": 1101,
      "पर्यट": 1102,
      "ण्ड</w>": 1103,
      "व्यवसा": 1104,
      "विरु": 1105,
      "भनि": 1106,
      "मत</w>": 1107,
      "उत्पा": 1108,
      "पुग्": 1109,
      "पर्ने</w>": 1110,
      "काको</w>": 1111,
      "िल्लो</w>": 1112,
      "१२</w>": 1113,
      "णमा</w>": 1114,
      "नेपाल": 1115,
      "पुरु": 1116,
      "लिएको</w>": 1117,
      "वी</w>": 1118,
      "नलाई</w>": 1119,
      "गाड": 1120,
      "भएपछि</w>": 1121,
      "उहाँ": 1122,
      "श्रेष्": 1123,
      "त्का": 1124,
      "करण</w>": 1125,
      "सर्व": 1126,
      "भएकाले</w>": 1127,
      "स्</w>": 1128,
      "हामी</w>": 1129,
      "११</w>": 1130,
      "पुगेको</w>": 1131,
      "भा</w>": 1132,
      "एउटा</w>": 1133,
      "मुलु": 1134,
      "विषयमा</w>": 1135,
      "प्रे": 1136,
      "त्व</w>": 1137,
      "दी": 1138,
      "दिन": 1139,
      "रिक</w>": 1140,
      "त्</w>": 1141,
      "दश": 1142,
      "दाल": 1143,
      "नेता": 1144,
      "अवस्था</w>": 1145,
      "अवस्थामा</w>": 1146,
      "प्रयोग</w>": 1147,
      "बन्द": 1148,
      "करण": 1149,
      "फु": 1150,
      "म्या": 1151,
      "सदस्य</w>": 1152,
      "अदाल": 1153,
      "काम": 1154,
      "राजनीतिक</w>": 1155,
      "५०</w>": 1156,
      "बी</w>": 1157,
      "दोस्रो</w>": 1158,
      "कृत</w>": 1159,
      "भी": 1160,
      "त्म": 1161,
      "न्य</w>": 1162,
      "अधिकार": 1163,
      "लाको</w>": 1164,
      "मध्ये</w>": 1165,
      "उल्लेख</w>": 1166,
      "वास</w>": 1167,
      "गी": 1168,
      "भाइर": 1169,
      "कुमार</w>": 1170,
      "पक्रा": 1171,
      "च्च</w>": 1172,
      "ल्ने</w>": 1173,
      "आवश्यक</w>": 1174,
      "पत्र</w>": 1175,
      "लोक": 1176,
      "सके": 1177,
      "पाइ": 1178,
      "त्त": 1179,
      "पन्न</w>": 1180,
      "पक्राउ</w>": 1181,
      "मन</w>": 1182,
      "तु": 1183,
      "सदस्य": 1184,
      "कार्यक्रम</w>": 1185,
      "पठा": 1186,
      "सहभाग": 1187,
      "सहयोग</w>": 1188,
      "भएर</w>": 1189,
      "खि": 1190,
      "सडक</w>": 1191,
      "निर्वाचन</w>": 1192,
      "योजना</w>": 1193,
      "ौं": 1194,
      "सिं": 1195,
      "देखिएको</w>": 1196,
      "उद्यो": 1197,
      "नियन्त्र": 1198,
      "पौ": 1199,
      "छु": 1200,
      "हामीले</w>": 1201,
      "राज</w>": 1202,
      "सञ्चालन</w>": 1203,
      "सर</w>": 1204,
      "सम्झ": 1205,
      "चो": 1206,
      "इन्</w>": 1207,
      "छौं</w>": 1208,
      "टु": 1209,
      "नेपालमा</w>": 1210,
      "उद्": 1211,
      "संक्र": 1212,
      "त्रि": 1213,
      "संसद": 1214,
      "माओ": 1215,
      "मत": 1216,
      "अनुसन्": 1217,
      "मार्फ": 1218,
      "स्थि": 1219,
      "आरो": 1220,
      "संस्था": 1221,
      "टर": 1222,
      "क्ता</w>": 1223,
      "णको</w>": 1224,
      "तत्का": 1225,
      "ग्रा": 1226,
      "दाय": 1227,
      "नेपालको</w>": 1228,
      "ठूलो</w>": 1229,
      "दिएका</w>": 1230,
      "समूह": 1231,
      "संख्या</w>": 1232,
      "डो": 1233,
      "उपा": 1234,
      "बाहि": 1235,
      "ँदा</w>": 1236,
      "धार</w>": 1237,
      "बर्": 1238,
      "करि": 1239,
      "नेकपा</w>": 1240,
      "केन्द्रीय</w>": 1241,
      "पूर्व": 1242,
      "प्रस्ता": 1243,
      "्रा": 1244,
      "छलफल</w>": 1245,
      "कता</w>": 1246,
      "महिला</w>": 1247,
      "ङ्ग": 1248,
      "पाँच</w>": 1249,
      "तर्फ</w>": 1250,
      "बस": 1251,
      "कि</w>": 1252,
      "सचिव</w>": 1253,
      "ँदै</w>": 1254,
      "यस्तो</w>": 1255,
      "णा</w>": 1256,
      "धा</w>": 1257,
      "विधि": 1258,
      "प्रसाद</w>": 1259,
      "गएको</w>": 1260,
      "यात्र": 1261,
      "साथ</w>": 1262,
      "पश्": 1263,
      "भनाइ</w>": 1264,
      "प्रतिनिधि": 1265,
      "मौ": 1266,
      "विशे": 1267,
      "लगायत</w>": 1268,
      "घोष": 1269,
      "कका</w>": 1270,
      "प्राप्त</w>": 1271,
      "दी</w>": 1272,
      "टको</w>": 1273,
      "साम": 1274,
      "उनका</w>": 1275,
      "त्या": 1276,
      "सभा</w>": 1277,
      "होइन</w>": 1278,
      "गौ": 1279,
      "दुर्": 1280,
      "कलाई</w>": 1281,
      "आयोग": 1282,
      "२५</w>": 1283,
      "जाने</w>": 1284,
      "उँछन्</w>": 1285,
      "रीमा</w>": 1286,
      "सामाजिक</w>": 1287,
      "स्थानमा</w>": 1288,
      "पै": 1289,
      "विद्यु": 1290,
      "बनाउन</w>": 1291,
      "३०</w>": 1292,
      "समाज": 1293,
      "गाडि</w>": 1294,
      "आयोजना</w>": 1295,
      "बिहा": 1296,
      "१४</w>": 1297,
      "हुँदै</w>": 1298,
      "पार": 1299,
      "खेलमा</w>": 1300,
      "लेका</w>": 1301,
      "अगाडि</w>": 1302,
      "फाइ": 1303,
      "सद</w>": 1304,
      "कर</w>": 1305,
      "णका</w>": 1306,
      "छै": 1307,
      "बाल": 1308,
      "लाइ": 1309,
      "मलाई</w>": 1310,
      "वर्षीय</w>": 1311,
      "घर": 1312,
      "मति</w>": 1313,
      "हाल</w>": 1314,
      "प्रका": 1315,
      "गर्नुपर्ने</w>": 1316,
      "बजा": 1317,
      "ढा": 1318,
      "वाद</w>": 1319,
      "मार्फत</w>": 1320,
      "भर्": 1321,
      "यक</w>": 1322,
      "आउने</w>": 1323,
      "तिको</w>": 1324,
      "वर्त": 1325,
      "खेला": 1326,
      "ताले</w>": 1327,
      "पत्ता</w>": 1328,
      "पछिल्लो</w>": 1329,
      "विद्यार्थ": 1330,
      "कर्मचा": 1331,
      "उपल": 1332,
      "सन्</w>": 1333,
      "हाम्रो</w>": 1334,
      "नम्ब": 1335,
      "मुद्": 1336,
      "प्रशा": 1337,
      "त्यस्तै</w>": 1338,
      "ग्रह</w>": 1339,
      "भारतीय</w>": 1340,
      "सोम": 1341,
      "स्तु": 1342,
      "कल</w>": 1343,
      "तयारी</w>": 1344,
      "ेक</w>": 1345,
      "क्षेत्र</w>": 1346,
      "देखा": 1347,
      "एन</w>": 1348,
      "न्ड": 1349,
      "सरकारको</w>": 1350,
      "हार</w>": 1351,
      "कोभि": 1352,
      "स्वी": 1353,
      "यस्तै</w>": 1354,
      "लाग्": 1355,
      "साइ": 1356,
      "कृष": 1357,
      "पौडे": 1358,
      "साथै</w>": 1359,
      "ण्डा": 1360,
      "तयार</w>": 1361,
      "प्रव": 1362,
      "पना</w>": 1363,
      "उपलब्": 1364,
      "समयमा</w>": 1365,
      "हेर्": 1366,
      "प्रच": 1367,
      "बनाउने</w>": 1368,
      "लिन</w>": 1369,
      "कार्य</w>": 1370,
      "ब्या": 1371,
      "गर्नु": 1372,
      "िएको</w>": 1373,
      "संक्रमण</w>": 1374,
      "खेल</w>": 1375,
      "न्थ": 1376,
      "रकम</w>": 1377,
      "पुरुष</w>": 1378,
      "न्दो": 1379,
      "परिष": 1380,
      "भर</w>": 1381,
      "रोज": 1382,
      "लाम": 1383,
      "देउ": 1384,
      "अर्को</w>": 1385,
      "कानु": 1386,
      "राम्रो</w>": 1387,
      "समय": 1388,
      "ठाउँ": 1389,
      "धी": 1390,
      "१३</w>": 1391,
      "खा</w>": 1392,
      "ज्या": 1393,
      "रीले</w>": 1394,
      "बैठक</w>": 1395,
      "स्थापन</w>": 1396,
      "रीको</w>": 1397,
      "आन्दो": 1398,
      "एस": 1399,
      "ओलीले</w>": 1400,
      "नाले</w>": 1401,
      "१६</w>": 1402,
      "एव": 1403,
      "सम्पन्न</w>": 1404,
      "विदेश": 1405,
      "कै": 1406,
      "१८</w>": 1407,
      "पानी</w>": 1408,
      "सरकारी</w>": 1409,
      "बल</w>": 1410,
      "अर्ब</w>": 1411,
      "शुक्र": 1412,
      "विभाग": 1413,
      "ट्ट": 1414,
      "मका</w>": 1415,
      "विरुद्ध</w>": 1416,
      "फिल्": 1417,
      "केट</w>": 1418,
      "हाल": 1419,
      "चुना": 1420,
      "राय": 1421,
      "प्रक्रि": 1422,
      "अं": 1423,
      "रोध</w>": 1424,
      "मै": 1425,
      "यता</w>": 1426,
      "विद्यालय": 1427,
      "प्रभा": 1428,
      "चर्": 1429,
      "हुनेछ</w>": 1430,
      "काका</w>": 1431,
      "नेतृत्व": 1432,
      "नभएको</w>": 1433,
      "मले</w>": 1434,
      "हा</w>": 1435,
      "ल्न</w>": 1436,
      "पश्चि": 1437,
      "ष्टि</w>": 1438,
      "कुरा": 1439,
      "वर</w>": 1440,
      "बुध": 1441,
      "फै": 1442,
      "अस्पताल</w>": 1443,
      "राई": 1444,
      "आइत": 1445,
      "त्मक</w>": 1446,
      "हरूलाई</w>": 1447,
      "न्छन्</w>": 1448,
      "उम्मे": 1449,
      "गाउँपालिका</w>": 1450,
      "भर": 1451,
      "जस्तो</w>": 1452,
      "आग्रह</w>": 1453,
      "यसअघि</w>": 1454,
      "लीको</w>": 1455,
      "सकेका</w>": 1456,
      "सत्": 1457,
      "गोल</w>": 1458,
      "२४</w>": 1459,
      "सम्झौ": 1460,
      "याँ": 1461,
      "कार्यक्रममा</w>": 1462,
      "उनलाई</w>": 1463,
      "रोजगा": 1464,
      "लगायतका</w>": 1465,
      "सम्बन्धी</w>": 1466,
      "ल्य</w>": 1467,
      "प्रति</w>": 1468,
      "वित": 1469,
      "नेमा</w>": 1470,
      "ताका</w>": 1471,
      "स्रो": 1472,
      "परिवा": 1473,
      "करिब</w>": 1474,
      "श्री": 1475,
      "गठन</w>": 1476,
      "वडा</w>": 1477,
      "गा</w>": 1478,
      "जे</w>": 1479,
      "चाह": 1480,
      "राष्ट्रपति</w>": 1481,
      "चार्": 1482,
      "बन्द</w>": 1483,
      "भूमि": 1484,
      "न्त्र</w>": 1485,
      "यम</w>": 1486,
      "परेका</w>": 1487,
      "खर्च</w>": 1488,
      "बढ्": 1489,
      "संक": 1490,
      "क्ल": 1491,
      "मैले</w>": 1492,
      "बरा": 1493,
      "आधारमा</w>": 1494,
      "न्त</w>": 1495,
      "काठमाडौं": 1496,
      "नेपालले</w>": 1497,
      "लिएर</w>": 1498,
      "पदा": 1499,
      "घोषणा</w>": 1500,
      "रित</w>": 1501,
      "१७</w>": 1502,
      "क्त": 1503,
      "बढेको</w>": 1504,
      "रलाई</w>": 1505,
      "उत्पादन</w>": 1506,
      "समु": 1507,
      "कार्यान्व": 1508,
      "सबैभन्दा</w>": 1509,
      "न्छ": 1510,
      "लाका</w>": 1511,
      "थापा": 1512,
      "नाम</w>": 1513,
      "उपचार</w>": 1514,
      "तपा": 1515,
      "स्ट</w>": 1516,
      "कोभिड</w>": 1517,
      "उम्मेद": 1518,
      "बैठकमा</w>": 1519,
      "जग्": 1520,
      "कित्": 1521,
      "नपा": 1522,
      "समिति</w>": 1523,
      "गरिने</w>": 1524,
      "वेश</w>": 1525,
      "प्रधानमन्त्र": 1526,
      "वित</w>": 1527,
      "यात</w>": 1528,
      "यले</w>": 1529,
      "नाका</w>": 1530,
      "गामी</w>": 1531,
      "मंग": 1532,
      "वै</w>": 1533,
      "गे": 1534,
      "वेद": 1535,
      "मूल्य</w>": 1536,
      "मिक</w>": 1537,
      "प्रश्": 1538,
      "रू</w>": 1539,
      "दर्श": 1540,
      "सफल</w>": 1541,
      "भित्र": 1542,
      "सुरक्षा</w>": 1543,
      "अभिया": 1544,
      "श्रेष्ठ": 1545,
      "बजेट</w>": 1546,
      "धारण": 1547,
      "भण्डा": 1548,
      "अनुसन्धान</w>": 1549,
      "उनु</w>": 1550,
      "ताव": 1551,
      "यसको</w>": 1552,
      "न्ट</w>": 1553,
      "गण": 1554,
      "उच्च</w>": 1555,
      "तिहा": 1556,
      "माओवादी</w>": 1557,
      "बाँकी</w>": 1558,
      "तालाई</w>": 1559,
      "जको</w>": 1560,
      "च्या": 1561,
      "व्यवस्थापन</w>": 1562,
      "दल": 1563,
      "नबाट</w>": 1564,
      "मन्त्रालयले</w>": 1565,
      "लक": 1566,
      "शनि": 1567,
      "शर्मा</w>": 1568,
      "गर्नु</w>": 1569,
      "निकै</w>": 1570,
      "टी": 1571,
      "झै</w>": 1572,
      "याद": 1573,
      "मर्": 1574,
      "चल": 1575,
      "परीक्षण</w>": 1576,
      "उँदा</w>": 1577,
      "बिही": 1578,
      "ढु": 1579,
      "वडा": 1580,
      "लामो</w>": 1581,
      "स्त</w>": 1582,
      "उपलब्ध</w>": 1583,
      "वृद्": 1584,
      "उँ</w>": 1585,
      "न्स</w>": 1586,
      "बिहान</w>": 1587,
      "ते</w>": 1588,
      "कृष्": 1589,
      "चला": 1590,
      "मंगल": 1591,
      "यही</w>": 1592,
      "छिन्</w>": 1593,
      "निर": 1594,
      "प्रतियोग": 1595,
      "२१</w>": 1596,
      "चरण": 1597,
      "एन": 1598,
      "अन्ति": 1599,
      "अप": 1600,
      "ट्या": 1601,
      "नगर</w>": 1602,
      "गरिरहेको</w>": 1603,
      "एमाले</w>": 1604,
      "मेरो</w>": 1605,
      "बनेको</w>": 1606,
      "नीति</w>": 1607,
      "प्रस्ताव</w>": 1608,
      "वर्षको</w>": 1609,
      "भट्ट": 1610,
      "चा</w>": 1611,
      "ल्य": 1612,
      "केपी</w>": 1613,
      "आगामी</w>": 1614,
      "मुख्य</w>": 1615,
      "दाबी</w>": 1616,
      "षण</w>": 1617,
      "ञ्च": 1618,
      "तिर</w>": 1619,
      "एम": 1620,
      "भारत</w>": 1621,
      "सै": 1622,
      "दल</w>": 1623,
      "सलाई</w>": 1624,
      "गुरु": 1625,
      "डी": 1626,
      "गृ": 1627,
      "्रि": 1628,
      "प्रतियोगि": 1629,
      "हरुमा</w>": 1630,
      "तपाई": 1631,
      "घटना</w>": 1632,
      "कमि": 1633,
      "वेश": 1634,
      "बिराम": 1635,
      "सहभागी</w>": 1636,
      "नेछन्</w>": 1637,
      "बुझ": 1638,
      "सक्छ</w>": 1639,
      "प्या": 1640,
      "पूरा</w>": 1641,
      "अहिले": 1642,
      "लीन</w>": 1643,
      "न्याया": 1644,
      "भावना</w>": 1645,
      "अर्थ": 1646,
      "अस्पतालमा</w>": 1647,
      "क्षा</w>": 1648,
      "दर्ता</w>": 1649,
      "राज्य": 1650,
      "वेदन</w>": 1651,
      "इरा": 1652,
      "संविधान</w>": 1653,
      "एवं</w>": 1654,
      "म्प": 1655,
      "सेवा": 1656,
      "औं</w>": 1657,
      "कल्": 1658,
      "मिने": 1659,
      "अन्तर्गत</w>": 1660,
      "लगानी</w>": 1661,
      "लग": 1662,
      "बताउँछन्</w>": 1663,
      "तन्त्र": 1664,
      "विशेष</w>": 1665,
      "जिम्मे": 1666,
      "बालि": 1667,
      "अन्तर्राष्ट्रिय</w>": 1668,
      "आउ": 1669,
      "दो</w>": 1670,
      "मना": 1671,
      "कांग्रेस</w>": 1672,
      "साँ": 1673,
      "प्रवक्ता</w>": 1674,
      "विधि</w>": 1675,
      "लेर</w>": 1676,
      "व्यापा": 1677,
      "जनामा</w>": 1678,
      "घु": 1679,
      "सकिने</w>": 1680,
      "बीच": 1681,
      "व्यवस्था": 1682,
      "दुवै</w>": 1683,
      "अझै</w>": 1684,
      "राम</w>": 1685,
      "किन</w>": 1686,
      "ओली</w>": 1687,
      "००</w>": 1688,
      "औष": 1689,
      "पोर्": 1690,
      "पुष्टि</w>": 1691,
      "तन्त्र</w>": 1692,
      "त्यसैले</w>": 1693,
      "केन्द्र</w>": 1694,
      "कारो": 1695,
      "ललाई</w>": 1696,
      "भ्या": 1697,
      "घण्": 1698,
      "लाले</w>": 1699,
      "सोमबार</w>": 1700,
      "संस्": 1701,
      "नव": 1702,
      "शं": 1703,
      "२२</w>": 1704,
      "क्षि": 1705,
      "सूचना</w>": 1706,
      "छैनन्</w>": 1707,
      "मी": 1708,
      "सुरु": 1709,
      "त्यसको</w>": 1710,
      "जेठ</w>": 1711,
      "मल": 1712,
      "भनेको</w>": 1713,
      "जोखि": 1714,
      "भई</w>": 1715,
      "नम्बर</w>": 1716,
      "जिल्लामा</w>": 1717,
      "अल": 1718,
      "सन्त": 1719,
      "प्रत्य": 1720,
      "ामा</w>": 1721,
      "दर</w>": 1722,
      "खोप</w>": 1723,
      "यको</w>": 1724,
      "किएको</w>": 1725,
      "आइतबार</w>": 1726,
      "तर्फ": 1727,
      "रच": 1728,
      "सांसद</w>": 1729,
      "परिवर्त": 1730,
      "राख्": 1731,
      "रेमा</w>": 1732,
      "बर</w>": 1733,
      "तर": 1734,
      "स्वास्थ्य": 1735,
      "अन्तिम</w>": 1736,
      "लीमा</w>": 1737,
      "खेर</w>": 1738,
      "रीका</w>": 1739,
      "गरेपछि</w>": 1740,
      "्युनि": 1741,
      "राष्ट्र</w>": 1742,
      "नाराय": 1743,
      "आई": 1744,
      "बुधबार</w>": 1745,
      "बुझा": 1746,
      "आरोप</w>": 1747,
      "हुनु": 1748,
      "कसरी</w>": 1749,
      "स्थानी": 1750,
      "प्रया": 1751,
      "टन</w>": 1752,
      "शुक्रबार</w>": 1753,
      "कार्यक्रम": 1754,
      "बैठकले</w>": 1755,
      "ठाउँमा</w>": 1756,
      "रि</w>": 1757,
      "ैगरी</w>": 1758,
      "मन": 1759,
      "जान</w>": 1760,
      "शिक्षा</w>": 1761,
      "घरमा</w>": 1762,
      "लित</w>": 1763,
      "सहमति</w>": 1764,
      "एका": 1765,
      "चित": 1766,
      "टाइ": 1767,
      "फा</w>": 1768,
      "खरि": 1769,
      "रन</w>": 1770,
      "निर्देशन</w>": 1771,
      "क्वा": 1772,
      "संक्रमित</w>": 1773,
      "दार</w>": 1774,
      "सर्वो": 1775,
      "एकी</w>": 1776,
      "जस्ता</w>": 1777,
      "असार</w>": 1778,
      "घाइ": 1779,
      "किसा": 1780,
      "मुख्य": 1781,
      "छौँ</w>": 1782,
      "भ्रम": 1783,
      "पूर्व</w>": 1784,
      "जुन</w>": 1785,
      "विश्वास</w>": 1786,
      "बाहे": 1787,
      "रेर</w>": 1788,
      "धित</w>": 1789,
      "अधिकारी</w>": 1790,
      "रहने</w>": 1791,
      "कुल</w>": 1792,
      "प्रदान</w>": 1793,
      "स्क": 1794,
      "सीले</w>": 1795,
      "नहुने</w>": 1796,
      "दर": 1797,
      "व्यवसाय": 1798,
      "त्यसपछि</w>": 1799,
      "४०</w>": 1800,
      "आँ": 1801,
      "ठे": 1802,
      "आफ्ना</w>": 1803,
      "चै": 1804,
      "ङले</w>": 1805,
      "कम्युनि": 1806,
      "बस्ने</w>": 1807,
      "खेल": 1808,
      "बताउ": 1809,
      "माले</w>": 1810,
      "वितरण</w>": 1811,
      "शै": 1812,
      "कृषि</w>": 1813,
      "दृ": 1814,
      "उहाँले</w>": 1815,
      "बनाएको</w>": 1816,
      "पुरा": 1817,
      "नौ": 1818,
      "काठमाडौँ</w>": 1819,
      "शुल्": 1820,
      "उद्योग</w>": 1821,
      "बाहिर</w>": 1822,
      "ध्यक्ष</w>": 1823,
      "मिटर</w>": 1824,
      "सामान्य</w>": 1825,
      "महाधि": 1826,
      "अमेरिकी</w>": 1827,
      "सकिन्छ</w>": 1828,
      "गम्": 1829,
      "बलि": 1830,
      "उपचा": 1831,
      "बने": 1832,
      "रेन्": 1833,
      "जीव": 1834,
      "विस्ता": 1835,
      "नागरिक</w>": 1836,
      "विज्ञ": 1837,
      "तालि": 1838,
      "डान</w>": 1839,
      "फर": 1840,
      "लागे": 1841,
      "पूर्वा": 1842,
      "सुवि": 1843,
      "माध्य": 1844,
      "निर्देशक</w>": 1845,
      "महामा": 1846,
      "नि</w>": 1847,
      "लिने</w>": 1848,
      "बिक्र": 1849,
      "स्थापना</w>": 1850,
      "व्यक्ति</w>": 1851,
      "कायम</w>": 1852,
      "कति": 1853,
      "नीको</w>": 1854,
      "हरा": 1855,
      "पाउने</w>": 1856,
      "चलचि": 1857,
      "नसक्ने</w>": 1858,
      "विधे": 1859,
      "फ्": 1860,
      "महिना": 1861,
      "समितिले</w>": 1862,
      "हुँदैन</w>": 1863,
      "संशो": 1864,
      "ङको</w>": 1865,
      "गते": 1866,
      "यसले</w>": 1867,
      "सोही</w>": 1868,
      "दक्षि": 1869,
      "विषय</w>": 1870,
      "मेल": 1871,
      "कहि": 1872,
      "बहु": 1873,
      "वरि": 1874,
      "की": 1875,
      "्रे": 1876,
      "२३</w>": 1877,
      "मधे": 1878,
      "क्षम": 1879,
      "त्यही</w>": 1880,
      "स्थायी</w>": 1881,
      "बारेमा</w>": 1882,
      "बजार</w>": 1883,
      "ष्ठ</w>": 1884,
      "उठा": 1885,
      "म्मा</w>": 1886,
      "लै": 1887,
      "रास": 1888,
      "गरिरहेका</w>": 1889,
      "वमा</w>": 1890,
      "ट्रा": 1891,
      "टल</w>": 1892,
      "जन्": 1893,
      "भद": 1894,
      "संयो": 1895,
      "ाको</w>": 1896,
      "अहिलेसम्म</w>": 1897,
      "चिकित्": 1898,
      "चाहि": 1899,
      "राई</w>": 1900,
      "ख्या": 1901,
      "अध्ययन</w>": 1902,
      "न्यायाधी": 1903,
      "र्या": 1904,
      "अधिकार</w>": 1905,
      "पार्टीको</w>": 1906,
      "देखिन्छ</w>": 1907,
      "शनिबार</w>": 1908,
      "विज": 1909,
      "मनो": 1910,
      "गमा</w>": 1911,
      "तेस्रो</w>": 1912,
      "उँछ</w>": 1913,
      "बिहीबार</w>": 1914,
      "फुट": 1915,
      "सभापति</w>": 1916,
      "संघीय</w>": 1917,
      "गै": 1918,
      "कोमा</w>": 1919,
      "प्रणा": 1920,
      "यामा</w>": 1921,
      "सम्झौता</w>": 1922,
      "यहाँ</w>": 1923,
      "सीमा</w>": 1924,
      "न्यू": 1925,
      "विमान": 1926,
      "सुझा": 1927,
      "२८</w>": 1928,
      "मंगलबार</w>": 1929,
      "विद्यालय</w>": 1930,
      "रे</w>": 1931,
      "राति</w>": 1932,
      "आफ्नै</w>": 1933,
      "अध्यक्ष": 1934,
      "लु</w>": 1935,
      "कारा": 1936,
      "भौ": 1937,
      "व्यक्त</w>": 1938,
      "बसेको</w>": 1939,
      "पुर्</w>": 1940,
      "प्रवेश</w>": 1941,
      "पैसा</w>": 1942,
      "मन्": 1943,
      "सम्भावना</w>": 1944,
      "संरक्ष": 1945,
      "गको</w>": 1946,
      "सांसद": 1947,
      "णी</w>": 1948,
      "रत</w>": 1949,
      "मुद्दा</w>": 1950,
      "सात</w>": 1951,
      "देउवा": 1952,
      "गर्ने": 1953,
      "गम्भी": 1954,
      "२७</w>": 1955,
      "कट</w>": 1956,
      "णले</w>": 1957,
      "सहयोग": 1958,
      "रीक्षक</w>": 1959,
      "कारबा": 1960,
      "आन्दोल": 1961,
      "शुल्क</w>": 1962,
      "प्रभाव": 1963,
      "लकडा": 1964,
      "सिक</w>": 1965,
      "प्रस्तु": 1966,
      "प्राधि": 1967,
      "हरेक</w>": 1968,
      "उमे": 1969,
      "सहज</w>": 1970,
      "स्ट": 1971,
      "रबाट</w>": 1972,
      "जक</w>": 1973,
      "नं</w>": 1974,
      "बजारमा</w>": 1975,
      "उन्": 1976,
      "पीडि": 1977,
      "गति": 1978,
      "तम</w>": 1979,
      "सामग्र": 1980,
      "उपत्य": 1981,
      "जमा</w>": 1982,
      "पढ": 1983,
      "१९": 1984,
      "जल": 1985,
      "२६</w>": 1986,
      "बन्ध": 1987,
      "भाष": 1988,
      "संक्रम": 1989,
      "देशमा</w>": 1990,
      "ह्": 1991,
      "पुगेका</w>": 1992,
      "धर्": 1993,
      "दर्शन</w>": 1994,
      "कम्पनीले</w>": 1995,
      "शुरु</w>": 1996,
      "राह": 1997,
      "पत्रकार</w>": 1998,
      "सिंह</w>": 1999,
      "कला": 2000,
      "निजी</w>": 2001,
      "त्यहाँ</w>": 2002,
      "जवा": 2003,
      "थालेको</w>": 2004,
      "थाहा</w>": 2005,
      "ढी</w>": 2006,
      "भइसकेको</w>": 2007,
      "अग्र": 2008,
      "कर्मचारी</w>": 2009,
      "दिइ": 2010,
      "गुमा": 2011,
      "गर्छ</w>": 2012,
      "पक्षमा</w>": 2013,
      "मिला": 2014,
      "चिनि": 2015,
      "सुना": 2016,
      "प्रक्रिया</w>": 2017,
      "भाग</w>": 2018,
      "अफ": 2019,
      "जेन्": 2020,
      "ज्यान</w>": 2021,
      "रीलाई</w>": 2022,
      "प्रकाश": 2023,
      "जग्गा</w>": 2024,
      "मती</w>": 2025,
      "निरन्त": 2026,
      "होला</w>": 2027,
      "हस्ता": 2028,
      "बाहेक</w>": 2029,
      "फल": 2030,
      "फेरि</w>": 2031,
      "पर्यटन</w>": 2032,
      "शान्": 2033,
      "मन्त्रि": 2034,
      "दैनिक</w>": 2035,
      "वको</w>": 2036,
      "घाइते</w>": 2037,
      "बराब": 2038,
      "दशमल": 2039,
      "टका</w>": 2040,
      "त्या</w>": 2041,
      "थु": 2042,
      "६०</w>": 2043,
      "कृति</w>": 2044,
      "खड्": 2045,
      "नल</w>": 2046,
      "पति": 2047,
      "विमानस्थ": 2048,
      "प्रि": 2049,
      "फर्कि": 2050,
      "धिक</w>": 2051,
      "भन्छन्</w>": 2052,
      "पोखरे": 2053,
      "र्थ</w>": 2054,
      "स्पर्": 2055,
      "वाताव": 2056,
      "फिर्": 2057,
      "नुभएको</w>": 2058,
      "वैशा": 2059,
      "श्रेष्ठले</w>": 2060,
      "आफै": 2061,
      "नेकपा": 2062,
      "प्रयोग": 2063,
      "बजे</w>": 2064,
      "जस्तै</w>": 2065,
      "विवा": 2066,
      "जित": 2067,
      "कालाई</w>": 2068,
      "आफू</w>": 2069,
      "कति</w>": 2070,
      "त्य</w>": 2071,
      "विक</w>": 2072,
      "सवारी</w>": 2073,
      "नाथ</w>": 2074,
      "काँ": 2075,
      "हजा": 2076,
      "नेपालका</w>": 2077,
      "हित</w>": 2078,
      "निश्": 2079,
      "्रा</w>": 2080,
      "पराजित</w>": 2081,
      "घटना": 2082,
      "भव</w>": 2083,
      "नसकेको</w>": 2084,
      "जनालाई</w>": 2085,
      "केको</w>": 2086,
      "२९</w>": 2087,
      "धारण</w>": 2088,
      "होस्</w>": 2089,
      "संयुक्त</w>": 2090,
      "सम्बन्धित</w>": 2091,
      "मान्छ": 2092,
      "थापाले</w>": 2093,
      "शी</w>": 2094,
      "गम्भीर</w>": 2095,
      "महत्व": 2096,
      "तिया": 2097,
      "वृद्धि</w>": 2098,
      "कतिप": 2099,
      "क्का</w>": 2100,
      "अवधि": 2101,
      "नाममा</w>": 2102,
      "काे</w>": 2103,
      "रुपैयाँ": 2104,
      "प्रशिक्ष": 2105,
      "दशमलव</w>": 2106,
      "संरच": 2107,
      "थिएन</w>": 2108,
      "माध": 2109,
      "त्त</w>": 2110,
      "कू": 2111,
      "ट्रे": 2112,
      "बताइएको</w>": 2113,
      "जीवन</w>": 2114,
      "दुई": 2115,
      "पको</w>": 2116,
      "तुल": 2117,
      "भेटि": 2118,
      "च्च": 2119,
      "कन</w>": 2120,
      "कमजो": 2121,
      "कोइरा": 2122,
      "लीलाई</w>": 2123,
      "विद्युत्</w>": 2124,
      "वेशन</w>": 2125,
      "न्थ्यो</w>": 2126,
      "देशको</w>": 2127,
      "देव": 2128,
      "शील</w>": 2129,
      "र्ष</w>": 2130,
      "अनि</w>": 2131,
      "शाखा": 2132,
      "पर्छ</w>": 2133,
      "लाग्ने</w>": 2134,
      "तथ्या": 2135,
      "णि": 2136,
      "सिफा": 2137,
      "संक्रमि": 2138,
      "गीत</w>": 2139,
      "श्रेष्ठ</w>": 2140,
      "प्ता": 2141,
      "कोे</w>": 2142,
      "स्या": 2143,
      "मन्त्रिपरिष": 2144,
      "प्रश्न</w>": 2145,
      "जो</w>": 2146,
      "बालबालि": 2147,
      "टोली</w>": 2148,
      "समितिको</w>": 2149,
      "तामा": 2150,
      "सिफारि": 2151,
      "नेतृत्व</w>": 2152,
      "ङमा</w>": 2153,
      "विश्व</w>": 2154,
      "तत्काल</w>": 2155,
      "आन्त": 2156,
      "बेला": 2157,
      "समस्या": 2158,
      "न्द</w>": 2159,
      "सीको</w>": 2160,
      "ग्न</w>": 2161,
      "सम्बो": 2162,
      "याता": 2163,
      "हल</w>": 2164,
      "बैंक</w>": 2165,
      "राख्ने</w>": 2166,
      "उनुपर्ने</w>": 2167,
      "माइ": 2168,
      "पक</w>": 2169,
      "क्ता": 2170,
      "फरक</w>": 2171,
      "द्वा": 2172,
      "प्रतिनिधि</w>": 2173,
      "प्रभावित</w>": 2174,
      "कार्यकर्": 2175,
      "सहा": 2176,
      "महिना</w>": 2177,
      "सँगको</w>": 2178,
      "आर": 2179,
      "एक्": 2180,
      "भव": 2181,
      "गो</w>": 2182,
      "यर": 2183,
      "तो</w>": 2184,
      "चौध": 2185,
      "भाइरस</w>": 2186,
      "डु": 2187,
      "प्रतिस्पर्": 2188,
      "प्राथ": 2189,
      "भाव</w>": 2190,
      "बाटो</w>": 2191,
      "शक्ति</w>": 2192,
      "समन्व": 2193,
      "याको</w>": 2194,
      "असो": 2195,
      "फिर्ता</w>": 2196,
      "आउन</w>": 2197,
      "प्रमा": 2198,
      "यस्ता</w>": 2199,
      "कार्यान्वयन</w>": 2200,
      "मन्दि": 2201,
      "धानिक</w>": 2202,
      "रेको</w>": 2203,
      "कले": 2204,
      "आफूले</w>": 2205,
      "पश्चिम</w>": 2206,
      "धी</w>": 2207,
      "थो": 2208,
      "कान": 2209,
      "आन्तरिक</w>": 2210,
      "कर्णा": 2211,
      "राईले</w>": 2212,
      "बाइ": 2213,
      "क्सि": 2214,
      "लर</w>": 2215,
      "भै": 2216,
      "श्वर</w>": 2217,
      "विव": 2218,
      "पुनर्": 2219,
      "नै": 2220,
      "हले</w>": 2221,
      "विवाद</w>": 2222,
      "हरूमा</w>": 2223,
      "ड्ने</w>": 2224,
      "एँ</w>": 2225,
      "रामा</w>": 2226,
      "संविधान": 2227,
      "प्रयास</w>": 2228,
      "थिइन्</w>": 2229,
      "प्रतिष्": 2230,
      "गराउने</w>": 2231,
      "एन्": 2232,
      "टामा</w>": 2233,
      "राखिएको</w>": 2234,
      "कन्": 2235,
      "स्थिति</w>": 2236,
      "ध्यान</w>": 2237,
      "संघ</w>": 2238,
      "खोज्": 2239,
      "बनाएर</w>": 2240,
      "वरिष्ठ</w>": 2241,
      "हिमा": 2242,
      "राखेर</w>": 2243,
      "ख्": 2244,
      "अपरा": 2245,
      "भारतको</w>": 2246,
      "प्रचण्ड": 2247,
      "संसदीय</w>": 2248,
      "भूकम्": 2249,
      "निष्": 2250,
      "बिक्री</w>": 2251,
      "त्ति": 2252,
      "एमाले": 2253,
      "ढि": 2254,
      "भूमिका</w>": 2255,
      "उपभो": 2256,
      "ल्ला": 2257,
      "परिवर्तन</w>": 2258,
      "अधिकृत</w>": 2259,
      "वान</w>": 2260,
      "डको</w>": 2261,
      "लम्": 2262,
      "रासस</w>": 2263,
      "राखेको</w>": 2264,
      "जनताको</w>": 2265,
      "फागु": 2266,
      "३५</w>": 2267,
      "दिनमा</w>": 2268,
      "कोले</w>": 2269,
      "विज्ञा": 2270,
      "द्धा": 2271,
      "क्षेत्रको</w>": 2272,
      "हटा": 2273,
      "शक्ति": 2274,
      "अवसर": 2275,
      "युवा</w>": 2276,
      "पारि": 2277,
      "खरिद</w>": 2278,
      "सङ्घ": 2279,
      "कबाट</w>": 2280,
      "गर</w>": 2281,
      "पुग्ने</w>": 2282,
      "यहाँ": 2283,
      "हरि": 2284,
      "जस": 2285,
      "जिम्मेवारी</w>": 2286,
      "मन्त्रालयका</w>": 2287,
      "भक्त": 2288,
      "समूह</w>": 2289,
      "ल्दै</w>": 2290,
      "गर्छन्</w>": 2291,
      "गराउन</w>": 2292,
      "कोट</w>": 2293,
      "प्राधिकरण": 2294,
      "गुना": 2295,
      "महिला": 2296,
      "नाय": 2297,
      "प्रस्तुत</w>": 2298,
      "बोर्": 2299,
      "डमा</w>": 2300,
      "सरकारलाई</w>": 2301,
      "टोलीले</w>": 2302,
      "वर्षमा</w>": 2303,
      "तार</w>": 2304,
      "हिँ": 2305,
      "लक्ष्य</w>": 2306,
      "कोष": 2307,
      "दिइएको</w>": 2308,
      "विरोध</w>": 2309,
      "दि</w>": 2310,
      "स्ती</w>": 2311,
      "बाटै</w>": 2312,
      "जनाले</w>": 2313,
      "मुख्यमन्त्री</w>": 2314,
      "बोला": 2315,
      "नजि": 2316,
      "पार्टीका</w>": 2317,
      "हालसम्म</w>": 2318,
      "समितिका</w>": 2319,
      "गृह": 2320,
      "सचिवा": 2321,
      "मं": 2322,
      "गमन</w>": 2323,
      "बताउनुभयो</w>": 2324,
      "कारोबार</w>": 2325,
      "कोरि": 2326,
      "सम्मको</w>": 2327,
      "निर्वाचित</w>": 2328,
      "प्रो": 2329,
      "वले</w>": 2330,
      "कमा": 2331,
      "यलाई</w>": 2332,
      "भनिएको</w>": 2333,
      "युव": 2334,
      "धन": 2335,
      "यसलाई</w>": 2336,
      "धिकार": 2337,
      "नियन्त्रण</w>": 2338,
      "पहिले</w>": 2339,
      "विज्ञप्": 2340,
      "दक्षिण</w>": 2341,
      "थापा</w>": 2342,
      "दैछ</w>": 2343,
      "वैधानिक</w>": 2344,
      "ग्राह": 2345,
      "धानको</w>": 2346,
      "भिडि": 2347,
      "संल": 2348,
      "सम्बोधन</w>": 2349,
      "पाण्ड": 2350,
      "हर</w>": 2351,
      "लीका</w>": 2352,
      "तलाई</w>": 2353,
      "अधिकां": 2354,
      "रोक्": 2355,
      "घटनामा</w>": 2356,
      "पाएको</w>": 2357,
      "बच्": 2358,
      "घि": 2359,
      "अनि": 2360,
      "किस्ता": 2361,
      "कम्पनी</w>": 2362,
      "आफूलाई</w>": 2363,
      "यसरी</w>": 2364,
      "आर</w>": 2365,
      "साउन</w>": 2366,
      "पाल": 2367,
      "स्पष्ट</w>": 2368,
      "समुदाय": 2369,
      "नियन्त्रणमा</w>": 2370,
      "गर्द": 2371,
      "विरा": 2372,
      "पौडेलले</w>": 2373,
      "जोड</w>": 2374,
      "रबहादुर</w>": 2375,
      "किलो": 2376,
      "संशोधन</w>": 2377,
      "३१</w>": 2378,
      "विद्यार्थी</w>": 2379,
      "परे": 2380,
      "सम्बन्ध</w>": 2381,
      "लबाट</w>": 2382,
      "चिन्": 2383,
      "यसमा</w>": 2384,
      "वल</w>": 2385,
      "विदेशी</w>": 2386,
      "७०</w>": 2387,
      "सश": 2388,
      "तिका</w>": 2389,
      "बताउँदै</w>": 2390,
      "हत्या</w>": 2391,
      "केर</w>": 2392,
      "माथि": 2393,
      "पन</w>": 2394,
      "गर्नुपर्छ</w>": 2395,
      "हात</w>": 2396,
      "आयोगले</w>": 2397,
      "ल्याएको</w>": 2398,
      "खेलाडी</w>": 2399,
      "जाँ": 2400,
      "साझ": 2401,
      "डेर</w>": 2402,
      "मिनेटमा</w>": 2403,
      "आवा": 2404,
      "एसि": 2405,
      "देशका</w>": 2406,
      "यौं</w>": 2407,
      "देशिक</w>": 2408,
      "स्थान</w>": 2409,
      "विकेट</w>": 2410,
      "सेर</w>": 2411,
      "कारवा": 2412,
      "यल</w>": 2413,
      "पाँच": 2414,
      "अर्था": 2415,
      "चिनियाँ</w>": 2416,
      "समर्थ": 2417,
      "कार्यालयले</w>": 2418,
      "द्धको</w>": 2419,
      "भेट": 2420,
      "सुविधा</w>": 2421,
      "आज": 2422,
      "दिव": 2423,
      "च्छ": 2424,
      "तत्कालीन</w>": 2425,
      "कानू": 2426,
      "चरणमा</w>": 2427,
      "सञ्चालनमा</w>": 2428,
      "स्टे": 2429,
      "स्त्र</w>": 2430,
      "स्टा": 2431,
      "तर्फबाट</w>": 2432,
      "िका</w>": 2433,
      "रौ": 2434,
      "गण्ड": 2435,
      "साय": 2436,
      "पुरमा</w>": 2437,
      "क्वारेन्": 2438,
      "कतिपय</w>": 2439,
      "कृतिक</w>": 2440,
      "प्रदेशमा</w>": 2441,
      "क्षेत्रका</w>": 2442,
      "सुरक्षा": 2443,
      "उठ": 2444,
      "उत्पाद": 2445,
      "ल्याउन</w>": 2446,
      "लाइन</w>": 2447,
      "सन्द": 2448,
      "ललि": 2449,
      "राको</w>": 2450,
      "नीमा</w>": 2451,
      "कृष्ट</w>": 2452,
      "वि</w>": 2453,
      "खण्ड": 2454,
      "३२</w>": 2455,
      "हन</w>": 2456,
      "एकाले</w>": 2457,
      "बैंकले</w>": 2458,
      "सिर</w>": 2459,
      "रोग</w>": 2460,
      "तान्त्र": 2461,
      "पुष्": 2462,
      "महत्वपूर्ण</w>": 2463,
      "विष्": 2464,
      "चाँ": 2465,
      "गाडी</w>": 2466,
      "द्व": 2467,
      "प्रशास": 2468,
      "राख्न</w>": 2469,
      "प्रदर्शन</w>": 2470,
      "प्राविधि": 2471,
      "लाख": 2472,
      "मल</w>": 2473,
      "भएन</w>": 2474,
      "सन्तु": 2475,
      "भनिन्</w>": 2476,
      "मापद": 2477,
      "क्रिय</w>": 2478,
      "गी</w>": 2479,
      "संवैधानिक</w>": 2480,
      "निम्": 2481,
      "पहा": 2482,
      "जर्": 2483,
      "मार्ग</w>": 2484,
      "धारणा</w>": 2485,
      "स्तर": 2486,
      "शव</w>": 2487,
      "धानी</w>": 2488,
      "एजेन्": 2489,
      "क्षति</w>": 2490,
      "ऐन</w>": 2491,
      "सुझाव</w>": 2492,
      "दूर": 2493,
      "पस": 2494,
      "सचे": 2495,
      "कार्यकारी</w>": 2496,
      "आठ</w>": 2497,
      "निर्वाचनमा</w>": 2498,
      "सर्वोच्च</w>": 2499,
      "मेडि": 2500,
      "लै</w>": 2501,
      "पक्ष</w>": 2502,
      "बताएको</w>": 2503,
      "याले</w>": 2504,
      "नियमित</w>": 2505,
      "सिर्": 2506,
      "पुनः</w>": 2507,
      "कमल</w>": 2508,
      "सामग्री</w>": 2509,
      "ठूला</w>": 2510,
      "र्न</w>": 2511,
      "गुनासो</w>": 2512,
      "प्राथमि": 2513,
      "समृ": 2514,
      "ष्टा": 2515,
      "ीया</w>": 2516,
      "द्वारा</w>": 2517,
      "कोरोना": 2518,
      "४५</w>": 2519,
      "सम्पर्": 2520,
      "भनेका</w>": 2521,
      "क्टर</w>": 2522,
      "सुधार</w>": 2523,
      "टेलि": 2524,
      "रै": 2525,
      "लिएका</w>": 2526,
      "कारबाही</w>": 2527,
      "असोज</w>": 2528,
      "भारतमा</w>": 2529,
      "उद्देश": 2530,
      "बद": 2531,
      "ब्रा": 2532,
      "७५</w>": 2533,
      "जनता</w>": 2534,
      "योजन</w>": 2535,
      "सहितको</w>": 2536,
      "८०</w>": 2537,
      "इज": 2538,
      "भवन</w>": 2539,
      "कम्पनीको</w>": 2540,
      "अधिकारीले</w>": 2541,
      "हुनु</w>": 2542,
      "भदौ</w>": 2543,
      "तहमा</w>": 2544,
      "महानगर": 2545,
      "अधिकांश</w>": 2546,
      "पार्टी": 2547,
      "ध्य</w>": 2548,
      "कानुन</w>": 2549,
      "अफ</w>": 2550,
      "तीमा</w>": 2551,
      "मुद्दा": 2552,
      "गरेकी</w>": 2553,
      "उम्मेदवार</w>": 2554,
      "छनो": 2555,
      "जोडि": 2556,
      "त्यसलाई</w>": 2557,
      "त्री</w>": 2558,
      "चालन</w>": 2559,
      "थपि": 2560,
      "टले</w>": 2561,
      "समाधान</w>": 2562,
      "ब्य": 2563,
      "पुल</w>": 2564,
      "व्यापार</w>": 2565,
      "युवा": 2566,
      "संस्था</w>": 2567,
      "सुरक्षित</w>": 2568,
      "फिल्म</w>": 2569,
      "नुवा": 2570,
      "एकी": 2571,
      "दिउँ": 2572,
      "नगरपालिकाले</w>": 2573,
      "अति": 2574,
      "उनीहरुले</w>": 2575,
      "खेलाड": 2576,
      "यू": 2577,
      "श्व": 2578,
      "मुक्त</w>": 2579,
      "समाचार</w>": 2580,
      "प्रशासन</w>": 2581,
      "राजी": 2582,
      "वर्षीया</w>": 2583,
      "सुन": 2584,
      "रिपोर्": 2585,
      "खोज": 2586,
      "पचा": 2587,
      "शेयर</w>": 2588,
      "हुनुपर्ने</w>": 2589,
      "जोखिम</w>": 2590,
      "ल्याउने</w>": 2591,
      "माघ</w>": 2592,
      "चैत</w>": 2593,
      "मबाट</w>": 2594,
      "तान्त्रिक</w>": 2595,
      "प्रतिष्ठा": 2596,
      "भत्": 2597,
      "उपाध्यक्ष</w>": 2598,
      "डले</w>": 2599,
      "असर</w>": 2600,
      "कृष्ण</w>": 2601,
      "सवा": 2602,
      "अभियान</w>": 2603,
      "यात्रा</w>": 2604,
      "माको</w>": 2605,
      "सकिएको</w>": 2606,
      "पोखरा</w>": 2607,
      "खना": 2608,
      "कारात्मक</w>": 2609,
      "एफ": 2610,
      "समन्वय</w>": 2611,
      "चीन</w>": 2612,
      "ग्या": 2613,
      "विराट": 2614,
      "चुनौ": 2615,
      "देवी</w>": 2616,
      "संकलन</w>": 2617,
      "वैशाख</w>": 2618,
      "शा</w>": 2619,
      "लिक</w>": 2620,
      "संयोजक</w>": 2621,
      "जिल्ला": 2622,
      "लाल</w>": 2623,
      "ललित": 2624,
      "पूर्वाधार</w>": 2625,
      "मन्त्रालय</w>": 2626,
      "वातावरण</w>": 2627,
      "कारको</w>": 2628,
      "ँदैन</w>": 2629,
      "बताइन्</w>": 2630,
      "अध्या": 2631,
      "सिन्": 2632,
      "तपाईं": 2633,
      "ंगा": 2634,
      "अवसरमा</w>": 2635,
      "दबा": 2636,
      "अनुमान</w>": 2637,
      "फू": 2638,
      "प्प": 2639,
      "महो": 2640,
      "पाकिस्ता": 2641,
      "लगाउने</w>": 2642,
      "टिङ</w>": 2643,
      "फागुन</w>": 2644,
      "लागेकोे</w>": 2645,
      "सम्पूर्ण</w>": 2646,
      "उत्कृष्ट</w>": 2647,
      "सत्ता": 2648,
      "भाइरसको</w>": 2649,
      "गाउँ</w>": 2650,
      "दलका</w>": 2651,
      "पुस</w>": 2652,
      "सेन्": 2653,
      "ङका</w>": 2654,
      "संरक्षण</w>": 2655,
      "गल": 2656,
      "हुन्छन्</w>": 2657,
      "बेलाय": 2658,
      "वित्त": 2659,
      "ज्य": 2660,
      "सक्रिय</w>": 2661,
      "र्ष": 2662,
      "सद्": 2663,
      "ैं</w>": 2664,
      "अंक</w>": 2665,
      "पुर्": 2666,
      "लागू</w>": 2667,
      "पारित</w>": 2668,
      "शरी": 2669,
      "अरु</w>": 2670,
      "एकै</w>": 2671,
      "विधेयक</w>": 2672,
      "न्ने</w>": 2673,
      "कार्यालयमा</w>": 2674,
      "जिल्लाका</w>": 2675,
      "छुट्": 2676,
      "अवधिमा</w>": 2677,
      "द्धि": 2678,
      "नेतृत्वको</w>": 2679,
      "लक्ष्": 2680,
      "भौतिक</w>": 2681,
      "सुन्द": 2682,
      "निर्माणको</w>": 2683,
      "यातायात</w>": 2684,
      "सङ्क्र": 2685,
      "विस्तार</w>": 2686,
      "कोटा": 2687,
      "चुनाव</w>": 2688,
      "वासी</w>": 2689,
      "संगठ": 2690,
      "प्रतिवेदन</w>": 2691,
      "दलको</w>": 2692,
      "पुस्त": 2693,
      "मिल्": 2694,
      "फोन</w>": 2695,
      "आचार्": 2696,
      "तै</w>": 2697,
      "आजको</w>": 2698,
      "जर</w>": 2699,
      "क्रिया": 2700,
      "छान": 2701,
      "बनाइ": 2702,
      "वित्तीय</w>": 2703,
      "काममा</w>": 2704,
      "गञ्": 2705,
      "आदेश</w>": 2706,
      "बन्न</w>": 2707,
      "याली</w>": 2708,
      "सन": 2709,
      "िता</w>": 2710,
      "राहत</w>": 2711,
      "सम्मेल": 2712,
      "स्थानीय": 2713,
      "दिँदै</w>": 2714,
      "त्यसमा</w>": 2715,
      "यसका</w>": 2716,
      "ट्रो": 2717,
      "महे": 2718,
      "थ्यो</w>": 2719,
      "पहिचा": 2720,
      "उडान</w>": 2721,
      "भर्ना</w>": 2722,
      "कर्मी</w>": 2723,
      "कमजोर</w>": 2724,
      "प्रमुख": 2725,
      "माग": 2726,
      "विघट": 2727,
      "मण्ड": 2728,
      "क्रिकेट</w>": 2729,
      "म्पि": 2730,
      "अस्": 2731,
      "किन": 2732,
      "सिल</w>": 2733,
      "कांग्रेसका</w>": 2734,
      "जम्मा</w>": 2735,
      "प्रचण्ड</w>": 2736,
      "पुरुष": 2737,
      "प्रजा": 2738,
      "तक</w>": 2739,
      "दाहाल</w>": 2740,
      "मज": 2741,
      "उपचारका</w>": 2742,
      "बन्ध</w>": 2743,
      "कैला": 2744,
      "निश्चित</w>": 2745,
      "पशु": 2746,
      "सभामा</w>": 2747,
      "त्यस</w>": 2748,
      "अवसर</w>": 2749,
      "स्थापित</w>": 2750,
      "लाग्छ</w>": 2751,
      "मतदा": 2752,
      "प्रकाशित</w>": 2753,
      "त्यसैगरी</w>": 2754,
      "बस्ने": 2755,
      "नक्": 2756,
      "कसै": 2757,
      "विशेष": 2758,
      "बीचको</w>": 2759,
      "प्रदर्श": 2760,
      "ल्लो</w>": 2761,
      "कथा": 2762,
      "न्यायाधीश</w>": 2763,
      "वार्ता</w>": 2764,
      "चन्द्र</w>": 2765,
      "कर्ष": 2766,
      "अन्तर": 2767,
      "लगाएको</w>": 2768,
      "पक्षी</w>": 2769,
      "फेला</w>": 2770,
      "सञ्जा": 2771,
      "न्तरण</w>": 2772,
      "एकता</w>": 2773,
      "विवरण</w>": 2774,
      "माओवाद": 2775,
      "अर्थ</w>": 2776,
      "नियुक्त</w>": 2777,
      "लेपछि</w>": 2778,
      "विप": 2779,
      "जिल्लाको</w>": 2780,
      "राजधानी</w>": 2781,
      "बन्दी</w>": 2782,
      "महाधिवेश": 2783,
      "गन्": 2784,
      "त्यस्तो</w>": 2785,
      "बले</w>": 2786,
      "गण्डकी</w>": 2787,
      "मोटर": 2788,
      "पृ": 2789,
      "सुर्": 2790,
      "प्रभावकारी</w>": 2791,
      "बा</w>": 2792,
      "सीमा": 2793,
      "कर्णाली</w>": 2794,
      "भुक्ता": 2795,
      "कठ": 2796,
      "था</w>": 2797,
      "प्रहरीको</w>": 2798,
      "अध्यय": 2799,
      "ग्रह": 2800,
      "बह": 2801,
      "प्राविधिक</w>": 2802,
      "सभाको</w>": 2803,
      "उनु": 2804,
      "रुप</w>": 2805,
      "मल्": 2806,
      "हजार": 2807,
      "टिभ</w>": 2808,
      "अपना": 2809,
      "पहल</w>": 2810,
      "लागेका</w>": 2811,
      "नारायण</w>": 2812,
      "ौँ": 2813,
      "सित</w>": 2814,
      "प्ले": 2815,
      "जति</w>": 2816,
      "मेडिकल</w>": 2817,
      "प्रदेशका</w>": 2818,
      "बाग": 2819,
      "बनेका</w>": 2820,
      "पुरको</w>": 2821,
      "विगत": 2822,
      "स्तरीय</w>": 2823,
      "सिफारिस</w>": 2824,
      "ष्टि": 2825,
      "धारा</w>": 2826,
      "इतिहा": 2827,
      "कृष्ण": 2828,
      "पौडेल</w>": 2829,
      "विश्वा": 2830,
      "अदालतले</w>": 2831,
      "पाएका</w>": 2832,
      "अहिलेको</w>": 2833,
      "निग": 2834,
      "कप</w>": 2835,
      "पुरस्": 2836,
      "साँझ</w>": 2837,
      "पाठ": 2838,
      "मानिस": 2839,
      "कार्यान्वय": 2840,
      "मोजि": 2841,
      "बढ्दै</w>": 2842,
      "निष": 2843,
      "सोले": 2844,
      "सरो": 2845,
      "क्षमता</w>": 2846,
      "बन्ने</w>": 2847,
      "थे</w>": 2848,
      "भारतले</w>": 2849,
      "अभाव</w>": 2850,
      "कप्ता": 2851,
      "औषधि</w>": 2852,
      "शान्ति</w>": 2853,
      "ेपछि</w>": 2854,
      "आन्दोलन</w>": 2855,
      "तय</w>": 2856,
      "विकल्": 2857,
      "बिरामी</w>": 2858,
      "दिउँसो</w>": 2859,
      "३३</w>": 2860,
      "प्रत्येक</w>": 2861,
      "पारेको</w>": 2862,
      "रहेछ</w>": 2863,
      "विरो": 2864,
      "द्</w>": 2865,
      "परिवार</w>": 2866,
      "क्स</w>": 2867,
      "मान्य": 2868,
      "फैस": 2869,
      "र्ने</w>": 2870,
      "सम्बन्धमा</w>": 2871,
      "ज्य</w>": 2872,
      "नसक्": 2873,
      "गराएको</w>": 2874,
      "संलग्न</w>": 2875,
      "निर्माणका</w>": 2876,
      "रता</w>": 2877,
      "बमोजि": 2878,
      "हुन्थ्यो</w>": 2879,
      "कीय</w>": 2880,
      "दिएर</w>": 2881,
      "कांग्रेसले</w>": 2882,
      "बद्ध</w>": 2883,
      "पत्ति</w>": 2884,
      "हामीलाई</w>": 2885,
      "तीय</w>": 2886,
      "वाइ": 2887,
      "जनक": 2888,
      "क्रिया</w>": 2889,
      "गुण": 2890,
      "नगरपालिकाका</w>": 2891,
      "से</w>": 2892,
      "नेतृत्वमा</w>": 2893,
      "साधन</w>": 2894,
      "उसले</w>": 2895,
      "राव": 2896,
      "जसले</w>": 2897,
      "द्धता</w>": 2898,
      "अल्": 2899,
      "अधिकारी": 2900,
      "गौत": 2901,
      "संक्रमितको</w>": 2902,
      "शेरबहादुर</w>": 2903,
      "सामु": 2904,
      "यु</w>": 2905,
      "उनीहरुको</w>": 2906,
      "आयोजित</w>": 2907,
      "झु": 2908,
      "सल्ला": 2909,
      "भरमा</w>": 2910,
      "प्रभाव</w>": 2911,
      "रिएको</w>": 2912,
      "वस्तु": 2913,
      "ंक</w>": 2914,
      "राष्ट्रि": 2915,
      "गर्</w>": 2916,
      "णबाट</w>": 2917,
      "गएका</w>": 2918,
      "चलचित्र</w>": 2919,
      "कार्यालयका</w>": 2920,
      "खबर</w>": 2921,
      "ची</w>": 2922,
      "तल": 2923,
      "संघका</w>": 2924,
      "खाना</w>": 2925,
      "सर्वसा": 2926,
      "दिल्": 2927,
      "ड्न</w>": 2928,
      "लि</w>": 2929,
      "पाल्": 2930,
      "योजना": 2931,
      "कसैले</w>": 2932,
      "किङ</w>": 2933,
      "त्यहाँ": 2934,
      "तहको</w>": 2935,
      "मन्त्री": 2936,
      "भ्रष्टा": 2937,
      "अघिल्लो</w>": 2938,
      "समाजवादी</w>": 2939,
      "नति": 2940,
      "खटि": 2941,
      "विभागले</w>": 2942,
      "सडकमा</w>": 2943,
      "आइसोले": 2944,
      "मि</w>": 2945,
      "ढका": 2946,
      "९०</w>": 2947,
      "काँग्रे": 2948,
      "थ्": 2949,
      "जहा": 2950,
      "उद": 2951,
      "कमिटी</w>": 2952,
      "वीर": 2953,
      "सहम": 2954,
      "पले</w>": 2955,
      "पूर्ति</w>": 2956,
      "सम्मान</w>": 2957,
      "एसपी</w>": 2958,
      "णिज्य</w>": 2959,
      "म्बि": 2960,
      "व्यवसायी</w>": 2961,
      "गाउँमा</w>": 2962,
      "स्रोत</w>": 2963,
      "संख्या": 2964,
      "मूल्य": 2965,
      "दाहा": 2966,
      "दारी</w>": 2967,
      "राजे": 2968,
      "बलमा</w>": 2969,
      "माव": 2970,
      "परीक्षा</w>": 2971,
      "शर्माले</w>": 2972,
      "पढा": 2973,
      "पर</w>": 2974,
      "मैदा": 2975,
      "७६</w>": 2976,
      "आधार</w>": 2977,
      "बालु": 2978,
      "रहेकाले</w>": 2979,
      "नौ</w>": 2980,
      "एनन्</w>": 2981,
      "लिग</w>": 2982,
      "बढाउन</w>": 2983,
      "सशस्त्र</w>": 2984,
      "उद्योग": 2985,
      "प्रमाण": 2986,
      "मंसिर</w>": 2987,
      "पूर्ण": 2988,
      "लोच": 2989,
      "आम्": 2990,
      "औँ</w>": 2991,
      "नहुँदा</w>": 2992,
      "प्रहार</w>": 2993,
      "खेलकु": 2994,
      "बको</w>": 2995,
      "कर्मचार": 2996,
      "हुँ</w>": 2997,
      "त्तै</w>": 2998,
      "ङ्ग</w>": 2999,
      "जित्": 3000,
      "उपरीक्षक</w>": 3001,
      "उनीहरु</w>": 3002,
      "हुने": 3003,
      "पि</w>": 3004,
      "प्रतिनिधिसभा</w>": 3005,
      "छलफ": 3006,
      "राजीनामा</w>": 3007,
      "इन्टर": 3008,
      "बला": 3009,
      "ब्र": 3010,
      "क्लब</w>": 3011,
      "बढ्ने</w>": 3012,
      "लं": 3013,
      "६५</w>": 3014,
      "अख्": 3015,
      "दैनन्</w>": 3016,
      "सभामुख</w>": 3017,
      "पुष्प": 3018,
      "व्यवस्थापन": 3019,
      "राखि": 3020,
      "हिं": 3021,
      "प्रदेशको</w>": 3022,
      "प्त": 3023,
      "कट": 3024,
      "अत्य": 3025,
      "आत्म": 3026,
      "बाटो": 3027,
      "उजु": 3028,
      "डेको</w>": 3029,
      "अनुमति</w>": 3030,
      "जनाइएको</w>": 3031,
      "मक</w>": 3032,
      "शाखा</w>": 3033,
      "इने</w>": 3034,
      "कुन</w>": 3035,
      "मोर्": 3036,
      "निषे": 3037,
      "गरिएका</w>": 3038,
      "देउवाले</w>": 3039,
      "स्थग": 3040,
      "शाह": 3041,
      "हिसा": 3042,
      "खुला</w>": 3043,
      "यसैगरी</w>": 3044,
      "कोही</w>": 3045,
      "भनी</w>": 3046,
      "सुदूर": 3047,
      "बलियो</w>": 3048,
      "आम्दा": 3049,
      "मोबाइ": 3050,
      "काठमाडौंमा</w>": 3051,
      "प्रकाश</w>": 3052,
      "कात्": 3053,
      "विजे": 3054,
      "सिर्जना</w>": 3055,
      "थालेका</w>": 3056,
      "बुट": 3057,
      "सूर्": 3058,
      "गैर": 3059,
      "उनीहरूले</w>": 3060,
      "कार्यरत</w>": 3061,
      "घिमि": 3062,
      "कीले</w>": 3063,
      "सकेपछि</w>": 3064,
      "जापा": 3065,
      "भ्रमण</w>": 3066,
      "आएपछि</w>": 3067,
      "मोटरसाइ": 3068,
      "जवाफ</w>": 3069,
      "जनाएका</w>": 3070,
      "संरचना</w>": 3071,
      "साना</w>": 3072,
      "पेश</w>": 3073,
      "जाँदा</w>": 3074,
      "खानेपा": 3075,
      "गति</w>": 3076,
      "विनि": 3077,
      "कारणले</w>": 3078,
      "पत्रकार": 3079,
      "मले": 3080,
      "कात्तिक</w>": 3081,
      "५५</w>": 3082,
      "गोर": 3083,
      "लगाउन</w>": 3084,
      "नद": 3085,
      "कहाँ</w>": 3086,
      "दुः": 3087,
      "पुरका</w>": 3088,
      "गरिन्छ</w>": 3089,
      "नेर</w>": 3090,
      "ढे</w>": 3091,
      "सङ्ख्या</w>": 3092,
      "अख्तिया": 3093,
      "सङ्क्रमण</w>": 3094,
      "निरन्तर</w>": 3095,
      "वाणिज्य</w>": 3096,
      "प्रविधि": 3097,
      "डर</w>": 3098,
      "विरुद्धको</w>": 3099,
      "क्य": 3100,
      "बसेर</w>": 3101,
      "लगानी": 3102,
      "बीचमा</w>": 3103,
      "प्रतिवेद": 3104,
      "ंग</w>": 3105,
      "डो</w>": 3106,
      "मानव</w>": 3107,
      "युरो": 3108,
      "यादव</w>": 3109,
      "वार्ष": 3110,
      "राज्य</w>": 3111,
      "सालमा</w>": 3112,
      "बमोजिम</w>": 3113,
      "ाका</w>": 3114,
      "विभा": 3115,
      "फुटबल</w>": 3116,
      "व्याव": 3117,
      "संसद</w>": 3118,
      "कद": 3119,
      "उत्तर</w>": 3120,
      "आवश्यकता</w>": 3121,
      "चलचित्र": 3122,
      "ट्न</w>": 3123,
      "गठबन्ध": 3124,
      "उद्घा": 3125,
      "३६</w>": 3126,
      "स्वीकार</w>": 3127,
      "यति</w>": 3128,
      "कूल</w>": 3129,
      "बस्न</w>": 3130,
      "चन्द्र": 3131,
      "स्तु</w>": 3132,
      "कर्षण</w>": 3133,
      "सञ्चार</w>": 3134,
      "अनुगमन</w>": 3135,
      "नाइ": 3136,
      "पहिचान</w>": 3137,
      "न्न": 3138,
      "भएपनि</w>": 3139,
      "घरे": 3140,
      "गलत</w>": 3141,
      "अपे": 3142,
      "छन</w>": 3143,
      "सौ": 3144,
      "गरिसकेको</w>": 3145,
      "ऋण</w>": 3146,
      "अमेरिका</w>": 3147,
      "मानव": 3148,
      "क्षर</w>": 3149,
      "ल्ला</w>": 3150,
      "सजि": 3151,
      "स्टि": 3152,
      "वर्तमान</w>": 3153,
      "चितव": 3154,
      "कालीन</w>": 3155,
      "एउटै</w>": 3156,
      "भण्डारीले</w>": 3157,
      "याका</w>": 3158,
      "जेठ": 3159,
      "सार": 3160,
      "िको</w>": 3161,
      "र्सि": 3162,
      "पास</w>": 3163,
      "र्स</w>": 3164,
      "द्र": 3165,
      "ंगा</w>": 3166,
      "हुनुपर्छ</w>": 3167,
      "केका</w>": 3168,
      "प्रवा": 3169,
      "महानगरपालिका</w>": 3170,
      "आयात</w>": 3171,
      "म्</w>": 3172,
      "एस</w>": 3173,
      "मतदान</w>": 3174,
      "ीसँग</w>": 3175,
      "लक</w>": 3176,
      "अन्त्य</w>": 3177,
      "ज्ञ</w>": 3178,
      "नीति": 3179,
      "बैंकको</w>": 3180,
      "चर्चा</w>": 3181,
      "घरेलु</w>": 3182,
      "शासन</w>": 3183,
      "रहँदा</w>": 3184,
      "कता": 3185,
      "शीर्ष</w>": 3186,
      "कक्ष": 3187,
      "मेन्ट</w>": 3188,
      "अर्थात्</w>": 3189,
      "बैङ्": 3190,
      "सबाट</w>": 3191,
      "उदा": 3192,
      "कम्युनिष्ट</w>": 3193,
      "सामान</w>": 3194,
      "लोकतान्त्रिक</w>": 3195,
      "पाउ": 3196,
      "तीन": 3197,
      "ओलीको</w>": 3198,
      "कस्तो</w>": 3199,
      "प्रतिशतले</w>": 3200,
      "तिबेला</w>": 3201,
      "बढ्न</w>": 3202,
      "कवि": 3203,
      "विजयी</w>": 3204,
      "डामा</w>": 3205,
      "निको</w>": 3206,
      "बहि": 3207,
      "तह</w>": 3208,
      "पाल</w>": 3209,
      "छिमे": 3210,
      "यादवले</w>": 3211,
      "व्यक्तिको</w>": 3212,
      "महाशाखा": 3213,
      "सरकारका</w>": 3214,
      "नाल्": 3215,
      "सुन</w>": 3216,
      "अरु": 3217,
      "विवाह</w>": 3218,
      "कहिले</w>": 3219,
      "कमिट": 3220,
      "किशो": 3221,
      "क्रो": 3222,
      "राखेका</w>": 3223,
      "खेलको</w>": 3224,
      "जनको</w>": 3225,
      "धार्": 3226,
      "१०": 3227,
      "भट्टराईले</w>": 3228,
      "आमा</w>": 3229,
      "माया</w>": 3230,
      "३४</w>": 3231,
      "चालक</w>": 3232,
      "छोरा</w>": 3233,
      "रुवा</w>": 3234,
      "दुर्घटना</w>": 3235,
      "धनग": 3236,
      "रेन्द्र</w>": 3237,
      "लकडाउन</w>": 3238,
      "श्रम</w>": 3239,
      "वैदेशिक</w>": 3240,
      "साढे</w>": 3241,
      "तः</w>": 3242,
      "किलोमिटर</w>": 3243,
      "त्यसका</w>": 3244,
      "बारको</w>": 3245,
      "ंक": 3246,
      "भन्नुभयो</w>": 3247,
      "अझ</w>": 3248,
      "होटल</w>": 3249,
      "फिक</w>": 3250,
      "भिजन</w>": 3251,
      "पार्टीले</w>": 3252,
      "साहि": 3253,
      "टुंग": 3254,
      "चितवन</w>": 3255,
      "पचारिक</w>": 3256,
      "नीले</w>": 3257,
      "सनमा</w>": 3258,
      "अत्या": 3259,
      "फाइन": 3260,
      "भन्न</w>": 3261,
      "जले</w>": 3262,
      "महासचिव</w>": 3263,
      "राजदू": 3264,
      "ह्या": 3265,
      "हरुका</w>": 3266,
      "सिंह": 3267,
      "लुम्बि": 3268,
      "सञ्चार": 3269,
      "न्दा</w>": 3270,
      "सकारात्मक</w>": 3271,
      "दैनि": 3272,
      "पीडित</w>": 3273,
      "जरु": 3274,
      "बलात्": 3275,
      "दायिक</w>": 3276,
      "बस</w>": 3277,
      "है": 3278,
      "किलो</w>": 3279,
      "न्दा": 3280,
      "रम्": 3281,
      "कानुनी</w>": 3282,
      "कञ्च": 3283,
      "बंग": 3284,
      "पर्या": 3285,
      "केन्द्रित</w>": 3286,
      "चिकित्सक": 3287,
      "लागि": 3288,
      "ज्ञा</w>": 3289,
      "दोहो": 3290,
      "जग्गा": 3291,
      "बढाउने</w>": 3292,
      "सचिवालय": 3293,
      "विवाद": 3294,
      "महाधिवेशन</w>": 3295,
      "व्यवसाय</w>": 3296,
      "छनोट</w>": 3297,
      "राले</w>": 3298,
      "शू": 3299,
      "संविधानको</w>": 3300,
      "न्छु</w>": 3301,
      "दिनको</w>": 3302,
      "बराबरको</w>": 3303,
      "वर्षदेखि</w>": 3304,
      "टरमा</w>": 3305,
      "दको</w>": 3306,
      "प्ला": 3307,
      "सुर्खे": 3308,
      "विज्ञान</w>": 3309,
      "खान</w>": 3310,
      "नियु": 3311,
      "रमु": 3312,
      "धेरै": 3313,
      "साह": 3314,
      "मोर": 3315,
      "नगर्ने</w>": 3316,
      "दिनुभयो</w>": 3317,
      "बिन</w>": 3318,
      "प्रेस</w>": 3319,
      "७७</w>": 3320,
      "पु</w>": 3321,
      "देव</w>": 3322,
      "भुक्तानी</w>": 3323,
      "शब्": 3324,
      "४२</w>": 3325,
      "ठाउँ</w>": 3326,
      "सहर": 3327,
      "यौ": 3328,
      "बर": 3329,
      "कक्षा</w>": 3330,
      "भित्रै</w>": 3331,
      "विद्यालयमा</w>": 3332,
      "रंग": 3333,
      "तीव": 3334,
      "२०६": 3335,
      "सबैलाई</w>": 3336,
      "अभ्या": 3337,
      "मापदण्ड</w>": 3338,
      "गएर</w>": 3339,
      "पत्रमा</w>": 3340,
      "रम</w>": 3341,
      "साध": 3342,
      "बसेका</w>": 3343,
      "संघले</w>": 3344,
      "पाइएको</w>": 3345,
      "बाबु": 3346,
      "समूहले</w>": 3347,
      "कप्तान</w>": 3348,
      "इजला": 3349,
      "आग": 3350,
      "उद्धार</w>": 3351,
      "साता</w>": 3352,
      "नगरपालिकाको</w>": 3353,
      "पल्": 3354,
      "डाँ": 3355,
      "विष्ण": 3356,
      "बाढ": 3357,
      "नियम</w>": 3358,
      "सफल": 3359,
      "मिडि": 3360,
      "गर्नका</w>": 3361,
      "उनीहरुलाई</w>": 3362,
      "स्पे": 3363,
      "सजा": 3364,
      "ीबाट</w>": 3365,
      "किसि": 3366,
      "छे": 3367,
      "आलोच": 3368,
      "तोकिएको</w>": 3369,
      "समर्थन</w>": 3370,
      "धानमा</w>": 3371,
      "सोध": 3372,
      "४८</w>": 3373,
      "उनीहरू</w>": 3374,
      "महिनामा</w>": 3375,
      "दिला": 3376,
      "सामुदायिक</w>": 3377,
      "सम्भव</w>": 3378,
      "पुगेर</w>": 3379,
      "कोरोनाको</w>": 3380,
      "न्द्": 3381,
      "बाह": 3382,
      "पुष्पकमल</w>": 3383,
      "ट्ने</w>": 3384,
      "हवा": 3385,
      "छोरी</w>": 3386,
      "अदालतमा</w>": 3387,
      "चार्ज</w>": 3388,
      "नुपर्नेमा</w>": 3389,
      "विदेश</w>": 3390,
      "मन्त्रालयको</w>": 3391,
      "यसै": 3392,
      "जरुरी</w>": 3393,
      "सदरमु": 3394,
      "लगत्तै</w>": 3395,
      "अक्सि": 3396,
      "बनाएका</w>": 3397,
      "उद्देश्य": 3398,
      "न्ति": 3399,
      "प्रतिस्पर्धा</w>": 3400,
      "गरि</w>": 3401,
      "केन्द्रका</w>": 3402,
      "योगदान</w>": 3403,
      "इरहेको</w>": 3404,
      "पाका</w>": 3405,
      "हि</w>": 3406,
      "गुरुङ</w>": 3407,
      "राउ": 3408,
      "कम्युनिस्ट</w>": 3409,
      "मैदानमा</w>": 3410,
      "आएर</w>": 3411,
      "तुलनामा</w>": 3412,
      "३८</w>": 3413,
      "गराएका</w>": 3414,
      "सिन्धु": 3415,
      "कञ्चन": 3416,
      "साल</w>": 3417,
      "डका</w>": 3418,
      "ेले</w>": 3419,
      "पहिरो": 3420,
      "पर्</w>": 3421,
      "न्ड</w>": 3422,
      "स्थगित</w>": 3423,
      "झण्ड": 3424,
      "प्रतिब": 3425,
      "दुब": 3426,
      "उद्घाटन</w>": 3427,
      "अफगा": 3428,
      "निरीक्षक</w>": 3429,
      "गोल": 3430,
      "परिणा": 3431,
      "वस्तु</w>": 3432,
      "न्याय": 3433,
      "नालाई</w>": 3434,
      "बाध्य</w>": 3435,
      "आउँ": 3436,
      "काग": 3437,
      "लगाएका</w>": 3438,
      "कांग्रेसको</w>": 3439,
      "३७</w>": 3440,
      "भिडियो</w>": 3441,
      "२००": 3442,
      "यद्य": 3443,
      "फरा": 3444,
      "च्याम्पि": 3445,
      "मास्": 3446,
      "पक्षले</w>": 3447,
      "भमा</w>": 3448,
      "आयो</w>": 3449,
      "वार्षिक</w>": 3450,
      "तर्क</w>": 3451,
      "सध": 3452,
      "बंगला": 3453,
      "पोखरेलले</w>": 3454,
      "सबैको</w>": 3455,
      "डाइ": 3456,
      "यदि</w>": 3457,
      "संसद्": 3458,
      "सहभागिता</w>": 3459,
      "पर्व": 3460,
      "जमि": 3461,
      "थो</w>": 3462,
      "चाहिँ</w>": 3463,
      "त्रा": 3464,
      "इन्टरने": 3465,
      "सिद्धा": 3466,
      "व्य</w>": 3467,
      "बचा": 3468,
      "त्स": 3469,
      "भरत": 3470,
      "चीनको</w>": 3471,
      "रोकि": 3472,
      "हाइ": 3473,
      "नेले</w>": 3474,
      "रुद्ध</w>": 3475,
      "मान्छे</w>": 3476,
      "तरकारी</w>": 3477,
      "थान</w>": 3478,
      "झण्डै</w>": 3479,
      "उनीहरूको</w>": 3480,
      "ऊर्": 3481,
      "नुहुन्छ</w>": 3482,
      "यात्रु": 3483,
      "आउट</w>": 3484,
      "कडा</w>": 3485,
      "सुनुवा": 3486,
      "स्थल</w>": 3487,
      "हस्ताक्षर</w>": 3488,
      "मुलुकमा</w>": 3489,
      "टिप्प": 3490,
      "नेपाललाई</w>": 3491,
      "५१</w>": 3492,
      "सिट": 3493,
      "विकल्प</w>": 3494,
      "विद्युत</w>": 3495,
      "झि": 3496,
      "रहे</w>": 3497,
      "प्रधानमन्त्रीले</w>": 3498,
      "नाका": 3499,
      "अनिवार्": 3500,
      "विचार</w>": 3501,
      "कुमारी</w>": 3502,
      "थिएँ</w>": 3503,
      "जय": 3504,
      "अर्का</w>": 3505,
      "द्वन्द्": 3506,
      "कामना</w>": 3507,
      "विधेय": 3508,
      "वश्य": 3509,
      "४६</w>": 3510,
      "मामि": 3511,
      "प्रविधि</w>": 3512,
      "प्रत्यक्ष</w>": 3513,
      "सन्दर्": 3514,
      "पत</w>": 3515,
      "सेयर</w>": 3516,
      "देउवा</w>": 3517,
      "यौँ</w>": 3518,
      "प्रचण्डले</w>": 3519,
      "देखिएका</w>": 3520,
      "ीहरु</w>": 3521,
      "२०७५</w>": 3522,
      "पुरानो</w>": 3523,
      "प्ल": 3524,
      "समान</w>": 3525,
      "आयोजनाको</w>": 3526,
      "अग्रता</w>": 3527,
      "धरा": 3528,
      "प्रारम्": 3529,
      "हान</w>": 3530,
      "माधव</w>": 3531,
      "रोजगार</w>": 3532,
      "खास": 3533,
      "तना": 3534,
      "तहका</w>": 3535,
      "भी</w>": 3536,
      "उपाधि</w>": 3537,
      "महिलाको</w>": 3538,
      "जिम्मा</w>": 3539,
      "गृह</w>": 3540,
      "केन्द्रमा</w>": 3541,
      "साप": 3542,
      "भुवन</w>": 3543,
      "ढंग": 3544,
      "दाहालले</w>": 3545,
      "मानिस</w>": 3546,
      "खेती</w>": 3547,
      "मोह": 3548,
      "बालुवा": 3549,
      "ज्ञवा": 3550,
      "ट्रम्प": 3551,
      "सके</w>": 3552,
      "एकीकृत</w>": 3553,
      "लगाएर</w>": 3554,
      "स्व</w>": 3555,
      "न्दे": 3556,
      "ठा</w>": 3557,
      "रोजगारी</w>": 3558,
      "मन्दिर</w>": 3559,
      "द्या": 3560,
      "प्रणाली</w>": 3561,
      "५२</w>": 3562,
      "जेल</w>": 3563,
      "बर्ष": 3564,
      "पार्ने</w>": 3565,
      "कर्मचारी": 3566,
      "शिव": 3567,
      "लिए</w>": 3568,
      "नभई</w>": 3569,
      "ट्राफिक</w>": 3570,
      "गल्": 3571,
      "निर्धारण</w>": 3572,
      "समूहको</w>": 3573,
      "नरहेको</w>": 3574,
      "घण्टामा</w>": 3575,
      "कर्जा</w>": 3576,
      "कुल": 3577,
      "पण</w>": 3578,
      "मीले</w>": 3579,
      "प्रतियोगितामा</w>": 3580,
      "जनताले</w>": 3581,
      "गर्नेछ</w>": 3582,
      "वृत्": 3583,
      "रिपोर्ट</w>": 3584,
      "क्षिक</w>": 3585,
      "आह्": 3586,
      "रोक्न</w>": 3587,
      "फ्रा": 3588,
      "दुर्घटनामा</w>": 3589,
      "बृ": 3590,
      "७२</w>": 3591,
      "डलर</w>": 3592,
      "ठो": 3593,
      "एजेन्सी</w>": 3594,
      "जका</w>": 3595,
      "प्रदेशसभा</w>": 3596,
      "थप": 3597,
      "भागमा</w>": 3598,
      "राष्ट्रपति": 3599,
      "स्वर्": 3600,
      "खुसी</w>": 3601,
      "कल": 3602,
      "घण्टा</w>": 3603,
      "अनुभव</w>": 3604,
      "निस्": 3605,
      "एमालेका</w>": 3606,
      "न्याय</w>": 3607,
      "हिन्द": 3608,
      "इरहेका</w>": 3609,
      "कठि": 3610,
      "शहर": 3611,
      "गतेदेखि</w>": 3612,
      "र्</w>": 3613,
      "वास्त": 3614,
      "सकेन</w>": 3615,
      "मुलुकको</w>": 3616,
      "खोला</w>": 3617,
      "अधिवेशन</w>": 3618,
      "लम्ब": 3619,
      "शैक्षिक</w>": 3620,
      "सानो</w>": 3621,
      "पाइने</w>": 3622,
      "अदालत</w>": 3623,
      "नगरी</w>": 3624,
      "पाउन</w>": 3625,
      "पछा": 3626,
      "जसमा</w>": 3627,
      "एयर": 3628,
      "निर्माणमा</w>": 3629,
      "व्यवस्थित</w>": 3630,
      "रनको</w>": 3631,
      "भेन्": 3632,
      "उने": 3633,
      "थालेपछि</w>": 3634,
      "धार्मिक</w>": 3635,
      "सुरुवा": 3636,
      "हप्": 3637,
      "४१</w>": 3638,
      "सम्मका</w>": 3639,
      "पहुँ": 3640,
      "तबाट</w>": 3641,
      "खेल्": 3642,
      "जीवन": 3643,
      "गाह": 3644,
      "घटेको</w>": 3645,
      "सुनि": 3646,
      "सम्पा": 3647,
      "न्यायाधीश": 3648,
      "निर्णय": 3649,
      "निकाय": 3650,
      "अनुरोध</w>": 3651,
      "रौतह": 3652,
      "नेपाली": 3653,
      "भण्डारी</w>": 3654,
      "७४</w>": 3655,
      "महसु": 3656,
      "सं</w>": 3657,
      "अनिवार्य</w>": 3658,
      "पाको</w>": 3659,
      "हासिल</w>": 3660,
      "विभागका</w>": 3661,
      "दमा</w>": 3662,
      "चरणको</w>": 3663,
      "मार्ग": 3664,
      "५६</w>": 3665,
      "४७</w>": 3666,
      "चौथो</w>": 3667,
      "आप": 3668,
      "म्बर</w>": 3669,
      "गर्नुभएको</w>": 3670,
      "पुरस्कार</w>": 3671,
      "यि": 3672,
      "संसद्</w>": 3673,
      "सर्वा": 3674,
      "टर्": 3675,
      "यसै</w>": 3676,
      "न्यु": 3677,
      "समितिमा</w>": 3678,
      "समाज</w>": 3679,
      "स्वय": 3680,
      "ढो": 3681,
      "लिमि": 3682,
      "मिल्ने</w>": 3683,
      "प्राव": 3684,
      "सिरि": 3685,
      "स्थितिमा</w>": 3686,
      "ीकरण</w>": 3687,
      "हस्तान्तरण</w>": 3688,
      "दछ</w>": 3689,
      "मुलुक</w>": 3690,
      "संघको</w>": 3691,
      "खोजी</w>": 3692,
      "टेको</w>": 3693,
      "अष्ट": 3694,
      "ल्यै</w>": 3695,
      "विपरी": 3696,
      "फी</w>": 3697,
      "तीको</w>": 3698,
      "यथा": 3699,
      "रूप</w>": 3700,
      "अभाव": 3701,
      "चमा</w>": 3702,
      "त्यति</w>": 3703,
      "सम्पर्क</w>": 3704,
      "हेर्न</w>": 3705,
      "परिचालन</w>": 3706,
      "वश्यक</w>": 3707,
      "सात": 3708,
      "खेलकुद</w>": 3709,
      "क्षेत्रीय</w>": 3710,
      "म्बा": 3711,
      "असन्तु": 3712,
      "प्रतियोगिता</w>": 3713,
      "पहिरो</w>": 3714,
      "पहाडी</w>": 3715,
      "बारदेखि</w>": 3716,
      "कोटाले</w>": 3717,
      "र्ति": 3718,
      "आम्दानी</w>": 3719,
      "हाम्रा</w>": 3720,
      "राजधान": 3721,
      "खर</w>": 3722,
      "समूहका</w>": 3723,
      "ट्टा</w>": 3724,
      "खति": 3725,
      "सरकारमा</w>": 3726,
      "हेर्दा</w>": 3727,
      "ल्याण्ड": 3728,
      "दे</w>": 3729,
      "खाने</w>": 3730,
      "अनुदान</w>": 3731,
      "सत्ता</w>": 3732,
      "बनाइएको</w>": 3733,
      "४३</w>": 3734,
      "घाट</w>": 3735,
      "भिक</w>": 3736,
      "पदाधिकार": 3737,
      "पुग्न</w>": 3738,
      "फाइनलमा</w>": 3739,
      "रोग": 3740,
      "बीमा</w>": 3741,
      "विश्वासको</w>": 3742,
      "त्यसले</w>": 3743,
      "गाँ": 3744,
      "चासो</w>": 3745,
      "आकर्ष": 3746,
      "रेज</w>": 3747,
      "कार्यमा</w>": 3748,
      "उजुरी</w>": 3749,
      "हरुसँग</w>": 3750,
      "डे</w>": 3751,
      "धमा</w>": 3752,
      "पञ्": 3753,
      "जोगा": 3754,
      "अनुसन्धान": 3755,
      "कालो": 3756,
      "चलि": 3757,
      "दृष्टि": 3758,
      "निः": 3759,
      "सम्मेलनमा</w>": 3760,
      "बास</w>": 3761,
      "ध्ये</w>": 3762,
      "जब</w>": 3763,
      "सम्मे": 3764,
      "४९</w>": 3765,
      "मान्यता</w>": 3766,
      "बाब": 3767,
      "विश्वविद्यालय": 3768,
      "भूमि</w>": 3769,
      "शिक्षक</w>": 3770,
      "पर्याप्त</w>": 3771,
      "दलले</w>": 3772,
      "नागरिकलाई</w>": 3773,
      "गाउँपालिकाका</w>": 3774,
      "नारायण": 3775,
      "मृत्यु": 3776,
      "तरि": 3777,
      "पद</w>": 3778,
      "लागिएको</w>": 3779,
      "५३</w>": 3780,
      "३९</w>": 3781,
      "केसीले</w>": 3782,
      "प्रधानमन्त्रीको</w>": 3783,
      "गणे": 3784,
      "हीन</w>": 3785,
      "म्बु": 3786,
      "कप": 3787,
      "क्याम्प": 3788,
      "विभाग</w>": 3789,
      "कारका</w>": 3790,
      "विकासका</w>": 3791,
      "चुनौती</w>": 3792,
      "सम</w>": 3793,
      "चेताव": 3794,
      "विनियोजन</w>": 3795,
      "सम्मेलन</w>": 3796,
      "पालना</w>": 3797,
      "दित</w>": 3798,
      "आयोजना": 3799,
      "जनसंख्या</w>": 3800,
      "४४</w>": 3801,
      "साउ": 3802,
      "यहाँका</w>": 3803,
      "सप्त": 3804,
      "सु</w>": 3805,
      "हरूका</w>": 3806,
      "साता": 3807,
      "वर्षका</w>": 3808,
      "पठाएको</w>": 3809,
      "आयोग</w>": 3810,
      "जन्म": 3811,
      "खत": 3812,
      "चाइ": 3813,
      "आए</w>": 3814,
      "कम्तीमा</w>": 3815,
      "हीको</w>": 3816,
      "लगातार</w>": 3817,
      "मोबाइल</w>": 3818,
      "उसको</w>": 3819,
      "निषेधा": 3820,
      "राइ": 3821,
      "हीँ</w>": 3822,
      "व्यक्तिलाई</w>": 3823,
      "पूजा</w>": 3824,
      "कोइराला</w>": 3825,
      "टरको</w>": 3826,
      "मुस्": 3827,
      "गाई": 3828,
      "चयन</w>": 3829,
      "लाइ</w>": 3830,
      "फेस": 3831,
      "देखाएको</w>": 3832,
      "नगरेको</w>": 3833,
      "बहस</w>": 3834,
      "साझे": 3835,
      "सबैले</w>": 3836,
      "पर्यटक</w>": 3837,
      "नतिजा</w>": 3838,
      "सर्वसाधारण": 3839,
      "नसँग</w>": 3840,
      "संगठन</w>": 3841,
      "ढा</w>": 3842,
      "जु</w>": 3843,
      "मिलेर</w>": 3844,
      "अस्पतालका</w>": 3845,
      "गर्नुभयो</w>": 3846,
      "घटा": 3847,
      "स्थ</w>": 3848,
      "डि</w>": 3849,
      "रेल</w>": 3850,
      "व्यावसाय": 3851,
      "कार्की</w>": 3852,
      "मिति</w>": 3853,
      "दिनुपर्ने</w>": 3854,
      "खाँ": 3855,
      "व्यक्तिगत</w>": 3856,
      "कर": 3857,
      "टिप्पणी</w>": 3858,
      "सहयोगमा</w>": 3859,
      "भनाई</w>": 3860,
      "विश्ले": 3861,
      "आक्रमण</w>": 3862,
      "जाँच</w>": 3863,
      "खानेपानी</w>": 3864,
      "मेल</w>": 3865,
      "कपि": 3866,
      "५४</w>": 3867,
      "बालुवाटा": 3868,
      "विघटन</w>": 3869,
      "इँ": 3870,
      "संस्कृति</w>": 3871,
      "नर</w>": 3872,
      "जर": 3873,
      "विषय": 3874,
      "आह्वान</w>": 3875,
      "ण्डि": 3876,
      "ैँ</w>": 3877,
      "अपेक्षा</w>": 3878,
      "भारतबाट</w>": 3879,
      "सम्ममा</w>": 3880,
      "लिमिटे": 3881,
      "पदमा</w>": 3882,
      "द्य</w>": 3883,
      "एमा</w>": 3884,
      "राप्र": 3885,
      "तावा": 3886,
      "पहिलो": 3887,
      "न्यौ": 3888,
      "चोक</w>": 3889,
      "निस्ता": 3890,
      "उम्मेदवारी</w>": 3891,
      "कमी</w>": 3892,
      "भाषा</w>": 3893,
      "उपयुक्त</w>": 3894,
      "खुला": 3895,
      "५८</w>": 3896,
      "उहाँको</w>": 3897,
      "म्म": 3898,
      "पिक</w>": 3899,
      "स्कृतिक</w>": 3900,
      "सञ्चालक</w>": 3901,
      "टिम</w>": 3902,
      "क्लब": 3903,
      "राका</w>": 3904,
      "उम्मेदवा": 3905,
      "सेनाले</w>": 3906,
      "न्यौपा": 3907,
      "लाल": 3908,
      "सक</w>": 3909,
      "खुवा": 3910,
      "स्वतन्त्र</w>": 3911,
      "प्रशिक्षक</w>": 3912,
      "छुट्टै</w>": 3913,
      "दिने": 3914,
      "रिक्त</w>": 3915,
      "गुरुङले</w>": 3916,
      "उनुपर्छ</w>": 3917,
      "भन्सार</w>": 3918,
      "ष्ठ": 3919,
      "पार्न</w>": 3920,
      "निकट</w>": 3921,
      "मुलुक": 3922,
      "ल्यान्ड": 3923,
      "याउने</w>": 3924,
      "फैसला</w>": 3925,
      "मलेसि": 3926,
      "मोर्चा": 3927,
      "मेयर</w>": 3928,
      "पाइन्छ</w>": 3929,
      "उपस्थित</w>": 3930,
      "लुम्बिनी</w>": 3931,
      "कथा</w>": 3932,
      "बढि": 3933,
      "दबाब</w>": 3934,
      "यद्यपि</w>": 3935,
      "देशभर</w>": 3936,
      "कलन</w>": 3937,
      "नगरपालिकामा</w>": 3938,
      "पेट्रो": 3939,
      "आत्": 3940,
      "मसा": 3941,
      "जाको</w>": 3942,
      "पुनः": 3943,
      "अवरुद्ध</w>": 3944,
      "परी</w>": 3945,
      "बेलामा</w>": 3946,
      "फर्का": 3947,
      "७८</w>": 3948,
      "विपरीत</w>": 3949,
      "सङ्क्रमित</w>": 3950,
      "टेर</w>": 3951,
      "लाग्यो</w>": 3952,
      "त्रिभुवन</w>": 3953,
      "भएमा</w>": 3954,
      "सुधा": 3955,
      "एमालेले</w>": 3956,
      "हत्या": 3957,
      "आम</w>": 3958,
      "ध्याना": 3959,
      "सफा": 3960,
      "ण्डा</w>": 3961,
      "नगद</w>": 3962,
      "प्रतिबद्धता</w>": 3963,
      "क्क</w>": 3964,
      "पुन</w>": 3965,
      "राजनीति</w>": 3966,
      "अरू</w>": 3967,
      "ओभरमा</w>": 3968,
      "छानबिन</w>": 3969,
      "राजा</w>": 3970,
      "बल": 3971,
      "हमा</w>": 3972,
      "कुञ्": 3973,
      "ध्यक्ष": 3974,
      "पुँ": 3975,
      "घटनाको</w>": 3976,
      "नागरिक": 3977,
      "वान": 3978,
      "खमा</w>": 3979,
      "उचित</w>": 3980,
      "अफगानिस्ता": 3981,
      "सहायक</w>": 3982,
      "मन्त्रिपरिषद्": 3983,
      "नौं</w>": 3984,
      "करणको</w>": 3985,
      "उमेर</w>": 3986,
      "आलोचना</w>": 3987,
      "७३</w>": 3988,
      "आधार": 3989,
      "विज्ञप्तिमा</w>": 3990,
      "लगाइएको</w>": 3991,
      "विराटनगर</w>": 3992,
      "वाट</w>": 3993,
      "प्रेम</w>": 3994,
      "चौधरी</w>": 3995,
      "श्या": 3996,
      "सन्देश</w>": 3997,
      "हिक</w>": 3998,
      "साझा</w>": 3999,
      "इन्जि": 4000,
      "संग</w>": 4001,
      "गरिन्</w>": 4002,
      "२०७४</w>": 4003,
      "गम": 4004,
      "साथी": 4005,
      "उपचार": 4006,
      "जनक</w>": 4007,
      "औपचारिक</w>": 4008,
      "समावेश</w>": 4009,
      "हुन": 4010,
      "निरन्तरता</w>": 4011,
      "तामाङ</w>": 4012,
      "भएकी</w>": 4013,
      "जेठमा</w>": 4014,
      "दौ": 4015,
      "नागरिकता</w>": 4016,
      "मौसम</w>": 4017,
      "करी": 4018,
      "जंग": 4019,
      "मण": 4020,
      "बाध्य": 4021,
      "स्कु": 4022,
      "गतेसम्म</w>": 4023,
      "होट": 4024,
      "खेल्ने</w>": 4025,
      "द्धि</w>": 4026,
      "विमानस्थल</w>": 4027,
      "क्ने</w>": 4028,
      "शंका</w>": 4029,
      "महत्": 4030,
      "भूत</w>": 4031,
      "अस्पतालको</w>": 4032,
      "नीतिक</w>": 4033,
      "गाउँपालिकामा</w>": 4034,
      "सीय</w>": 4035,
      "ढंगले</w>": 4036,
      "मक": 4037,
      "बनाए</w>": 4038,
      "नवल": 4039,
      "२०७६</w>": 4040,
      "यत</w>": 4041,
      "शाला</w>": 4042,
      "चीनले</w>": 4043,
      "विन</w>": 4044,
      "किसान</w>": 4045,
      "अर्या": 4046,
      "आयोगको</w>": 4047,
      "जसो</w>": 4048,
      "भार</w>": 4049,
      "त्यसो</w>": 4050,
      "तल</w>": 4051,
      "नदिने</w>": 4052,
      "कुरामा</w>": 4053,
      "संसदमा</w>": 4054,
      "परिषद्": 4055,
      "करा": 4056,
      "सर्वोच्च": 4057,
      "रोकथा": 4058,
      "चेतावनी</w>": 4059,
      "फेसबु": 4060,
      "ओली": 4061,
      "अदालतको</w>": 4062,
      "ठेक्का</w>": 4063,
      "निःशुल्क</w>": 4064,
      "ठी": 4065,
      "प्रधान</w>": 4066,
      "आदि": 4067,
      "मूल</w>": 4068,
      "खण्डमा</w>": 4069,
      "एल": 4070,
      "बढाएको</w>": 4071,
      "खुलेको</w>": 4072,
      "क्वारेन्टाइ": 4073,
      "नदी</w>": 4074,
      "चालित</w>": 4075,
      "सन्दर्भमा</w>": 4076,
      "हेट": 4077,
      "वलाई</w>": 4078,
      "शुभ": 4079,
      "वार्ड</w>": 4080,
      "चिन्ता</w>": 4081,
      "उडा": 4082,
      "अवै": 4083,
      "अर": 4084,
      "धिकारी</w>": 4085,
      "गन्त": 4086,
      "बासि": 4087,
      "प्राकृतिक</w>": 4088,
      "केत</w>": 4089,
      "जनतालाई</w>": 4090,
      "मित": 4091,
      "व्यक्तिले</w>": 4092,
      "ब्रि": 4093,
      "निधन</w>": 4094,
      "६३</w>": 4095,
      "सक्छन्</w>": 4096,
      "५७</w>": 4097,
      "विगत</w>": 4098,
      "ऐतिहा": 4099,
      "एच": 4100,
      "धनु": 4101,
      "६४</w>": 4102,
      "पाले</w>": 4103,
      "गञ्ज</w>": 4104,
      "भित्": 4105,
      "ठाकु": 4106,
      "भग": 4107,
      "ल्यो</w>": 4108,
      "नम्बरको</w>": 4109,
      "पराम": 4110,
      "काली</w>": 4111,
      "टबाट</w>": 4112,
      "भ्रष्टाचार</w>": 4113,
      "रकम": 4114,
      "हेर्ने</w>": 4115,
      "नागरिकको</w>": 4116,
      "सेना</w>": 4117,
      "गोली</w>": 4118,
      "सही</w>": 4119,
      "पदार्थ</w>": 4120,
      "सय": 4121,
      "आउँछ</w>": 4122,
      "२०७७</w>": 4123,
      "मौसम": 4124,
      "न्दु": 4125,
      "लगानीकर्": 4126,
      "डिङ</w>": 4127,
      "छलफलमा</w>": 4128,
      "रुपन्दे": 4129,
      "दलित</w>": 4130,
      "समयमै</w>": 4131,
      "अभिभाव": 4132,
      "केसी</w>": 4133,
      "दायि": 4134,
      "गतिविधि</w>": 4135,
      "काउन्": 4136,
      "५९</w>": 4137,
      "नाट": 4138,
      "निवा": 4139,
      "प्रत्या": 4140,
      "कुराका": 4141,
      "निकुञ्": 4142,
      "बस्त": 4143,
      "वन": 4144,
      "थे": 4145,
      "कालि": 4146,
      "स्तो": 4147,
      "माध्यमबाट</w>": 4148,
      "कम्पनी": 4149,
      "परामर्": 4150,
      "क्रे": 4151,
      "बन्दै</w>": 4152,
      "ध्यानाकर्षण</w>": 4153,
      "वैज्ञा": 4154,
      "बैंक": 4155,
      "दिएपछि</w>": 4156,
      "नभए</w>": 4157,
      "त्यस्ता</w>": 4158,
      "प्रतिक्रिया</w>": 4159,
      "पठाउने</w>": 4160,
      "नर्": 4161,
      "पथ</w>": 4162,
      "अन्त्य": 4163,
      "सीमित</w>": 4164,
      "अस्पतालले</w>": 4165,
      "भएकोले</w>": 4166,
      "जन्य</w>": 4167,
      "पूर्वक</w>": 4168,
      "छोरा": 4169,
      "ल्याइएको</w>": 4170,
      "एल</w>": 4171,
      "पछिल्": 4172,
      "राजस्व</w>": 4173,
      "पुर्या": 4174,
      "जहाँ</w>": 4175,
      "निस्क": 4176,
      "व्यवहार</w>": 4177,
      "मामिला</w>": 4178,
      "थोरै</w>": 4179,
      "हार्": 4180,
      "रक्षा</w>": 4181,
      "कला</w>": 4182,
      "एमालेको</w>": 4183,
      "डेका</w>": 4184,
      "कुट": 4185,
      "हिसाबले</w>": 4186,
      "कोठा": 4187,
      "सङ्क्रम": 4188,
      "कार्कीले</w>": 4189,
      "चालु</w>": 4190,
      "वर्षअघि</w>": 4191,
      "गाउँपालिकाको</w>": 4192,
      "पका</w>": 4193,
      "रिया</w>": 4194,
      "निम्ति</w>": 4195,
      "लागी</w>": 4196,
      "वटै</w>": 4197,
      "सीलाई</w>": 4198,
      "नजिक</w>": 4199,
      "अग्": 4200,
      "नसक्दा</w>": 4201,
      "त्तिकै</w>": 4202,
      "सुदूरपश्चिम</w>": 4203,
      "सुत्": 4204,
      "सुविधा": 4205,
      "आक्रम": 4206,
      "योग्य</w>": 4207,
      "ऐतिहासिक</w>": 4208,
      "मेगा": 4209,
      "उपत्यकामा</w>": 4210,
      "धुनिक</w>": 4211,
      "नीका</w>": 4212,
      "पार्टीमा</w>": 4213,
      "सामा</w>": 4214,
      "बर्दि": 4215,
      "आई</w>": 4216,
      "प्रकृ": 4217,
      "तस्": 4218,
      "पानीको</w>": 4219,
      "थालिएको</w>": 4220,
      "सिका": 4221,
      "नेकपाका</w>": 4222,
      "सहकार्य</w>": 4223,
      "प्राथमिक": 4224,
      "स्तरमा</w>": 4225,
      "स्थल": 4226,
      "म्परा": 4227,
      "वका</w>": 4228,
      "डिभिजन</w>": 4229,
      "गरियो</w>": 4230,
      "सुकै</w>": 4231,
      "पहिला</w>": 4232,
      "रह्यो</w>": 4233,
      "हिजो</w>": 4234,
      "सपना</w>": 4235,
      "पृथ्": 4236,
      "नमा": 4237,
      "निवेदन</w>": 4238,
      "दीको</w>": 4239,
      "म्याद</w>": 4240,
      "छिटो</w>": 4241,
      "दोष": 4242,
      "जरि": 4243,
      "लक्षित</w>": 4244,
      "रमे": 4245,
      "वर्षा</w>": 4246,
      "७१</w>": 4247,
      "मुद्दामा</w>": 4248,
      "प्राधिकरणले</w>": 4249,
      "रिय": 4250,
      "समयदेखि</w>": 4251,
      "दुवै": 4252,
      "प्राथमिकता</w>": 4253,
      "सैनिक</w>": 4254,
      "सचेत</w>": 4255,
      "विके": 4256,
      "पक्": 4257,
      "काठमाडौँ": 4258,
      "नायब</w>": 4259,
      "आधा</w>": 4260,
      "अपराध</w>": 4261,
      "भट्टराई</w>": 4262,
      "लिया</w>": 4263,
      "चुनावी</w>": 4264,
      "ल्ड</w>": 4265,
      "सल</w>": 4266,
      "ङ्गा": 4267,
      "बुढा": 4268,
      "कार्यका": 4269,
      "विगतमा</w>": 4270,
      "सांस्कृतिक</w>": 4271,
      "आपूर्ति</w>": 4272,
      "बेपत्ता</w>": 4273,
      "वृद्धि": 4274,
      "६२</w>": 4275,
      "अमेरिकामा</w>": 4276,
      "कतै</w>": 4277,
      "उमा</w>": 4278,
      "परम्परा": 4279,
      "हेलि": 4280,
      "धनुष": 4281,
      "बुँ": 4282,
      "अक्सिजन</w>": 4283,
      "प्रसारण</w>": 4284,
      "तेल</w>": 4285,
      "चुनावमा</w>": 4286,
      "संस्थाले</w>": 4287,
      "तन्त्रको</w>": 4288,
      "क्यान्": 4289,
      "सहकारी</w>": 4290,
      "दियो</w>": 4291,
      "दिनु": 4292,
      "बोल्दै</w>": 4293,
      "भोलि</w>": 4294,
      "विजेता</w>": 4295,
      "आयोगका</w>": 4296,
      "नियर</w>": 4297,
      "पदाधिकारी</w>": 4298,
      "भरि</w>": 4299,
      "हरा</w>": 4300,
      "तीव्र</w>": 4301,
      "फमा</w>": 4302,
      "व्यावसायिक</w>": 4303,
      "अभिन": 4304,
      "सडक": 4305,
      "सम्पत्ति</w>": 4306,
      "ङ्क</w>": 4307,
      "खोजेको</w>": 4308,
      "भित्रि": 4309,
      "मला</w>": 4310,
      "६८</w>": 4311,
      "गरिनेछ</w>": 4312,
      "त्वमा</w>": 4313,
      "अल</w>": 4314,
      "पेस</w>": 4315,
      "हवाई</w>": 4316,
      "६७</w>": 4317,
      "हल": 4318,
      "खर्ब</w>": 4319,
      "तन": 4320,
      "परिवारका</w>": 4321,
      "पुलि": 4322,
      "द्र्": 4323,
      "८५</w>": 4324,
      "गौतमले</w>": 4325,
      "दावी</w>": 4326,
      "समध्ये</w>": 4327,
      "दिनु</w>": 4328,
      "समी": 4329,
      "गर्दछ</w>": 4330,
      "न्ध": 4331,
      "नाफा</w>": 4332,
      "मूल्या": 4333,
      "कामदा": 4334,
      "उत्त": 4335,
      "संख्यामा</w>": 4336,
      "सन्तो": 4337,
      "हरण</w>": 4338,
      "फाइदा</w>": 4339,
      "काठमाडौंको</w>": 4340,
      "रिजा": 4341,
      "एवम्</w>": 4342,
      "राजदूत</w>": 4343,
      "दीप</w>": 4344,
      "स्तर</w>": 4345,
      "इला": 4346,
      "आधिकार": 4347,
      "खड्का</w>": 4348,
      "बार्सि": 4349,
      "सरकारसँग</w>": 4350,
      "गणना</w>": 4351,
      "एकोमा</w>": 4352,
      "महोत्स": 4353,
      "बच्चा": 4354,
      "देख्": 4355,
      "खाली</w>": 4356,
      "ऊर्जा</w>": 4357,
      "मावली</w>": 4358,
      "रहेकी</w>": 4359,
      "अर्थमन्त्री</w>": 4360,
      "अप्": 4361,
      "बेलु": 4362,
      "अवि": 4363,
      "थुप्र": 4364,
      "भारतका</w>": 4365,
      "उत्पन्न</w>": 4366,
      "जुम्": 4367,
      "त्सा": 4368,
      "सर्वाधिक</w>": 4369,
      "दुरुप": 4370,
      "रेग्": 4371,
      "कपिल": 4372,
      "सिंहले</w>": 4373,
      "सार्": 4374,
      "आया": 4375,
      "मोटरसाइकल</w>": 4376,
      "बार्सिलो": 4377,
      "चल्": 4378,
      "वक्ता</w>": 4379,
      "कार्यकर्ता</w>": 4380,
      "स्त्र": 4381,
      "खारेज</w>": 4382,
      "यन": 4383,
      "फाइनल</w>": 4384,
      "१००</w>": 4385,
      "२०२०</w>": 4386,
      "देखिने</w>": 4387,
      "आमा": 4388,
      "महिनाको</w>": 4389,
      "उहाँ</w>": 4390,
      "क्रिके": 4391,
      "करीब</w>": 4392,
      "समुदा": 4393,
      "तालिम</w>": 4394,
      "भेटिएको</w>": 4395,
      "शाली</w>": 4396,
      "चन</w>": 4397,
      "महामारी</w>": 4398,
      "खेल्न</w>": 4399,
      "भेट</w>": 4400,
      "नर": 4401,
      "नतम</w>": 4402,
      "नेताले</w>": 4403,
      "आधारित</w>": 4404,
      "सदरमुकाम</w>": 4405,
      "बालबालिका</w>": 4406,
      "लिख": 4407,
      "परिवारलाई</w>": 4408,
      "पतिको</w>": 4409,
      "उभि": 4410,
      "सल": 4411,
      "उपभोक्ता</w>": 4412,
      "ग्र</w>": 4413,
      "हल्": 4414,
      "टीमा</w>": 4415,
      "नेप्": 4416,
      "रोकिएको</w>": 4417,
      "डाक्टर</w>": 4418,
      "स्वतन्त्र": 4419,
      "गाउँपालिकाले</w>": 4420,
      "भरि": 4421,
      "मस्": 4422,
      "खरा": 4423,
      "सारको</w>": 4424,
      "६१</w>": 4425,
      "साहित्य": 4426,
      "पुस्तक</w>": 4427,
      "वत</w>": 4428,
      "सवारी": 4429,
      "स्वीकृत</w>": 4430,
      "ठेके": 4431,
      "केन्द्रले</w>": 4432,
      "उनीहरूलाई</w>": 4433,
      "शून्य</w>": 4434,
      "बल्": 4435,
      "बाढी</w>": 4436,
      "माधव": 4437,
      "जोश": 4438,
      "बिजु": 4439,
      "ंकन</w>": 4440,
      "ंले</w>": 4441,
      "तयारीमा</w>": 4442,
      "कारवाही</w>": 4443,
      "सजाय</w>": 4444,
      "जितेको</w>": 4445,
      "क्षेप</w>": 4446,
      "सिँ": 4447,
      "ृत</w>": 4448,
      "सदस्यीय</w>": 4449,
      "सचिवालय</w>": 4450,
      "करणमा</w>": 4451,
      "हुनुहुन्छ</w>": 4452,
      "आरोपमा</w>": 4453,
      "गाह्रो</w>": 4454,
      "फर्क": 4455,
      "पक्षका</w>": 4456,
      "लक्ष्मी</w>": 4457,
      "लुङ</w>": 4458,
      "घण्टा": 4459,
      "खर्च": 4460,
      "६६</w>": 4461,
      "भत्ता</w>": 4462,
      "शेर्": 4463,
      "हस्त": 4464,
      "डेढ</w>": 4465,
      "जुन": 4466,
      "प्रतिशत": 4467,
      "रुढ</w>": 4468,
      "निकाय</w>": 4469,
      "सर्ला": 4470,
      "कानून</w>": 4471,
      "नवी": 4472,
      "आउँदा</w>": 4473,
      "गावि": 4474,
      "चढ": 4475,
      "सीका</w>": 4476,
      "पर्न</w>": 4477,
      "संयोज": 4478,
      "दीर्": 4479,
      "स्थानीयले</w>": 4480,
      "आशा</w>": 4481,
      "बम</w>": 4482,
      "न्थे</w>": 4483,
      "बराम": 4484,
      "सेको</w>": 4485,
      "राहा": 4486,
      "महानगरीय</w>": 4487,
      "आठ": 4488,
      "तथ्यांक</w>": 4489,
      "पूर्वी</w>": 4490,
      "जसरी</w>": 4491,
      "सत्तारुढ</w>": 4492,
      "कामको</w>": 4493,
      "हुनेको</w>": 4494,
      "चो</w>": 4495,
      "पक्षीय</w>": 4496,
      "व्यापी</w>": 4497,
      "विदेशमा</w>": 4498,
      "पढ्": 4499,
      "तिले</w>": 4500,
      "टीका</w>": 4501,
      "वडाध्यक्ष</w>": 4502,
      "पर्यटकीय</w>": 4503,
      "खड्काले</w>": 4504,
      "तीले</w>": 4505,
      "पर्व</w>": 4506,
      "हक</w>": 4507,
      "सनको</w>": 4508,
      "फैलिएको</w>": 4509,
      "सक्दैन</w>": 4510,
      "लियन</w>": 4511,
      "त्रा</w>": 4512,
      "छिमेकी</w>": 4513,
      "दुबै</w>": 4514,
      "कालो</w>": 4515,
      "बौ": 4516,
      "मास्क</w>": 4517,
      "आफन्त": 4518,
      "दुरुपयोग</w>": 4519,
      "गोवि": 4520,
      "तिलाई</w>": 4521,
      "समारो": 4522,
      "ईमा</w>": 4523,
      "किना": 4524,
      "भविष": 4525,
      "महोत्त": 4526,
      "खोजि": 4527,
      "निर्वाचनको</w>": 4528,
      "भक्तपुर</w>": 4529,
      "सेनाको</w>": 4530,
      "बाहिरि": 4531,
      "घरको</w>": 4532,
      "बढेर</w>": 4533,
      "माल": 4534,
      "भविष्य": 4535,
      "विसं</w>": 4536,
      "कीको</w>": 4537,
      "ओलीलाई</w>": 4538,
      "श्रमिक</w>": 4539,
      "सुन्दर</w>": 4540,
      "आका": 4541,
      "घन</w>": 4542,
      "बहुमत</w>": 4543,
      "लगि": 4544,
      "बाबु</w>": 4545,
      "समृद्धि": 4546,
      "अभ्यास</w>": 4547,
      "रहन</w>": 4548,
      "क्लि": 4549,
      "आम": 4550,
      "चिकित्सक</w>": 4551,
      "ग्रहण</w>": 4552,
      "यू</w>": 4553,
      "हीका</w>": 4554,
      "इन्छ</w>": 4555,
      "जहाज</w>": 4556,
      "सल्लाह": 4557,
      "कदम</w>": 4558,
      "कहिल्यै</w>": 4559,
      "मन्त्रालयमा</w>": 4560,
      "महसुस</w>": 4561,
      "पुगे": 4562,
      "फोहो": 4563,
      "प्रवाह</w>": 4564,
      "बैत": 4565,
      "निर्माण": 4566,
      "घट्": 4567,
      "चर</w>": 4568,
      "संक्रमणको</w>": 4569,
      "कर्मचारीको</w>": 4570,
      "दुःख</w>": 4571,
      "फाँ": 4572,
      "च्न</w>": 4573,
      "लागेर</w>": 4574,
      "विप्ल": 4575,
      "सामना</w>": 4576,
      "पश्चा": 4577,
      "शालामा</w>": 4578,
      "उनमा</w>": 4579,
      "यसबाट</w>": 4580,
      "कार्यालयको</w>": 4581,
      "चालू</w>": 4582,
      "समक्ष</w>": 4583,
      "उदय": 4584,
      "बरामद</w>": 4585,
      "नुको</w>": 4586,
      "मानिसको</w>": 4587,
      "नता</w>": 4588,
      "ल्याएर</w>": 4589,
      "खतिवडा": 4590,
      "राष्ट्रियस": 4591,
      "पुगि": 4592,
      "भन्ने": 4593,
      "लामि": 4594,
      "मेन्": 4595,
      "सजिलो</w>": 4596,
      "यालाई</w>": 4597,
      "खाद्य</w>": 4598,
      "स्रोतले</w>": 4599,
      "निवास</w>": 4600,
      "ंग्": 4601,
      "प्रिमि": 4602,
      "९५</w>": 4603,
      "लगाए</w>": 4604,
      "स्म": 4605,
      "चाइ</w>": 4606,
      "विषयलाई</w>": 4607,
      "क्षेत्रलाई</w>": 4608,
      "जरिवा": 4609,
      "हुनेछन्</w>": 4610,
      "दायर</w>": 4611,
      "इलाका</w>": 4612,
      "विश्वकप</w>": 4613,
      "सीसी</w>": 4614,
      "अन्न": 4615,
      "ट्रि": 4616,
      "मन्त्रिपरिषद्</w>": 4617,
      "ग्रि": 4618,
      "यात्रु</w>": 4619,
      "छुट</w>": 4620,
      "पछाडि</w>": 4621,
      "राजनीतिमा</w>": 4622,
      "भाडा</w>": 4623,
      "बुझ्": 4624,
      "आस": 4625,
      "निरा": 4626,
      "धर्म": 4627,
      "युद्ध": 4628,
      "पराज": 4629,
      "परिणाम</w>": 4630,
      "अन्तर्गत": 4631,
      "सीआर</w>": 4632,
      "पार</w>": 4633,
      "सोच": 4634,
      "कार्यान्वयनमा</w>": 4635,
      "कित्ता</w>": 4636,
      "विकासको</w>": 4637,
      "संघी": 4638,
      "परिच": 4639,
      "राजेन्द्र</w>": 4640,
      "वृत्ति</w>": 4641,
      "म्याग्": 4642,
      "मेसि": 4643,
      "नगर्न</w>": 4644,
      "कलेज</w>": 4645,
      "अना": 4646,
      "उत्तर": 4647,
      "विपक्षी</w>": 4648,
      "संकेत</w>": 4649,
      "लक्ष्य": 4650,
      "सिल": 4651,
      "इसकेको</w>": 4652,
      "आश्": 4653,
      "बस्ती</w>": 4654,
      "विवि": 4655,
      "कारागा": 4656,
      "सरोकारवा": 4657,
      "व्यवहा": 4658,
      "जनप्रतिनिधि": 4659,
      "पठाइएको</w>": 4660,
      "क्षति": 4661,
      "सडकको</w>": 4662,
      "सेमि": 4663,
      "तलब</w>": 4664,
      "अनलाइन</w>": 4665,
      "रिङ</w>": 4666,
      "लेखा": 4667,
      "अनलाइ": 4668,
      "साको</w>": 4669,
      "हुँदैछ</w>": 4670,
      "राज्यको</w>": 4671,
      "पसल</w>": 4672,
      "पाण्डेले</w>": 4673,
      "सभामुख": 4674,
      "कोटा</w>": 4675,
      "सहज": 4676,
      "तना</w>": 4677,
      "जडान</w>": 4678,
      "प्रथ": 4679,
      "नजिकै</w>": 4680,
      "जल</w>": 4681,
      "भित्रको</w>": 4682,
      "रोक</w>": 4683,
      "लेखेका</w>": 4684,
      "ठी</w>": 4685,
      "मधेसी</w>": 4686,
      "भइरहेका</w>": 4687,
      "फूल</w>": 4688,
      "लामिछा": 4689,
      "पाए</w>": 4690,
      "दार्": 4691,
      "खाद्या": 4692,
      "स्वास्थ्यकर्म": 4693,
      "९९</w>": 4694,
      "पहिलोपटक</w>": 4695,
      "रणमा</w>": 4696,
      "गए</w>": 4697,
      "मेरा</w>": 4698,
      "टे</w>": 4699,
      "जनका</w>": 4700,
      "झो": 4701,
      "कटा": 4702,
      "अक्": 4703,
      "वर्ग": 4704,
      "हतिया": 4705,
      "दिनसम्म</w>": 4706,
      "युनि": 4707,
      "काली": 4708,
      "बिना</w>": 4709,
      "भएसँगै</w>": 4710,
      "उद्देश्यले</w>": 4711,
      "विराटनगर": 4712,
      "मकवान": 4713,
      "अफ्रि": 4714,
      "त्यसै": 4715,
      "मासिक</w>": 4716,
      "बगा": 4717,
      "एकजना</w>": 4718,
      "साह</w>": 4719,
      "कोष</w>": 4720,
      "प्रतिबन्ध</w>": 4721,
      "टाउ": 4722,
      "नभएर</w>": 4723,
      "अवरोध</w>": 4724,
      "थुप्रै</w>": 4725,
      "सम्भा": 4726,
      "रेका</w>": 4727,
      "रञ्": 4728,
      "जोडिएको</w>": 4729,
      "बजेसम्म</w>": 4730,
      "्री</w>": 4731,
      "अष्ट्रे": 4732,
      "अघि": 4733,
      "सूचीमा</w>": 4734,
      "उपे": 4735,
      "प्रारम्भिक</w>": 4736,
      "पारे</w>": 4737,
      "कस्": 4738,
      "दूतावा": 4739,
      "आँखा</w>": 4740,
      "घन्": 4741,
      "नगरपालिका": 4742,
      "बमा</w>": 4743,
      "टुंगो</w>": 4744,
      "७९</w>": 4745,
      "एम</w>": 4746,
      "अमेरिकाको</w>": 4747,
      "काभ्र": 4748,
      "बज": 4749,
      "राखे": 4750,
      "फ्रान्": 4751,
      "परराष्ट्र</w>": 4752,
      "विधान</w>": 4753,
      "आवाज</w>": 4754,
      "क्वारेन्टाइनमा</w>": 4755,
      "वर्षा": 4756,
      "पछिको</w>": 4757,
      "कोइरालाले</w>": 4758,
      "कठिन</w>": 4759,
      "हिम": 4760,
      "६९</w>": 4761,
      "बुटवल</w>": 4762,
      "उच्च": 4763,
      "धनगढी</w>": 4764,
      "नदीमा</w>": 4765,
      "वाल</w>": 4766,
      "अने": 4767,
      "हुनसक्ने</w>": 4768,
      "प्रतिपक्षी</w>": 4769,
      "बन्धन</w>": 4770,
      "जटि": 4771,
      "वाको</w>": 4772,
      "प्रावधान</w>": 4773,
      "रहन्छ</w>": 4774,
      "कर्मचारीलाई</w>": 4775,
      "लाग्न</w>": 4776,
      "ढकालले</w>": 4777,
      "गौतम</w>": 4778,
      "याउन</w>": 4779,
      "हरूसँग</w>": 4780,
      "समाजमा</w>": 4781,
      "गुल्": 4782,
      "ध्": 4783,
      "सूचक</w>": 4784,
      "विक्रम</w>": 4785,
      "स्वदेश</w>": 4786,
      "स्थलमा</w>": 4787,
      "वर्षसम्म</w>": 4788,
      "चलन</w>": 4789,
      "लैजाने</w>": 4790,
      "पोखरेल</w>": 4791,
      "भरका</w>": 4792,
      "विजय</w>": 4793,
      "झन्</w>": 4794,
      "प्रतियोगिताको</w>": 4795,
      "कारी": 4796,
      "नेपालीको</w>": 4797,
      "देशले</w>": 4798,
      "पुरा</w>": 4799,
      "केन्द्रको</w>": 4800,
      "शिक्षा": 4801,
      "नेताहरु</w>": 4802,
      "मोड": 4803,
      "सम्हा": 4804,
      "भूकम्प</w>": 4805,
      "ङ्गा</w>": 4806,
      "मिनेट</w>": 4807,
      "ज्ञान</w>": 4808,
      "समूहमा</w>": 4809,
      "विद्युतीय</w>": 4810,
      "लता</w>": 4811,
      "क्न</w>": 4812,
      "भूकम्प": 4813,
      "डिस्": 4814,
      "जग": 4815,
      "प्रचार</w>": 4816,
      "ग्री</w>": 4817,
      "बोकेर</w>": 4818,
      "सेना": 4819,
      "सक्यो</w>": 4820,
      "गर्दै": 4821,
      "भ्": 4822,
      "विकासमा</w>": 4823,
      "पुग्दा</w>": 4824,
      "बसो": 4825,
      "तोकेको</w>": 4826,
      "साधारण</w>": 4827,
      "कसैलाई</w>": 4828,
      "भिडियो": 4829,
      "द्द": 4830,
      "बनि": 4831,
      "काठमाडौ</w>": 4832,
      "अध्यादेश</w>": 4833,
      "लिखित</w>": 4834,
      "एकै": 4835,
      "कीर्ति": 4836,
      "गिक</w>": 4837,
      "व्यवसायी": 4838,
      "निर्यात</w>": 4839,
      "स्वागत</w>": 4840,
      "परियोजना</w>": 4841,
      "सुनाए</w>": 4842,
      "प्रधानन्यायाधीश</w>": 4843,
      "बढ्दो</w>": 4844,
      "धो": 4845,
      "चौधरीले</w>": 4846,
      "टिकट</w>": 4847,
      "गृहमन्त्री</w>": 4848,
      "अस्पताल": 4849,
      "बाटोमा</w>": 4850,
      "लिङ</w>": 4851,
      "एसँगै</w>": 4852,
      "नभएका</w>": 4853,
      "फर्किएका</w>": 4854,
      "साल": 4855,
      "उर्": 4856,
      "व्यस्त</w>": 4857,
      "योजनामा</w>": 4858,
      "पछिल्ला</w>": 4859,
      "सरुवा</w>": 4860,
      "तिर्": 4861,
      "शीर्ष": 4862,
      "उद्य": 4863,
      "कुराकानी</w>": 4864,
      "डियो</w>": 4865,
      "दरले</w>": 4866,
      "प्रक्रियामा</w>": 4867,
      "आवेदन</w>": 4868,
      "जनाए</w>": 4869,
      "जनशक्ति</w>": 4870,
      "प्रथम</w>": 4871,
      "बैंकका</w>": 4872,
      "मसान्त": 4873,
      "कर्ष</w>": 4874,
      "समझ": 4875,
      "जनमा</w>": 4876,
      "सन्दी": 4877,
      "विक्र": 4878,
      "श्रीमती</w>": 4879,
      "निकालेको</w>": 4880,
      "कुर्": 4881,
      "समग्र</w>": 4882,
      "झापा</w>": 4883,
      "कार्ड</w>": 4884,
      "खनाल</w>": 4885,
      "स्टर</w>": 4886,
      "ब्जा</w>": 4887,
      "देशलाई</w>": 4888,
      "हुनेमा</w>": 4889,
      "आन्दोलनमा</w>": 4890,
      "प्रशासनले</w>": 4891,
      "वर्षपछि</w>": 4892,
      "गराए</w>": 4893,
      "वर": 4894,
      "रहेर</w>": 4895,
      "मगर</w>": 4896,
      "लोकन</w>": 4897,
      "भरतपुर</w>": 4898,
      "वानी</w>": 4899,
      "श्रीलं": 4900,
      "चित्र": 4901,
      "चर्चित</w>": 4902,
      "भित्र्या": 4903,
      "विष्णु</w>": 4904,
      "ललितपुर</w>": 4905,
      "संक्रमण": 4906,
      "महिलालाई</w>": 4907,
      "गोरखा": 4908,
      "नेका</w>": 4909,
      "लाइन्": 4910,
      "संस्थागत</w>": 4911,
      "परे</w>": 4912,
      "गर्नेछन्</w>": 4913,
      "दफा</w>": 4914,
      "मोहन</w>": 4915,
      "नपछि</w>": 4916,
      "नात्मक</w>": 4917,
      "खासै</w>": 4918,
      "चारमा</w>": 4919,
      "अलि</w>": 4920,
      "न्डर</w>": 4921,
      "औद्यो": 4922,
      "रात</w>": 4923,
      "स्मार्": 4924,
      "घरमै</w>": 4925,
      "फोटो</w>": 4926,
      "प्रहरीका</w>": 4927,
      "अस्ट्रे": 4928,
      "कार्यक्रमको</w>": 4929,
      "शाही</w>": 4930,
      "थाले</w>": 4931,
      "बसि": 4932,
      "विक": 4933,
      "डाको</w>": 4934,
      "सिन्धुपाल्": 4935,
      "देखियो</w>": 4936,
      "आत": 4937,
      "तै": 4938,
      "मगर": 4939,
      "नेताहरुले</w>": 4940,
      "नियुक्ति</w>": 4941,
      "अन्य": 4942,
      "दिँदा</w>": 4943,
      "लालाई</w>": 4944,
      "छुट्या": 4945,
      "मान्": 4946,
      "सभाका</w>": 4947,
      "घाँ": 4948,
      "चलाउन</w>": 4949,
      "ज्व": 4950,
      "ज्ञाने": 4951,
      "स्टो": 4952,
      "भट्": 4953,
      "संघर्ष</w>": 4954,
      "माथिल्लो</w>": 4955,
      "सिटी</w>": 4956,
      "लक्षण</w>": 4957,
      "विज्ञप्ति</w>": 4958,
      "२०७२</w>": 4959,
      "बिरामीको</w>": 4960,
      "विद्यार्थी": 4961,
      "जोखिममा</w>": 4962,
      "निर्धा": 4963,
      "रेकर्": 4964,
      "बस्दै</w>": 4965,
      "नमु": 4966,
      "जोड्ने</w>": 4967,
      "शिक्षण</w>": 4968,
      "भीम": 4969,
      "ड्रि": 4970,
      "नवलपरा": 4971,
      "र्ड</w>": 4972,
      "गरिसकेका</w>": 4973,
      "संस्कृ": 4974,
      "पहुँच</w>": 4975,
      "घे": 4976,
      "रेले</w>": 4977,
      "उल्लेख": 4978,
      "न्यूनतम</w>": 4979,
      "आयोजनामा</w>": 4980,
      "ध्यापक</w>": 4981,
      "धनको</w>": 4982,
      "८४</w>": 4983,
      "्रै</w>": 4984,
      "म्प</w>": 4985,
      "क्षा": 4986,
      "पुगे</w>": 4987,
      "कलाकार</w>": 4988,
      "संस्थाको</w>": 4989,
      "मणि</w>": 4990,
      "वु": 4991,
      "आफु": 4992,
      "मृत": 4993,
      "अस्थायी</w>": 4994,
      "टस</w>": 4995,
      "फ्रे": 4996,
      "संय": 4997,
      "पूँ": 4998,
      "मानसिक</w>": 4999,
      "उत्रि": 5000,
      "स्वीकृति</w>": 5001,
      "वायु</w>": 5002,
      "सालको</w>": 5003,
      "असफल</w>": 5004,
      "हालै</w>": 5005,
      "फरार</w>": 5006,
      "ढुंगा": 5007,
      "मौका</w>": 5008,
      "महेन्द्र": 5009,
      "अन्तरि": 5010,
      "परिवारको</w>": 5011,
      "८२</w>": 5012,
      "दायित्व</w>": 5013,
      "खेलाडी": 5014,
      "दसै": 5015,
      "अवैध</w>": 5016,
      "ताबाट</w>": 5017,
      "रत्": 5018,
      "नपाउने</w>": 5019,
      "बजेदेखि</w>": 5020,
      "आफैं</w>": 5021,
      "८८</w>": 5022,
      "गढी</w>": 5023,
      "धर्म</w>": 5024,
      "रुकु": 5025,
      "युनिय": 5026,
      "पक्षको</w>": 5027,
      "दिल्ली</w>": 5028,
      "लेले</w>": 5029,
      "कूट": 5030,
      "गएपछि</w>": 5031,
      "विष्ट": 5032,
      "सङ्कलन</w>": 5033,
      "स्वाब</w>": 5034,
      "वाग्": 5035,
      "माथिको</w>": 5036,
      "खुशी</w>": 5037,
      "ताप": 5038,
      "पार्टीलाई</w>": 5039,
      "बाध्यता</w>": 5040,
      "सफलता</w>": 5041,
      "पात</w>": 5042,
      "आचार्यले</w>": 5043,
      "महामन्त्री</w>": 5044,
      "कम्पनीका</w>": 5045,
      "हुन्न</w>": 5046,
      "आयोजक</w>": 5047,
      "श्रमि": 5048,
      "भाविक</w>": 5049,
      "लगायतको</w>": 5050,
      "शु</w>": 5051,
      "पीसीआर</w>": 5052,
      "दलीय</w>": 5053,
      "राख्दै</w>": 5054,
      "त्ती</w>": 5055,
      "तन</w>": 5056,
      "प्रगति</w>": 5057,
      "जलविद्युत्</w>": 5058,
      "विश्वका</w>": 5059,
      "थिएनन्</w>": 5060,
      "प्रकाशन</w>": 5061,
      "वेदन": 5062,
      "९२</w>": 5063,
      "८१</w>": 5064,
      "स्फो": 5065,
      "गीत": 5066,
      "खतरा</w>": 5067,
      "न्यून</w>": 5068,
      "प्रतिवेदनमा</w>": 5069,
      "गयो</w>": 5070,
      "घुम्": 5071,
      "दिनदेखि</w>": 5072,
      "गर्नुपर्": 5073,
      "जय</w>": 5074,
      "सिम": 5075,
      "झन्ड": 5076,
      "आधारभूत</w>": 5077,
      "रक्त": 5078,
      "चोरी</w>": 5079,
      "कर्मचारीले</w>": 5080,
      "शब्द</w>": 5081,
      "रामचन्द्र</w>": 5082,
      "गतिविधि": 5083,
      "शान्ति": 5084,
      "च्ने</w>": 5085,
      "उपस्थिति</w>": 5086,
      "निर्धारित</w>": 5087,
      "धामा</w>": 5088,
      "सुरुमा</w>": 5089,
      "कली</w>": 5090,
      "मतदाता</w>": 5091,
      "रीबाट</w>": 5092,
      "दीर्घ": 5093,
      "प्रशिक्षण</w>": 5094,
      "अपा": 5095,
      "विमान</w>": 5096,
      "उपयोग</w>": 5097,
      "अधिवेश": 5098,
      "झन्डै</w>": 5099,
      "ताल</w>": 5100,
      "८३</w>": 5101,
      "शाक्य": 5102,
      "राजा": 5103,
      "नीलाई</w>": 5104,
      "लेखा</w>": 5105,
      "मीको</w>": 5106,
      "ङलाई</w>": 5107,
      "ब्राजि": 5108,
      "क्षण</w>": 5109,
      "इन्डि": 5110,
      "सन्ता": 5111,
      "मान्छे": 5112,
      "चल्ने</w>": 5113,
      "मे</w>": 5114,
      "धीन</w>": 5115,
      "रेन्द्र": 5116,
      "मात्रा</w>": 5117,
      "पुराना</w>": 5118,
      "राज्यले</w>": 5119,
      "मात्रामा</w>": 5120,
      "नसकिने</w>": 5121,
      "मन्त्रीको</w>": 5122,
      "नीय</w>": 5123,
      "बलात्कार</w>": 5124,
      "अमेरिकाले</w>": 5125,
      "टु</w>": 5126,
      "एण्ड</w>": 5127,
      "महिलाले</w>": 5128,
      "क्षेत्रबाट</w>": 5129,
      "जिम्मेवार</w>": 5130,
      "माधवकुमार</w>": 5131,
      "निक": 5132,
      "भोलि": 5133,
      "भेला</w>": 5134,
      "कर्ता</w>": 5135,
      "काल": 5136,
      "निषेधाज्ञा</w>": 5137,
      "हुँदा": 5138,
      "प्रहरीलाई</w>": 5139,
      "पुग्यो</w>": 5140,
      "निर्वाह</w>": 5141,
      "मङ्ग": 5142,
      "अम": 5143,
      "पुस्ता": 5144,
      "अलपत्र</w>": 5145,
      "मूलक</w>": 5146,
      "८६</w>": 5147,
      "खालको</w>": 5148,
      "खरी": 5149,
      "सकेनन्</w>": 5150,
      "रनमा</w>": 5151,
      "जात</w>": 5152,
      "पार्क</w>": 5153,
      "सारमा</w>": 5154,
      "ठो</w>": 5155,
      "न्स": 5156,
      "बिता": 5157,
      "श्य</w>": 5158,
      "मञ्च": 5159,
      "फर</w>": 5160,
      "बुझ्न</w>": 5161,
      "जरिवाना</w>": 5162,
      "कैद</w>": 5163,
      "लम": 5164,
      "बोल्": 5165,
      "मर्मत</w>": 5166,
      "भत्का": 5167,
      "ट्रम्पले</w>": 5168,
      "क्रियाशील</w>": 5169,
      "मार्फत्</w>": 5170,
      "खनालले</w>": 5171,
      "पो</w>": 5172,
      "औद्योगिक</w>": 5173,
      "प्रवद्र्": 5174,
      "स्वर्ण</w>": 5175,
      "लगाइ": 5176,
      "ैं": 5177,
      "काय": 5178,
      "तीलाई</w>": 5179,
      "जीको</w>": 5180,
      "महर्": 5181,
      "हातमा</w>": 5182,
      "ठीक</w>": 5183,
      "बच": 5184,
      "अब": 5185,
      "तस्क": 5186,
      "थप्": 5187,
      "आधुनिक</w>": 5188,
      "कुश": 5189,
      "दीपक</w>": 5190,
      "नपर्ने</w>": 5191,
      "प्राथमिकतामा</w>": 5192,
      "गन्ज</w>": 5193,
      "मधु": 5194,
      "प्रिय</w>": 5195,
      "दले</w>": 5196,
      "खल": 5197,
      "अत्यावश्यक</w>": 5198,
      "ग्राम</w>": 5199,
      "व्यवसायीले</w>": 5200,
      "कृषि": 5201,
      "रल</w>": 5202,
      "यसैबीच</w>": 5203,
      "प्रिमियर</w>": 5204,
      "बेहो": 5205,
      "रमेश</w>": 5206,
      "पाण्डे</w>": 5207,
      "हलमा</w>": 5208,
      "सुवेद": 5209,
      "नुहोस्</w>": 5210,
      "८७</w>": 5211,
      "गर्छु</w>": 5212,
      "चलिरहेको</w>": 5213,
      "यहाँको</w>": 5214,
      "ब्रे": 5215,
      "म्भ</w>": 5216,
      "मैदान</w>": 5217,
      "शंकर</w>": 5218,
      "तालिका</w>": 5219,
      "यसबारे</w>": 5220,
      "एम्बु": 5221,
      "सरी</w>": 5222,
      "पटक": 5223,
      "उपमहा": 5224,
      "चलेको</w>": 5225,
      "मृत</w>": 5226,
      "शुभकामना</w>": 5227,
      "जन्त": 5228,
      "सफा</w>": 5229,
      "पन्": 5230,
      "एपनि</w>": 5231,
      "आधिकारिक</w>": 5232,
      "छौ</w>": 5233,
      "हैन</w>": 5234,
      "हुनाले</w>": 5235,
      "मापदण्ड": 5236,
      "अति</w>": 5237,
      "इमा</w>": 5238,
      "सेवन</w>": 5239,
      "रिट</w>": 5240,
      "चलाउने</w>": 5241,
      "नदिन</w>": 5242,
      "नुस्</w>": 5243,
      "प्रतिनिधित्व</w>": 5244,
      "समानु": 5245,
      "रियल</w>": 5246,
      "मन्त्रीले</w>": 5247,
      "पदार्थ": 5248,
      "पुनर्निर्माण</w>": 5249,
      "पोखरी</w>": 5250,
      "्यू": 5251,
      "यसपटक</w>": 5252,
      "सोच</w>": 5253,
      "आचार्य</w>": 5254,
      "स्पि": 5255,
      "ग्ने</w>": 5256,
      "हेरेर</w>": 5257,
      "गठबन्धन</w>": 5258,
      "इतिहास</w>": 5259,
      "तिकै</w>": 5260,
      "सहितका</w>": 5261,
      "आगो</w>": 5262,
      "सामू": 5263,
      "नियन्त्रणका</w>": 5264,
      "सिंहदर": 5265,
      "डडे": 5266,
      "अर्थात</w>": 5267,
      "९६</w>": 5268,
      "परिवार": 5269,
      "५००</w>": 5270,
      "९८</w>": 5271,
      "वर्षे</w>": 5272,
      "मिश्र": 5273,
      "किता": 5274,
      "रहनेछ</w>": 5275,
      "बढे": 5276,
      "आत्मह": 5277,
      "ग्यास</w>": 5278,
      "सुनुवाइ</w>": 5279,
      "भइसकेका</w>": 5280,
      "दका</w>": 5281,
      "टलाई</w>": 5282,
      "सगर": 5283,
      "स्वि": 5284,
      "डब्": 5285,
      "याएको</w>": 5286,
      "तौ": 5287,
      "लागत</w>": 5288,
      "करोड": 5289,
      "गौर": 5290,
      "बच्चा</w>": 5291,
      "इन": 5292,
      "डै</w>": 5293,
      "धादि": 5294,
      "सुख": 5295,
      "बारमा</w>": 5296,
      "समानुपा": 5297,
      "विभाजन</w>": 5298,
      "स्ना": 5299,
      "हाउ": 5300,
      "परिसर": 5301,
      "माझ": 5302,
      "होम</w>": 5303,
      "हाल्": 5304,
      "९१</w>": 5305,
      "अभिनय</w>": 5306,
      "बराबरी</w>": 5307,
      "खोलामा</w>": 5308,
      "ठ्या": 5309,
      "मारि": 5310,
      "शुरु": 5311,
      "वीर</w>": 5312,
      "निष्कर्ष</w>": 5313,
      "हैसि": 5314,
      "वं": 5315,
      "बलिउ": 5316,
      "पला": 5317,
      "उद्देश्य</w>": 5318,
      "जान्छ</w>": 5319,
      "प्रतिव": 5320,
      "मातह": 5321,
      "बुँदे</w>": 5322,
      "अर्थतन्त्र": 5323,
      "अख्तियार</w>": 5324,
      "अभियानमा</w>": 5325,
      "विश्लेषण</w>": 5326,
      "मेलम्": 5327,
      "लिटर</w>": 5328,
      "गोविन्द</w>": 5329,
      "अधिकृ": 5330,
      "सुनको</w>": 5331,
      "पालिका</w>": 5332,
      "तस्बि": 5333,
      "तराई": 5334,
      "९३</w>": 5335,
      "विवे": 5336,
      "बरु</w>": 5337,
      "एम्बुले": 5338,
      "बस्नेतले</w>": 5339,
      "प्रादेशिक</w>": 5340,
      "ल्याएका</w>": 5341,
      "स्पद</w>": 5342,
      "जागि": 5343,
      "सिलि": 5344,
      "हर्": 5345,
      "महामारीको</w>": 5346,
      "अबको</w>": 5347,
      "निया": 5348,
      "तराई</w>": 5349,
      "चाप</w>": 5350,
      "भएका": 5351,
      "लाभ": 5352,
      "अलग</w>": 5353,
      "युद्ध</w>": 5354,
      "निगरा": 5355,
      "कोरोनाका</w>": 5356,
      "ग्रामी": 5357,
      "मूल्यमा</w>": 5358,
      "क्ट</w>": 5359,
      "शाह</w>": 5360,
      "प्रकारको</w>": 5361,
      "डाक्": 5362,
      "रुपैयाँको</w>": 5363,
      "वाम": 5364,
      "भू</w>": 5365,
      "आदि</w>": 5366,
      "पथ": 5367,
      "प्रमाण</w>": 5368,
      "भारी</w>": 5369,
      "अगु": 5370,
      "मानवीय</w>": 5371,
      "सञ्चालित</w>": 5372,
      "परिवारले</w>": 5373,
      "स्टार</w>": 5374,
      "शाहीले</w>": 5375,
      "केहि</w>": 5376,
      "उपचारको</w>": 5377,
      "दिइने</w>": 5378,
      "पल्ट</w>": 5379,
      "करणका</w>": 5380,
      "चन्द</w>": 5381,
      "ईको</w>": 5382,
      "फैलि": 5383,
      "रोकथाम</w>": 5384,
      "वडामा</w>": 5385,
      "दैन": 5386,
      "असु": 5387,
      "संचालन</w>": 5388,
      "९४</w>": 5389,
      "तरिकाले</w>": 5390,
      "पदक</w>": 5391,
      "हटाउन</w>": 5392,
      "अवधि</w>": 5393,
      "अवार्ड</w>": 5394,
      "दिवस</w>": 5395,
      "स्वरुप</w>": 5396,
      "ग्रामीण</w>": 5397,
      "स्यौ": 5398,
      "घोषणा": 5399,
      "हे</w>": 5400,
      "ज्ञवालीले</w>": 5401,
      "महाशाखाले</w>": 5402,
      "चीन": 5403,
      "ट्टै</w>": 5404,
      "कान्ति": 5405,
      "मूर्": 5406,
      "८९</w>": 5407,
      "सनले</w>": 5408,
      "त्यतिबेला</w>": 5409,
      "राणा": 5410,
      "हेर": 5411,
      "लडा": 5412,
      "संक्रमणबाट</w>": 5413,
      "सञ्चारमाध्य": 5414,
      "खेलेको</w>": 5415,
      "सत्य": 5416,
      "भोज": 5417,
      "यताको</w>": 5418,
      "श्री</w>": 5419,
      "स्कुल</w>": 5420,
      "कल्या": 5421,
      "मदि": 5422,
      "कुँ": 5423,
      "देखिएपछि</w>": 5424,
      "प्रकारका</w>": 5425,
      "विद्यार्थीलाई</w>": 5426,
      "बुद्ध</w>": 5427,
      "क्रियाकला": 5428,
      "मानिन्छ</w>": 5429,
      "व्यापक</w>": 5430,
      "विनो": 5431,
      "सभापति": 5432,
      "विमानस्थलमा</w>": 5433,
      "कल्पिक</w>": 5434,
      "पारेर</w>": 5435,
      "किसानले</w>": 5436,
      "विना": 5437,
      "क्सी</w>": 5438,
      "एशि": 5439,
      "उपकरण</w>": 5440,
      "मकै</w>": 5441,
      "स्थापक</w>": 5442,
      "डिजा": 5443,
      "बेच": 5444,
      "काठमाण्ड": 5445,
      "प्रोत्सा": 5446,
      "उपचारमा</w>": 5447,
      "गन</w>": 5448,
      "सेल्": 5449,
      "दुईवटा</w>": 5450,
      "किसिमको</w>": 5451,
      "जमिन</w>": 5452,
      "हको</w>": 5453,
      "नसमेत</w>": 5454,
      "मही": 5455,
      "अगा": 5456,
      "हकमा</w>": 5457,
      "नाइटे": 5458,
      "अर्को": 5459,
      "विभे": 5460,
      "उड्": 5461,
      "सेवामा</w>": 5462,
      "एनआर": 5463,
      "बाबुराम</w>": 5464,
      "सफाइ</w>": 5465,
      "किनभने</w>": 5466,
      "स्थानीयवा": 5467,
      "ठक्": 5468,
      "नेकपाको</w>": 5469,
      "डिजि": 5470,
      "पन्त": 5471,
      "ठहर</w>": 5472,
      "ढी": 5473,
      "कपडा</w>": 5474,
      "वैज्ञानिक</w>": 5475,
      "क्वारेन्टि": 5476,
      "ब्याटिङ</w>": 5477,
      "आन": 5478,
      "रसु": 5479,
      "प्याके": 5480,
      "विद्रो": 5481,
      "बया": 5482,
      "मस्यौ": 5483,
      "कलाकार": 5484,
      "सघा": 5485,
      "इटा": 5486,
      "गतिमा</w>": 5487,
      "पनी</w>": 5488,
      "दिशा": 5489,
      "तिम": 5490,
      "परामर्श</w>": 5491,
      "मार्गको</w>": 5492,
      "थपिएका</w>": 5493,
      "गरेकाले</w>": 5494,
      "बढिरहेको</w>": 5495,
      "संयोजक": 5496,
      "सदस्यको</w>": 5497,
      "नियमित": 5498,
      "जसको</w>": 5499,
      "मुखी</w>": 5500,
      "संसदको</w>": 5501,
      "महत्त्व": 5502,
      "९७</w>": 5503,
      "रुपैयाँमा</w>": 5504,
      "अत्यधिक</w>": 5505,
      "नष्ट</w>": 5506,
      "पठाउन</w>": 5507,
      "आँखा": 5508,
      "फ्या": 5509,
      "ङक": 5510,
      "मद्द": 5511,
      "प्यु": 5512,
      "टेका</w>": 5513,
      "रातो</w>": 5514,
      "इंग्": 5515,
      "स्मरण</w>": 5516,
      "उपभोक्": 5517,
      "युवराज</w>": 5518,
      "सदस्यले</w>": 5519,
      "सिट</w>": 5520,
      "लघु": 5521,
      "भ्रमणमा</w>": 5522,
      "मजदु": 5523,
      "एकल</w>": 5524,
      "एयरलाइन्": 5525,
      "समुदायको</w>": 5526,
      "हप्ता</w>": 5527,
      "तथ्य</w>": 5528,
      "कहरु</w>": 5529,
      "चिया</w>": 5530,
      "वास्ता</w>": 5531,
      "बर्ष</w>": 5532,
      "सामूहिक</w>": 5533,
      "फिल्ममा</w>": 5534,
      "मोद": 5535,
      "फोर": 5536,
      "ट्टा": 5537,
      "घर्": 5538,
      "ड्रो": 5539,
      "दूरी</w>": 5540,
      "वायु": 5541,
      "जन्मि": 5542,
      "अथ": 5543,
      "पाउँ": 5544,
      "परीक्षणका</w>": 5545,
      "श्याम</w>": 5546,
      "ब्यु": 5547,
      "मिर्": 5548,
      "कडा": 5549,
      "क्सा": 5550,
      "निङ</w>": 5551,
      "जाँदै</w>": 5552,
      "विशा": 5553,
      "कानुन": 5554,
      "आइसोलेसनमा</w>": 5555,
      "इट": 5556,
      "कामदार</w>": 5557,
      "तहले</w>": 5558,
      "लेख्": 5559,
      "युनाइटे": 5560,
      "पं": 5561,
      "दान": 5562,
      "शः</w>": 5563,
      "चिकित्सा</w>": 5564,
      "सुर्खेत</w>": 5565,
      "बिर्": 5566,
      "जब": 5567,
      "मुम्ब": 5568,
      "चरि": 5569,
      "तृ</w>": 5570,
      "खाद्यान्न</w>": 5571,
      "लुका": 5572,
      "राजमार्ग</w>": 5573,
      "अतिरिक्त</w>": 5574,
      "संविधानले</w>": 5575,
      "बागमती</w>": 5576,
      "सूर्य": 5577,
      "नभए": 5578,
      "अफि": 5579,
      "ओटा</w>": 5580,
      "हामी": 5581,
      "जस्ती</w>": 5582,
      "सकिनेछ</w>": 5583,
      "भाइ</w>": 5584,
      "अल्प": 5585,
      "कसले</w>": 5586,
      "संहि": 5587,
      "चन्द": 5588,
      "याताया": 5589,
      "पन्थ": 5590,
      "बन्यो</w>": 5591,
      "सल्लाहकार</w>": 5592,
      "हजारभन्दा</w>": 5593,
      "जै": 5594,
      "छाडेर</w>": 5595,
      "दिनअघि</w>": 5596,
      "ट्वी": 5597,
      "टिले": 5598,
      "ढुंगा</w>": 5599,
      "महामारीका</w>": 5600,
      "खतिवडाले</w>": 5601,
      "न्तै</w>": 5602,
      "बिदा</w>": 5603,
      "कार्यविधि</w>": 5604,
      "अनौ": 5605,
      "सिक्": 5606,
      "पोजे": 5607,
      "उपत्यका</w>": 5608,
      "छिट्टै</w>": 5609,
      "शुरू</w>": 5610,
      "प्रहरी": 5611,
      "आं": 5612,
      "लम्बन</w>": 5613,
      "मङ्गल": 5614,
      "दिन्छ</w>": 5615,
      "वित्त</w>": 5616,
      "लगायतले</w>": 5617,
      "समाजवाद": 5618,
      "उपाय</w>": 5619,
      "कसैको</w>": 5620,
      "प्रशं": 5621,
      "ट्रिक</w>": 5622,
      "राखे</w>": 5623,
      "कानूनी</w>": 5624,
      "संकट</w>": 5625,
      "चामा</w>": 5626,
      "गोल्": 5627,
      "एकद": 5628,
      "ल्याइ": 5629,
      "चाहेको</w>": 5630,
      "यौन</w>": 5631,
      "टीको</w>": 5632,
      "पुरुषको</w>": 5633,
      "कहिले": 5634,
      "समेटि": 5635,
      "टाढा</w>": 5636,
      "विद्यादेवी</w>": 5637,
      "भैरह": 5638,
      "२०१९</w>": 5639,
      "वातावरण": 5640,
      "सल्लाह</w>": 5641,
      "पक": 5642,
      "जनाउँदै</w>": 5643,
      "लाभा": 5644,
      "हरि</w>": 5645,
      "लाभ</w>": 5646,
      "ग्लो": 5647,
      "बसे": 5648,
      "उता</w>": 5649,
      "शिवि": 5650,
      "तारि": 5651,
      "महत्व</w>": 5652,
      "भट्टराई": 5653,
      "सिमा": 5654,
      "रिया": 5655,
      "क्षी</w>": 5656,
      "भूति</w>": 5657,
      "नक्कली</w>": 5658,
      "लिइएको</w>": 5659,
      "अस्वीकार</w>": 5660,
      "कास्": 5661,
      "हिमाली</w>": 5662,
      "हुनसक्छ</w>": 5663,
      "विस्त": 5664,
      "मधेस</w>": 5665,
      "प्रधानमन्त्री": 5666,
      "हीमा</w>": 5667,
      "धम्": 5668,
      "भोट</w>": 5669,
      "तपाईं</w>": 5670,
      "परिसूचक</w>": 5671,
      "हृ": 5672,
      "जीवनमा</w>": 5673,
      "इन्द्र": 5674,
      "समयसम्म</w>": 5675,
      "नसके": 5676,
      "सिर": 5677,
      "यतिबेला</w>": 5678,
      "खेलाडीले</w>": 5679,
      "राखी</w>": 5680,
      "सकीय</w>": 5681,
      "विहीन</w>": 5682,
      "सर्वे": 5683,
      "विज्ञ</w>": 5684,
      "तजा": 5685,
      "विस्फो": 5686,
      "गाउँका</w>": 5687,
      "खु</w>": 5688,
      "सञ्जालमा</w>": 5689,
      "तीका</w>": 5690,
      "नाथ": 5691,
      "ट्स</w>": 5692,
      "वैकल्पिक</w>": 5693,
      "देख्न</w>": 5694,
      "स्वदेश": 5695,
      "प्रश": 5696,
      "सम्पादन</w>": 5697,
      "ङ्क": 5698,
      "लान्</w>": 5699,
      "ौला</w>": 5700,
      "पीडा</w>": 5701,
      "सञ्जाल</w>": 5702,
      "डल": 5703,
      "रूप": 5704,
      "भरी</w>": 5705,
      "महँ": 5706,
      "सहर</w>": 5707,
      "जनले</w>": 5708,
      "ल्याण्ड</w>": 5709,
      "निगमले</w>": 5710,
      "हङक": 5711,
      "अधिवक्ता</w>": 5712,
      "संगीत</w>": 5713,
      "मीका</w>": 5714,
      "पामा</w>": 5715,
      "क्रान्ति": 5716,
      "तल्लो</w>": 5717,
      "जनता": 5718,
      "नरेन्द्र</w>": 5719,
      "गीतमा</w>": 5720,
      "प्रदीप</w>": 5721,
      "कविता</w>": 5722,
      "२०७८</w>": 5723,
      "सम्पर्कमा</w>": 5724,
      "छोटो</w>": 5725,
      "हिमाल</w>": 5726,
      "विरोधी</w>": 5727,
      "मैत्री</w>": 5728,
      "परेपछि</w>": 5729,
      "प्राय": 5730,
      "आक्रो": 5731,
      "बन्धक</w>": 5732,
      "चक्र": 5733,
      "हरुबाट</w>": 5734,
      "पावर</w>": 5735,
      "पत्रि": 5736,
      "जामा</w>": 5737,
      "भेन्टिले": 5738,
      "सिस</w>": 5739,
      "टि</w>": 5740,
      "समायोजन</w>": 5741,
      "काला": 5742,
      "नामक</w>": 5743,
      "दशक": 5744,
      "ञ्चल</w>": 5745,
      "घिमिरेले</w>": 5746,
      "रणनीति</w>": 5747,
      "विद्</w>": 5748,
      "हिउँ": 5749,
      "विक्री</w>": 5750,
      "पढ्न</w>": 5751,
      "लिज</w>": 5752,
      "बहादु": 5753,
      "ठु": 5754,
      "किएका</w>": 5755,
      "एकाे</w>": 5756,
      "कल्पना</w>": 5757,
      "अनलाइन": 5758,
      "भनिन्छ</w>": 5759,
      "साउदी</w>": 5760,
      "शारी": 5761,
      "जलाई</w>": 5762,
      "क्रान्": 5763,
      "पोजेटिभ</w>": 5764,
      "नक</w>": 5765,
      "युए": 5766,
      "लीबाट</w>": 5767,
      "एसियाली</w>": 5768,
      "मेला</w>": 5769,
      "तित</w>": 5770,
      "काबाट</w>": 5771,
      "अनुसारको</w>": 5772,
      "धन्य": 5773,
      "पराजु": 5774,
      "विभागको</w>": 5775,
      "अभिव्यक्ति</w>": 5776,
      "चामल</w>": 5777,
      "भक्त</w>": 5778,
      "हौं</w>": 5779,
      "चाड": 5780,
      "नुपरेको</w>": 5781,
      "बारी</w>": 5782,
      "दिइन्</w>": 5783,
      "समृद्ध</w>": 5784,
      "सङ्घीय</w>": 5785,
      "बुटव": 5786,
      "क्रमशः</w>": 5787,
      "शौ": 5788,
      "रेश</w>": 5789,
      "साथमा</w>": 5790,
      "ग्रस्त</w>": 5791,
      "गणेश</w>": 5792,
      "उपमहानगरपालिका</w>": 5793,
      "साका</w>": 5794,
      "नरत</w>": 5795,
      "संवेदन": 5796,
      "सामान्य": 5797,
      "हाराहा": 5798,
      "रामबहादुर</w>": 5799,
      "गै</w>": 5800,
      "जुटा": 5801,
      "पारेका</w>": 5802,
      "विप्लव</w>": 5803,
      "तर्फको</w>": 5804,
      "थाल्": 5805,
      "शरीरमा</w>": 5806,
      "छा</w>": 5807,
      "केश": 5808,
      "काजी</w>": 5809,
      "बिजुली</w>": 5810,
      "२०७३</w>": 5811,
      "थियौं</w>": 5812,
      "चम्": 5813,
      "न्यास</w>": 5814,
      "आयोगमा</w>": 5815,
      "सम्झौता": 5816,
      "सुरुवात</w>": 5817,
      "बजेटमा</w>": 5818,
      "मेगावाट</w>": 5819,
      "खाने": 5820,
      "बोर्ड</w>": 5821,
      "दश</w>": 5822,
      "भित्रका</w>": 5823,
      "लिगमा</w>": 5824,
      "एक्ल": 5825,
      "आइरहेको</w>": 5826,
      "२००</w>": 5827,
      "गाय": 5828,
      "दैनिकमा</w>": 5829,
      "राना</w>": 5830,
      "खडा</w>": 5831,
      "नभएकाले</w>": 5832,
      "दामा</w>": 5833,
      "सेव": 5834,
      "खराब</w>": 5835,
      "यसो</w>": 5836,
      "रामे": 5837,
      "आएकी</w>": 5838,
      "रक</w>": 5839,
      "शास्त्र": 5840,
      "दाङ</w>": 5841,
      "भाँ": 5842,
      "लोकतन्त्र</w>": 5843,
      "वे</w>": 5844,
      "चिसो</w>": 5845,
      "काँग्रेस</w>": 5846,
      "हिंसा</w>": 5847,
      "वती</w>": 5848,
      "सङ्घ</w>": 5849,
      "प्रा</w>": 5850,
      "कोठामा</w>": 5851,
      "गराइएको</w>": 5852,
      "स्तरको</w>": 5853,
      "प्रयो": 5854,
      "२०१८</w>": 5855,
      "कु</w>": 5856,
      "स्याङ्": 5857,
      "दृष्टिको": 5858,
      "सत्य</w>": 5859,
      "र्य</w>": 5860,
      "जोशीले</w>": 5861,
      "पूरै</w>": 5862,
      "बसाइ": 5863,
      "योसँगै</w>": 5864,
      "बीबी": 5865,
      "कैलाली</w>": 5866,
      "सम्व": 5867,
      "धुरा</w>": 5868,
      "फ्र": 5869,
      "आरोह": 5870,
      "विना</w>": 5871,
      "लेखेको</w>": 5872,
      "परराष्ट्र": 5873,
      "कोशी</w>": 5874,
      "निर्भर</w>": 5875,
      "लियो</w>": 5876,
      "आवासीय</w>": 5877,
      "उपाध्या": 5878,
      "एकताको</w>": 5879,
      "क्ला": 5880,
      "शाहले</w>": 5881,
      "निरीक्ष": 5882,
      "विश्वविद्यालय</w>": 5883,
      "सुरक्षाकर्म": 5884,
      "अभियोग": 5885,
      "नमू": 5886,
      "बस्नेत</w>": 5887,
      "क्षमताको</w>": 5888,
      "यति": 5889,
      "प्रको": 5890,
      "सुनिश्चित</w>": 5891,
      "नभएपछि</w>": 5892,
      "योजनाको</w>": 5893,
      "रही</w>": 5894,
      "श्रेष्ठको</w>": 5895,
      "वामा</w>": 5896,
      "विकसित</w>": 5897,
      "रसि": 5898,
      "घरबाट</w>": 5899,
      "प्रष्ट</w>": 5900,
      "मुलुकका</w>": 5901,
      "शारीरिक</w>": 5902,
      "घिमिरे</w>": 5903,
      "उदाहरण</w>": 5904,
      "न्यूनी": 5905,
      "सङ्क्रमि": 5906,
      "संलग्": 5907,
      "गायक</w>": 5908,
      "वार्तामा</w>": 5909,
      "डोल्": 5910,
      "चरण</w>": 5911,
      "नागरिकले</w>": 5912,
      "फोहोर</w>": 5913,
      "चीनमा</w>": 5914,
      "गणतन्त्र</w>": 5915,
      "दिनभित्र</w>": 5916,
      "पर्दैन</w>": 5917,
      "डीमा</w>": 5918,
      "आयु": 5919,
      "इञ्": 5920,
      "मुद": 5921,
      "प्टे": 5922,
      "लयमा</w>": 5923,
      "गार्": 5924,
      "महाधिवेशनमा</w>": 5925,
      "मनमा</w>": 5926,
      "म्वा": 5927,
      "किर</w>": 5928,
      "विस्तृत</w>": 5929,
      "टिक</w>": 5930,
      "एजे": 5931,
      "औषध</w>": 5932,
      "गोपाल</w>": 5933,
      "लभ</w>": 5934,
      "कमिटीको</w>": 5935,
      "नपाएको</w>": 5936,
      "देखिए</w>": 5937,
      "बुझाएको</w>": 5938,
      "सहयोगी</w>": 5939,
      "बित्तिकै</w>": 5940,
      "च्छा</w>": 5941,
      "ध्व": 5942,
      "दिनुपर्छ</w>": 5943,
      "त्यति": 5944,
      "बालुवाटारमा</w>": 5945,
      "ड्या": 5946,
      "विश्वव्यापी</w>": 5947,
      "कित</w>": 5948,
      "रेकर्ड</w>": 5949,
      "नहरु</w>": 5950,
      "जनजा": 5951,
      "जनकपुर": 5952,
      "प्रतिष्ठान</w>": 5953,
      "उपाध्यक्ष": 5954,
      "प्रजातन्त्र</w>": 5955,
      "क्सन</w>": 5956,
      "नमुना</w>": 5957,
      "धै</w>": 5958,
      "परिषद्</w>": 5959,
      "लैजान</w>": 5960,
      "विष्णु": 5961,
      "परम्प": 5962,
      "विद्यार्थीको</w>": 5963,
      "पानी": 5964,
      "मबहादुर</w>": 5965,
      "मार्गमा</w>": 5966,
      "निर्णा": 5967,
      "सिए": 5968,
      "पद्ध": 5969,
      "मध्य</w>": 5970,
      "जनकपुर</w>": 5971,
      "लेखिएको</w>": 5972,
      "अथवा</w>": 5973,
      "ँले</w>": 5974,
      "परम्परागत</w>": 5975,
      "सुरक्षाका</w>": 5976,
      "पोखरामा</w>": 5977,
      "आन्दोलनको</w>": 5978,
      "संक्रमित": 5979,
      "प्रबन्ध</w>": 5980,
      "प्रमाणित</w>": 5981,
      "डडेल्": 5982,
      "तीमध्ये</w>": 5983,
      "जला": 5984,
      "जिम्मेवा": 5985,
      "जातीय</w>": 5986,
      "त्यहाँको</w>": 5987,
      "परम्परा</w>": 5988,
      "भट्टले</w>": 5989,
      "हेटौं": 5990,
      "मोरङ</w>": 5991,
      "धानका</w>": 5992,
      "हिस्": 5993,
      "जत</w>": 5994,
      "गहि": 5995,
      "गए": 5996,
      "क्स": 5997,
      "भन्यो</w>": 5998,
      "पाएपछि</w>": 5999,
      "बाढीले</w>": 6000,
      "स्मृ": 6001,
      "घाटा</w>": 6002,
      "प्रवर्": 6003,
      "सुदूरपश्चि": 6004,
      "रोल्": 6005,
      "निकायले</w>": 6006,
      "दुःख": 6007,
      "याे</w>": 6008,
      "प्रक्रिया": 6009,
      "गोरखा</w>": 6010,
      "गुमाएका</w>": 6011,
      "संविधानमा</w>": 6012,
      "खटिएका</w>": 6013,
      "स्वास्थ्यमा</w>": 6014,
      "कटौ": 6015,
      "मङ्": 6016,
      "मनोन": 6017,
      "लियम</w>": 6018,
      "रमा": 6019,
      "जोगाउन</w>": 6020,
      "हतियार</w>": 6021,
      "उसलाई</w>": 6022,
      "बसोबास</w>": 6023,
      "कालमा</w>": 6024,
      "शेर</w>": 6025,
      "वाला</w>": 6026,
      "हेल्": 6027,
      "सेवाको</w>": 6028,
      "उड्ड": 6029,
      "बदली</w>": 6030,
      "ज्येष्": 6031,
      "हराएको</w>": 6032,
      "ज्यो": 6033,
      "पिसि": 6034,
      "महानिर्देशक</w>": 6035,
      "ओलम्": 6036,
      "अनुरुप</w>": 6037,
      "बैठकको</w>": 6038,
      "गल्ती</w>": 6039,
      "उपप्रमुख</w>": 6040,
      "ल्यान्ड</w>": 6041,
      "ढोका</w>": 6042,
      "नियमावली</w>": 6043,
      "अन्नपूर्ण</w>": 6044,
      "खण्ड</w>": 6045,
      "ैमा</w>": 6046,
      "सम्प": 6047,
      "सन्तोष</w>": 6048,
      "निमि": 6049,
      "दार्चु": 6050,
      "ट्यु": 6051,
      "किल</w>": 6052,
      "आंशि": 6053,
      "प्प</w>": 6054,
      "थाल्यो</w>": 6055,
      "बिस्ता": 6056,
      "सुरक्षाको</w>": 6057,
      "अधिक": 6058,
      "बेल्": 6059,
      "विशाल</w>": 6060,
      "पुगेपछि</w>": 6061,
      "आशंका</w>": 6062,
      "चाहना</w>": 6063,
      "दुख": 6064,
      "अन्तरिम</w>": 6065,
      "मञ्": 6066,
      "दूध</w>": 6067,
      "मन्त्रिपरिषद्को</w>": 6068,
      "राजनीति": 6069,
      "सिजन</w>": 6070,
      "श्वर": 6071,
      "तामाङले</w>": 6072,
      "रोपनी</w>": 6073,
      "टेल</w>": 6074,
      "धनकु": 6075,
      "आपत्ति</w>": 6076,
      "अड्": 6077,
      "रेल": 6078,
      "समस्याको</w>": 6079,
      "शैली</w>": 6080,
      "जिते": 6081,
      "जटिल</w>": 6082,
      "श्रीमा": 6083,
      "समीक्षा</w>": 6084,
      "भावी</w>": 6085,
      "ंगो</w>": 6086,
      "दाको</w>": 6087,
      "भन्नेमा</w>": 6088,
      "ससँग</w>": 6089,
      "द्र</w>": 6090,
      "संयोजकत्वमा</w>": 6091,
      "औषधि": 6092,
      "जिकिर</w>": 6093,
      "मौलिक</w>": 6094,
      "सेन्टर</w>": 6095,
      "कुखु": 6096,
      "प्रवेश": 6097,
      "फोरम</w>": 6098,
      "भीम</w>": 6099,
      "चौकी</w>": 6100,
      "डुबा": 6101,
      "धनी</w>": 6102,
      "लाई": 6103,
      "बन्दा": 6104,
      "न्दु</w>": 6105,
      "मानित</w>": 6106,
      "चारको</w>": 6107,
      "विश्वकर्": 6108,
      "सालले</w>": 6109,
      "सांसदले</w>": 6110,
      "बलको</w>": 6111,
      "ढिलाइ</w>": 6112,
      "क्यान्सर</w>": 6113,
      "भुटा": 6114,
      "झे": 6115,
      "अनियमित": 6116,
      "समाप्त</w>": 6117,
      "औं": 6118,
      "चर्को</w>": 6119,
      "धन्यवाद</w>": 6120,
      "आइसोलेसन</w>": 6121,
      "पञ्चा": 6122,
      "बापत</w>": 6123,
      "परीक्षणमा</w>": 6124,
      "शमा</w>": 6125,
      "सापकोटाले</w>": 6126,
      "नेलाई</w>": 6127,
      "असन्तुष्टि</w>": 6128,
      "क्यु": 6129,
      "प्रतिको</w>": 6130,
      "पुँजी": 6131,
      "सतर्": 6132,
      "खटा": 6133,
      "बैशा": 6134,
      "चाँडै</w>": 6135,
      "नारा</w>": 6136,
      "कुराको</w>": 6137,
      "वाम</w>": 6138,
      "कर्त": 6139,
      "स्वस्थ</w>": 6140,
      "प्रविधिको</w>": 6141,
      "उपेन्द्र</w>": 6142,
      "खाता</w>": 6143,
      "संघर्ष": 6144,
      "भेट्न</w>": 6145,
      "नक्सा</w>": 6146,
      "एफ</w>": 6147,
      "टीले</w>": 6148,
      "रहेछन्</w>": 6149,
      "इको</w>": 6150,
      "खेलेका</w>": 6151,
      "रमाइ": 6152,
      "आश्र": 6153,
      "बू": 6154,
      "हिँड्": 6155,
      "म्यु": 6156,
      "खेलाडीको</w>": 6157,
      "यता": 6158,
      "आत्महत्या</w>": 6159,
      "जुङ</w>": 6160,
      "थापाको</w>": 6161,
      "महाकाली</w>": 6162,
      "रहि": 6163,
      "व्यहो": 6164,
      "टरले</w>": 6165,
      "थी</w>": 6166,
      "मासु</w>": 6167,
      "ङ्गो</w>": 6168,
      "डिसे": 6169,
      "व्": 6170,
      "मनाउने</w>": 6171,
      "यन्स</w>": 6172,
      "नदि": 6173,
      "ह्न</w>": 6174,
      "तस्वी": 6175,
      "कार्यक्रमलाई</w>": 6176,
      "मालाई</w>": 6177,
      "टोलीको</w>": 6178,
      "सरकारबाट</w>": 6179,
      "साझेदारी</w>": 6180,
      "काउने</w>": 6181,
      "वेला</w>": 6182,
      "थर</w>": 6183,
      "अरू": 6184,
      "ताल": 6185,
      "तेको</w>": 6186,
      "समस्यामा</w>": 6187,
      "डिजिटल</w>": 6188,
      "महत्त्वपूर्ण</w>": 6189,
      "विद्यालयको</w>": 6190,
      "प्रवृत्ति</w>": 6191,
      "सूची": 6192,
      "चोकमा</w>": 6193,
      "इन्टरनेट</w>": 6194,
      "रणको</w>": 6195,
      "कुटपि": 6196,
      "शक्तिको</w>": 6197,
      "सुदृ": 6198,
      "ढुवानी</w>": 6199,
      "द्वय</w>": 6200,
      "खबर": 6201,
      "जोड": 6202,
      "बनाउँदै</w>": 6203,
      "हुलि": 6204,
      "बिरामीलाई</w>": 6205,
      "प्राधिकरणका</w>": 6206,
      "निजा": 6207,
      "संस्थाका</w>": 6208,
      "निर्देशना": 6209,
      "राप्रपा</w>": 6210,
      "प्रमाणपत्र</w>": 6211,
      "पर्दा</w>": 6212,
      "जसका</w>": 6213,
      "हुम्": 6214,
      "कारमा</w>": 6215,
      "टोलीका</w>": 6216,
      "आमाको</w>": 6217,
      "अब्": 6218,
      "गम</w>": 6219,
      "इच्": 6220,
      "मानी</w>": 6221,
      "कूटनीतिक</w>": 6222,
      "मण</w>": 6223,
      "साव": 6224,
      "खेलबाट</w>": 6225,
      "वास्तविक</w>": 6226,
      "धको</w>": 6227,
      "शङ्": 6228,
      "लाग्दा</w>": 6229,
      "धेर": 6230,
      "ज्येष्ठ</w>": 6231,
      "रेश": 6232,
      "जानु</w>": 6233,
      "विश्वभर</w>": 6234,
      "नेप्से</w>": 6235,
      "भग</w>": 6236,
      "किशोर</w>": 6237,
      "लिगको</w>": 6238,
      "पशुपति</w>": 6239,
      "पतिमा</w>": 6240,
      "वर्षाको</w>": 6241,
      "खुकु": 6242,
      "निस</w>": 6243,
      "साथी</w>": 6244,
      "त्यसै</w>": 6245,
      "ऋष": 6246,
      "उस्तै</w>": 6247,
      "बोर्डले</w>": 6248,
      "मूल": 6249,
      "पञ्च": 6250,
      "रोगको</w>": 6251,
      "स्वास्थ्यकर्मी</w>": 6252,
      "दर्जन</w>": 6253,
      "अध्यक्षमा</w>": 6254,
      "रगत</w>": 6255,
      "बैंकिङ</w>": 6256,
      "हप्ता": 6257,
      "सुब्": 6258,
      "माघ": 6259,
      "लगभग</w>": 6260,
      "बाली</w>": 6261,
      "ब्याज": 6262,
      "पुनले</w>": 6263,
      "अभिने": 6264,
      "ब्रु": 6265,
      "गणेश": 6266,
      "कामलाई</w>": 6267,
      "नेपालीले</w>": 6268,
      "नेपालबाट</w>": 6269,
      "विश्वक": 6270,
      "राँ": 6271,
      "रोनाल्": 6272,
      "अर्यालले</w>": 6273,
      "रूपै": 6274,
      "सुन्": 6275,
      "चको</w>": 6276,
      "जम": 6277,
      "यरको</w>": 6278,
      "स्वामि": 6279,
      "देखेर</w>": 6280,
      "कप्": 6281,
      "आजै</w>": 6282,
      "जुनसुकै</w>": 6283,
      "पालन</w>": 6284,
      "निर्वाचनका</w>": 6285,
      "दैछन्</w>": 6286,
      "गोर्": 6287,
      "उनै</w>": 6288,
      "पूर्वाधा": 6289,
      "वालले</w>": 6290,
      "वरी</w>": 6291,
      "अन्यो": 6292,
      "सिङ</w>": 6293,
      "निष्का": 6294,
      "बिमा</w>": 6295,
      "बजार": 6296,
      "मतको</w>": 6297,
      "श्व</w>": 6298,
      "प्रकट</w>": 6299,
      "विश्वमा</w>": 6300,
      "सुनसर": 6301,
      "अह": 6302,
      "आबद्ध</w>": 6303,
      "जीले</w>": 6304,
      "सनल</w>": 6305,
      "सङ्ख्या": 6306,
      "महतो": 6307,
      "सम्मत</w>": 6308,
      "नयाँ": 6309,
      "जापान</w>": 6310,
      "परेर</w>": 6311,
      "झनै</w>": 6312,
      "कं": 6313,
      "स्तरो": 6314,
      "गिरी</w>": 6315,
      "आकर्षक</w>": 6316,
      "कीमा</w>": 6317,
      "आयोजनाले</w>": 6318,
      "र्ण</w>": 6319,
      "पुग्छ</w>": 6320,
      "गुणस्तर</w>": 6321,
      "बाल</w>": 6322,
      "लिभर": 6323,
      "दाजु": 6324,
      "गीतको</w>": 6325,
      "शेयर": 6326,
      "पर्नेमा</w>": 6327,
      "शक्तिशाली</w>": 6328,
      "हरी</w>": 6329,
      "बैठक": 6330,
      "टोलीमा</w>": 6331,
      "मामा</w>": 6332,
      "भन्छिन्</w>": 6333,
      "हेरि": 6334,
      "गर्छौं</w>": 6335,
      "वार": 6336,
      "न्छौं</w>": 6337,
      "डाय": 6338,
      "कौ": 6339,
      "ैँ": 6340,
      "नेताहरू</w>": 6341,
      "रालाई</w>": 6342,
      "प्रणालीमा</w>": 6343,
      "सहुलि": 6344,
      "माओवादीले</w>": 6345,
      "मोटरसाइक": 6346,
      "घन": 6347,
      "त्यहाँका</w>": 6348,
      "वर्षभित्र</w>": 6349,
      "कमजोरी</w>": 6350,
      "ेश</w>": 6351,
      "कार्यकर्ता": 6352,
      "भेटिएका</w>": 6353,
      "मित्र": 6354,
      "पक्षलाई</w>": 6355,
      "पाटन</w>": 6356,
      "मोहम्म": 6357,
      "मर्या": 6358,
      "गुणस्तरीय</w>": 6359,
      "दाता</w>": 6360,
      "थि</w>": 6361,
      "वस्तुको</w>": 6362,
      "सूर्य</w>": 6363,
      "नकारात्मक</w>": 6364,
      "सुत्के": 6365,
      "प्रोत्साहन</w>": 6366,
      "जितेका</w>": 6367,
      "अष्ट्रेलि": 6368,
      "हजु": 6369,
      "बनाई</w>": 6370,
      "रहनु</w>": 6371,
      "फार्": 6372,
      "विनोद</w>": 6373,
      "उनकै</w>": 6374,
      "विरोधमा</w>": 6375,
      "खोल्न</w>": 6376,
      "महिनादेखि</w>": 6377,
      "यत्": 6378,
      "मुक्ति</w>": 6379,
      "लोकतन्त्र": 6380,
      "सूची</w>": 6381,
      "बने</w>": 6382,
      "पेट्रोलियम</w>": 6383,
      "गठित</w>": 6384,
      "समयको</w>": 6385,
      "पश्चिमी</w>": 6386,
      "बढेपछि</w>": 6387,
      "कोषमा</w>": 6388,
      "सैन्य</w>": 6389,
      "अर्थतन्त्र</w>": 6390,
      "लिई</w>": 6391,
      "पाठ्य": 6392,
      "खोज्ने</w>": 6393,
      "एन्ड</w>": 6394,
      "कृष्णप्रसाद</w>": 6395,
      "अभावमा</w>": 6396,
      "निया</w>": 6397,
      "नेपालीलाई</w>": 6398,
      "सुवेदीले</w>": 6399,
      "पेन्": 6400,
      "मन्दिरमा</w>": 6401,
      "थपे</w>": 6402,
      "मदन</w>": 6403,
      "रिलिज</w>": 6404,
      "अधिकारीको</w>": 6405,
      "लेखक</w>": 6406,
      "समृद्धि</w>": 6407,
      "तीनै</w>": 6408,
      "नजर</w>": 6409,
      "खसेको</w>": 6410,
      "गराउँदै</w>": 6411,
      "मिलाउन</w>": 6412,
      "औस": 6413,
      "मेसिन</w>": 6414,
      "विद्यार्थीले</w>": 6415,
      "चाहिने</w>": 6416,
      "सच्या": 6417,
      "जिङ</w>": 6418,
      "सदस्यमा</w>": 6419,
      "भाइरसका</w>": 6420,
      "बिल</w>": 6421,
      "किसानलाई</w>": 6422,
      "नेगे": 6423,
      "खटिएको</w>": 6424,
      "वैशाखमा</w>": 6425,
      "दर्जन": 6426,
      "कुकु": 6427,
      "गरी": 6428,
      "टीका": 6429,
      "मसँग</w>": 6430,
      "अलि": 6431,
      "कुरालाई</w>": 6432,
      "२०१७</w>": 6433,
      "निर्माणा": 6434,
      "बुधवार</w>": 6435,
      "राम्रो": 6436,
      "फिल्मको</w>": 6437,
      "नेट": 6438,
      "नदिएको</w>": 6439,
      "मिले": 6440,
      "काठमाडौंका</w>": 6441,
      "ब्याज</w>": 6442,
      "अन्तर्गतको</w>": 6443,
      "ार्थ": 6444,
      "कार्यक्रमका</w>": 6445,
      "द्द</w>": 6446,
      "च्याम्पियन": 6447,
      "चौका</w>": 6448,
      "बालबालिकालाई</w>": 6449,
      "शरण</w>": 6450,
      "विदेशबाट</w>": 6451,
      "दिक</w>": 6452,
      "स्रोतका</w>": 6453,
      "सन्त</w>": 6454,
      "डभा": 6455,
      "मल्ल</w>": 6456,
      "आइसि": 6457,
      "धेरैले</w>": 6458,
      "मुस्ता": 6459,
      "खालका</w>": 6460,
      "प्राधिकरण</w>": 6461,
      "उमेरमा</w>": 6462,
      "निवेद": 6463,
      "हाफमा</w>": 6464,
      "बजेटको</w>": 6465,
      "नेम्वा": 6466,
      "जनप्रतिनिधि</w>": 6467,
      "राष्ट्रपतिले</w>": 6468,
      "नकै</w>": 6469,
      "वन्य": 6470,
      "डिएको</w>": 6471,
      "ठप्प</w>": 6472,
      "पारी</w>": 6473,
      "हस्तक्षेप</w>": 6474,
      "पिसिआर</w>": 6475,
      "अवलोकन</w>": 6476,
      "अत्यन्त</w>": 6477,
      "सचिव": 6478,
      "प्रशासकीय</w>": 6479,
      "विशि": 6480,
      "अध्यक्षतामा</w>": 6481,
      "आय": 6482,
      "सहायता</w>": 6483,
      "भ्य": 6484,
      "तट": 6485,
      "दोषी</w>": 6486,
      "सङ्घका</w>": 6487,
      "तथ्याङ्क</w>": 6488,
      "मिडिया</w>": 6489,
      "निर्णायक</w>": 6490,
      "खाले</w>": 6491,
      "नस</w>": 6492,
      "यरमा</w>": 6493,
      "ज्वरो</w>": 6494,
      "जीकरण</w>": 6495,
      "हेलिकप्": 6496,
      "वाले</w>": 6497,
      "आईसी": 6498,
      "विस्थापित</w>": 6499,
      "उत्तिकै</w>": 6500,
      "तालिबा": 6501,
      "वास": 6502,
      "दिनपछि</w>": 6503,
      "जित्ने</w>": 6504,
      "एनसे": 6505,
      "क्षम</w>": 6506,
      "आयोज": 6507,
      "नियुक्ति": 6508,
      "त्यसरी</w>": 6509,
      "टाँ": 6510,
      "भाषामा</w>": 6511,
      "उनकी</w>": 6512,
      "वान्": 6513,
      "आव</w>": 6514,
      "निवासी</w>": 6515,
      "दोहोरो</w>": 6516,
      "जसलाई</w>": 6517,
      "सम्पाद": 6518,
      "रहित</w>": 6519,
      "जग्गाको</w>": 6520,
      "एकपटक</w>": 6521,
      "आफैँ</w>": 6522,
      "अस्ट्रेलि": 6523,
      "सहमति": 6524,
      "माल</w>": 6525,
      "बिष": 6526,
      "सम्भावित</w>": 6527,
      "एसो": 6528,
      "बेइ": 6529,
      "डोज</w>": 6530,
      "नमूना</w>": 6531,
      "पेनाल्": 6532,
      "ताप्ले": 6533,
      "स्पष्ट": 6534,
      "खेलाडीलाई</w>": 6535,
      "वन्यजन्त": 6536,
      "पर्सा</w>": 6537,
      "दिनेश</w>": 6538,
      "देखिन</w>": 6539,
      "सहसचिव</w>": 6540,
      "प्राप्": 6541,
      "सधैं</w>": 6542,
      "बाँके</w>": 6543,
      "रिस</w>": 6544,
      "सल्या": 6545,
      "नेताको</w>": 6546,
      "लौ": 6547,
      "लागु</w>": 6548,
      "खन": 6549,
      "थपिएको</w>": 6550,
      "केजी</w>": 6551,
      "सिँचाइ</w>": 6552,
      "पाकिस्तान</w>": 6553,
      "टार</w>": 6554,
      "स्थानको</w>": 6555,
      "योस्</w>": 6556,
      "जनस्वास्थ्य</w>": 6557,
      "लकडाउनको</w>": 6558,
      "तुलसी": 6559,
      "मानिसलाई</w>": 6560,
      "शोक</w>": 6561,
      "गरौं</w>": 6562,
      "निमित्त</w>": 6563,
      "जाजर": 6564,
      "सक्नेछन्</w>": 6565,
      "ण्डर</w>": 6566,
      "आसपा": 6567,
      "राय</w>": 6568,
      "डिस्चार्ज</w>": 6569,
      "गराइ": 6570,
      "मुस्लि": 6571,
      "प्रती": 6572,
      "पार्टीभित्र</w>": 6573,
      "नेगेटिभ</w>": 6574,
      "क्य</w>": 6575,
      "व्र": 6576,
      "परिस्थि": 6577,
      "रक्षा": 6578,
      "भइ</w>": 6579,
      "बोल्न</w>": 6580,
      "आवको</w>": 6581,
      "थाइ": 6582,
      "प्रस्ताव": 6583,
      "नेवि": 6584,
      "रावलले</w>": 6585,
      "देउवालाई</w>": 6586,
      "शल्य": 6587,
      "कालोपत्र": 6588,
      "बढु": 6589,
      "प्रतिनिधिसभाको</w>": 6590,
      "तपाईंको</w>": 6591,
      "बताएकी</w>": 6592,
      "शाक्यले</w>": 6593,
      "कँ": 6594,
      "प्रालि": 6595,
      "१२": 6596,
      "झड": 6597,
      "त्रु": 6598,
      "केसीको</w>": 6599,
      "डलाई</w>": 6600,
      "जोशी</w>": 6601,
      "ल्याए</w>": 6602,
      "महासंघका</w>": 6603,
      "खोल्ने</w>": 6604,
      "आकर्षित</w>": 6605,
      "नीतिगत</w>": 6606,
      "लोमा</w>": 6607,
      "माई</w>": 6608,
      "नमिल्ने</w>": 6609,
      "वरले</w>": 6610,
      "कम्पनीलाई</w>": 6611,
      "पर्दछ</w>": 6612,
      "श्रे": 6613,
      "दायी</w>": 6614,
      "्यौं</w>": 6615,
      "तापक्रम</w>": 6616,
      "अङ्": 6617,
      "भई": 6618,
      "स्तरोन्न": 6619,
      "फाइना": 6620,
      "अधिकतम</w>": 6621,
      "परिण": 6622,
      "मानिसले</w>": 6623,
      "भन्नु</w>": 6624,
      "हुर्": 6625,
      "जोड्": 6626,
      "आवास</w>": 6627,
      "समुदाय</w>": 6628,
      "नोट</w>": 6629,
      "सृ": 6630,
      "ट्रया": 6631,
      "संस्थामा</w>": 6632,
      "भु</w>": 6633,
      "व्यवस्थापनमा</w>": 6634,
      "सिद्धान्त</w>": 6635,
      "भवनमा</w>": 6636,
      "परिया": 6637,
      "विषा": 6638,
      "दोल": 6639,
      "किरण</w>": 6640,
      "प्रायः</w>": 6641,
      "छैन्</w>": 6642,
      "बढाइएको</w>": 6643,
      "मेह": 6644,
      "झाले</w>": 6645,
      "दरमा</w>": 6646,
      "परीक्षणको</w>": 6647,
      "गन्तव्य": 6648,
      "नमै</w>": 6649,
      "बजारको</w>": 6650,
      "कहरुले</w>": 6651,
      "सिंगा": 6652,
      "प्रत्यारो": 6653,
      "एसिया</w>": 6654,
      "इस्": 6655,
      "दिगो</w>": 6656,
      "नदीको</w>": 6657,
      "जन्म</w>": 6658,
      "पुरानै</w>": 6659,
      "ंश</w>": 6660,
      "नेताहरूले</w>": 6661,
      "उत्पादनमा</w>": 6662,
      "विराम": 6663,
      "मदिरा</w>": 6664,
      "भाउ</w>": 6665,
      "संवाद</w>": 6666,
      "संस्कार</w>": 6667,
      "राष्ट्रपतिको</w>": 6668,
      "अपि": 6669,
      "दृश्य</w>": 6670,
      "जितेर</w>": 6671,
      "खेलि": 6672,
      "साहले</w>": 6673,
      "पोलि": 6674,
      "विष्टले</w>": 6675,
      "खिल</w>": 6676,
      "एपी": 6677,
      "ढकाल</w>": 6678,
      "आगलागी</w>": 6679,
      "फौ": 6680,
      "होटलमा</w>": 6681,
      "श्रो</w>": 6682,
      "उल्लं": 6683,
      "सल्": 6684,
      "सञ्चालनका</w>": 6685,
      "पठ": 6686,
      "समाधानका</w>": 6687,
      "सिना</w>": 6688,
      "राप्": 6689,
      "लेक्": 6690,
      "सदस्यता</w>": 6691,
      "भ्याक्सि": 6692,
      "हटाउने</w>": 6693,
      "शनल</w>": 6694,
      "मालि": 6695,
      "कमै</w>": 6696,
      "अनेक</w>": 6697,
      "पहिरोले</w>": 6698,
      "बृह": 6699,
      "टाइन</w>": 6700,
      "चलचित्रमा</w>": 6701,
      "आशा": 6702,
      "श्रा": 6703,
      "ब्ब": 6704,
      "ठाकुर</w>": 6705,
      "सचिवालयले</w>": 6706,
      "लागु": 6707,
      "संस्थापक</w>": 6708,
      "गतेको</w>": 6709,
      "झैं</w>": 6710,
      "अनुदा": 6711,
      "कोरिया</w>": 6712,
      "शिला": 6713,
      "साधनको</w>": 6714,
      "राजकुमार</w>": 6715,
      "विपद": 6716,
      "गरेमा</w>": 6717,
      "२०१६</w>": 6718,
      "सक्षम</w>": 6719,
      "महासंघ</w>": 6720,
      "बसा": 6721,
      "अडान</w>": 6722,
      "भेटघाट</w>": 6723,
      "तत्कालै</w>": 6724,
      "माग्": 6725,
      "चाहन्छु</w>": 6726,
      "जोडेर</w>": 6727,
      "टाको</w>": 6728,
      "काल</w>": 6729,
      "राष्ट्रियसभा": 6730,
      "परिमार्": 6731,
      "ब्यव": 6732,
      "भनेपछि</w>": 6733,
      "भट्ट</w>": 6734,
      "सिने": 6735,
      "पारिश्रमिक</w>": 6736,
      "लगेर</w>": 6737,
      "गर्यो</w>": 6738,
      "बिहे</w>": 6739,
      "खरीद</w>": 6740,
      "अंग्रे": 6741,
      "ट्री</w>": 6742,
      "कार्यकाल</w>": 6743,
      "फैला": 6744,
      "अधिकारीहरुले</w>": 6745,
      "टेलिकम": 6746,
      "समझदारी</w>": 6747,
      "माध्यमिक</w>": 6748,
      "आए": 6749,
      "माछा</w>": 6750,
      "ुक</w>": 6751,
      "समाचार": 6752,
      "म्बा</w>": 6753,
      "भेटमा</w>": 6754,
      "मध्यम</w>": 6755,
      "अप्ठ्या": 6756,
      "निस्कि": 6757,
      "कोठा</w>": 6758,
      "काउ": 6759,
      "डीको</w>": 6760,
      "चित्त</w>": 6761,
      "मद्दत</w>": 6762,
      "मिल्दैन</w>": 6763,
      "आयोजनाका</w>": 6764,
      "प्रदू": 6765,
      "बेर</w>": 6766,
      "इनन्</w>": 6767,
      "खोपको</w>": 6768,
      "मनाउन</w>": 6769,
      "मृतक</w>": 6770,
      "सक्रि": 6771,
      "कट्": 6772,
      "जात्रा</w>": 6773,
      "स्वाभाविक</w>": 6774,
      "प्राधिकरणको</w>": 6775,
      "शम": 6776,
      "ठेकेदा": 6777,
      "स्को": 6778,
      "कास्क": 6779,
      "खुल्ला</w>": 6780,
      "सभाले</w>": 6781,
      "सुरेन्द्र</w>": 6782,
      "किनकि</w>": 6783,
      "रोमा</w>": 6784,
      "वादको</w>": 6785,
      "पठाइ": 6786,
      "बुद्धि": 6787,
      "जानुपर्ने</w>": 6788,
      "उठाउने</w>": 6789,
      "गोदा": 6790,
      "पेन्द्र</w>": 6791,
      "समारोहमा</w>": 6792,
      "रेडियो</w>": 6793,
      "तोला</w>": 6794,
      "सक्दा</w>": 6795,
      "सोच्": 6796,
      "अभियोगमा</w>": 6797,
      "अनुगम": 6798,
      "क्कै</w>": 6799,
      "लगानीमा</w>": 6800,
      "महानगरपालिकाले</w>": 6801,
      "अंग": 6802,
      "धनगढ": 6803,
      "जसमध्ये</w>": 6804,
      "दीर्घकालीन</w>": 6805,
      "प्राध्यापक</w>": 6806,
      "स्वार्थ": 6807,
      "मोहम्मद</w>": 6808,
      "बनेर</w>": 6809,
      "पोर्ट</w>": 6810,
      "व्यापारिक</w>": 6811,
      "मिर्गौ": 6812,
      "पटकको</w>": 6813,
      "गह": 6814,
      "पारिएको</w>": 6815,
      "आकर्षण</w>": 6816,
      "समृद्धिको</w>": 6817,
      "हीले</w>": 6818,
      "नोभे": 6819,
      "जग्गामा</w>": 6820,
      "नासाथ</w>": 6821,
      "णलाई</w>": 6822,
      "विद्यालयका</w>": 6823,
      "समाजको</w>": 6824,
      "निर्माता</w>": 6825,
      "उठाउन</w>": 6826,
      "सतर्कता</w>": 6827,
      "कुवे": 6828,
      "बैशाख</w>": 6829,
      "महाशाखाका</w>": 6830,
      "आफैंले</w>": 6831,
      "उँछिन्</w>": 6832,
      "नअनुसार</w>": 6833,
      "परिस्थिति</w>": 6834,
      "भद्र": 6835,
      "दिएकी</w>": 6836,
      "लामाले</w>": 6837,
      "बझा": 6838,
      "स्थानीयको</w>": 6839,
      "राजधानीमा</w>": 6840,
      "वृद्ध": 6841,
      "बारसम्म</w>": 6842,
      "यतामा</w>": 6843,
      "रुपा": 6844,
      "नोक्सा": 6845,
      "ण्डे": 6846,
      "पण्डि": 6847,
      "रुकुम</w>": 6848,
      "बारबाट</w>": 6849,
      "अमेरिका": 6850,
      "पृथ्वी": 6851,
      "एक्लै</w>": 6852,
      "टेन्": 6853,
      "स्वतन्त्रता</w>": 6854,
      "विहान</w>": 6855,
      "अघिको</w>": 6856,
      "बाजु": 6857,
      "चेल्": 6858,
      "सुशील</w>": 6859,
      "सचिवमा</w>": 6860,
      "पलाई</w>": 6861,
      "नुका</w>": 6862,
      "सङ्क्रमितको</w>": 6863,
      "पटकपटक</w>": 6864,
      "फराकिलो</w>": 6865,
      "विपन्न</w>": 6866,
      "नत</w>": 6867,
      "घा</w>": 6868,
      "हावा": 6869,
      "व्यापार": 6870,
      "गं": 6871,
      "ल्स</w>": 6872,
      "उहाँलाई</w>": 6873,
      "स्टु": 6874,
      "अर्का": 6875,
      "पर्खा": 6876,
      "टाउको</w>": 6877,
      "गल</w>": 6878,
      "नुमान</w>": 6879,
      "कोरोनाबाट</w>": 6880,
      "ञ्चित</w>": 6881,
      "नसकेपछि</w>": 6882,
      "गर्थे</w>": 6883,
      "सुन्त": 6884,
      "अनुमो": 6885,
      "सिद्धान्त": 6886,
      "दैलेख": 6887,
      "रेड": 6888,
      "भो</w>": 6889,
      "हिजो": 6890,
      "नाटक</w>": 6891,
      "आउँदै</w>": 6892,
      "तस्बिर</w>": 6893,
      "एकदमै</w>": 6894,
      "राजश्व</w>": 6895,
      "लाग्दो</w>": 6896,
      "तनहुँ": 6897,
      "सहमत</w>": 6898,
      "लिँदै</w>": 6899,
      "मच्": 6900,
      "केवल</w>": 6901,
      "क्लबले</w>": 6902,
      "निगरानी</w>": 6903,
      "समुदायका</w>": 6904,
      "देखाउन</w>": 6905,
      "शय": 6906,
      "खेल्दै</w>": 6907,
      "व्याख्या</w>": 6908,
      "लिम्ब": 6909,
      "संसद्मा</w>": 6910,
      "निकायको</w>": 6911,
      "आवतजा": 6912,
      "थालि": 6913,
      "डिएसपी</w>": 6914,
      "कोटमा</w>": 6915,
      "उपप्रधानमन्त्री</w>": 6916,
      "अक्ष": 6917,
      "पत्नी</w>": 6918,
      "टिमले</w>": 6919,
      "राम्रा</w>": 6920,
      "कहरू</w>": 6921,
      "शिखर</w>": 6922,
      "परिणत</w>": 6923,
      "बासिन्दा": 6924,
      "मानिसहरु</w>": 6925,
      "खत</w>": 6926,
      "आकस्": 6927,
      "बराबरीमा</w>": 6928,
      "रोक्ने</w>": 6929,
      "छाया": 6930,
      "भएकै</w>": 6931,
      "देशभरका</w>": 6932,
      "वर्ग</w>": 6933,
      "है</w>": 6934,
      "अधिकारको</w>": 6935,
      "आफै</w>": 6936,
      "राम्रोसँग</w>": 6937,
      "प्रान्त": 6938,
      "तिर्न</w>": 6939,
      "लगिएको</w>": 6940,
      "बेलायत</w>": 6941,
      "विवादमा</w>": 6942,
      "मुआ": 6943,
      "चेक</w>": 6944,
      "पढाइ</w>": 6945,
      "उच्चस्तरीय</w>": 6946,
      "नुपर्नेछ</w>": 6947,
      "दरबन्दी</w>": 6948,
      "गर्भव": 6949,
      "शुक्रवार</w>": 6950,
      "भविष्यमा</w>": 6951,
      "खपत</w>": 6952,
      "खोटा": 6953,
      "बागलुङ</w>": 6954,
      "लेटि": 6955,
      "काइ": 6956,
      "सन्दीप</w>": 6957,
      "समानुपातिक</w>": 6958,
      "एकता": 6959,
      "जोडिएका</w>": 6960,
      "रद्द</w>": 6961,
      "इच्छा</w>": 6962,
      "दत्त</w>": 6963,
      "शरीर</w>": 6964,
      "मय</w>": 6965,
      "छक्का</w>": 6966,
      "लोकप्रिय</w>": 6967,
      "तीनवटा</w>": 6968,
      "इजराय": 6969,
      "नदी": 6970,
      "कार्यालयबाट</w>": 6971,
      "विशेषज्ञ</w>": 6972,
      "हेरी</w>": 6973,
      "च्याम्पियनसि": 6974,
      "स्थानीयवासी</w>": 6975,
      "आन्दोलनका</w>": 6976,
      "प्रचार": 6977,
      "नाघ": 6978,
      "जोगि": 6979,
      "उठेको</w>": 6980,
      "सुरू</w>": 6981,
      "कांग्रेस": 6982,
      "सवारीसाधन</w>": 6983,
      "सवार</w>": 6984,
      "तपाईंले</w>": 6985,
      "भीड</w>": 6986,
      "स्मार्ट</w>": 6987,
      "सम्या": 6988,
      "मङ्सिर</w>": 6989,
      "जित्न</w>": 6990,
      "हाइड्रो": 6991,
      "बनायो</w>": 6992,
      "अनावश्यक</w>": 6993,
      "क्याम्पस</w>": 6994,
      "विज्ञापन</w>": 6995,
      "जमा": 6996,
      "अग": 6997,
      "ग्रु": 6998,
      "स्वरूप</w>": 6999,
      "उपत्यकाका</w>": 7000,
      "छात्र": 7001,
      "अर्जुन</w>": 7002,
      "प्रबन्धक</w>": 7003,
      "ज्ञानेन्द्र</w>": 7004,
      "राष्ट्रको</w>": 7005,
      "न्यायिक</w>": 7006,
      "यन्": 7007,
      "उद्धा": 7008,
      "खत्र": 7009,
      "लार्": 7010,
      "ईले</w>": 7011,
      "झा</w>": 7012,
      "एम्बुलेन्स</w>": 7013,
      "गरिब</w>": 7014,
      "निर्माणाधीन</w>": 7015,
      "पत्रा": 7016,
      "अनुम": 7017,
      "बेलुका</w>": 7018,
      "चोट</w>": 7019,
      "जागिर</w>": 7020,
      "चर्चामा</w>": 7021,
      "याव": 7022,
      "भदौ": 7023,
      "अछा": 7024,
      "पश्चात</w>": 7025,
      "इजलासले</w>": 7026,
      "२०१५</w>": 7027,
      "कारले</w>": 7028,
      "उपयोग": 7029,
      "ण्ट</w>": 7030,
      "प्रशो": 7031,
      "बनाउनु</w>": 7032,
      "बढीको</w>": 7033,
      "न्दुमा</w>": 7034,
      "त्यही": 7035,
      "डर": 7036,
      "वाग्मती</w>": 7037,
      "जीवनको</w>": 7038,
      "श्वरी</w>": 7039,
      "टोलीलाई</w>": 7040,
      "बाग्": 7041,
      "मुटु": 7042,
      "ंगे": 7043,
      "भरको</w>": 7044,
      "प्रेम": 7045,
      "ग्लोबल</w>": 7046,
      "बनाउँदा</w>": 7047,
      "पाट": 7048,
      "उत्तरी</w>": 7049,
      "गाई</w>": 7050,
      "सुवे": 7051,
      "ब्बर</w>": 7052,
      "बाजी</w>": 7053,
      "किसानको</w>": 7054,
      "सीप</w>": 7055,
      "कँडे": 7056,
      "गोलको</w>": 7057,
      "आकां": 7058,
      "काठमाडा": 7059,
      "झल": 7060,
      "जनकपुरधा": 7061,
      "भिडियोमा</w>": 7062,
      "स्वदेशी</w>": 7063,
      "चक्": 7064,
      "साहित्य</w>": 7065,
      "मिलेको</w>": 7066,
      "बचत</w>": 7067,
      "भएकोमा</w>": 7068,
      "एन्टि": 7069,
      "ङबाट</w>": 7070,
      "मेलम्ची</w>": 7071,
      "लेखि": 7072,
      "हृद": 7073,
      "हरूबाट</w>": 7074,
      "उड्डयन</w>": 7075,
      "खेती": 7076,
      "११": 7077,
      "शृ": 7078,
      "बडी</w>": 7079,
      "हामीसँग</w>": 7080,
      "प्रयोगमा</w>": 7081,
      "गाउँपालिका": 7082,
      "बत्ती</w>": 7083,
      "मगरले</w>": 7084,
      "बाख": 7085,
      "दिनका</w>": 7086,
      "भेरी</w>": 7087,
      "पेली</w>": 7088,
      "छलफल": 7089,
      "हरुबीच</w>": 7090,
      "पुरले</w>": 7091,
      "निश्चित": 7092,
      "बारा</w>": 7093,
      "पब्": 7094,
      "कटौती</w>": 7095,
      "पोष्ट": 7096,
      "त्यसबाट</w>": 7097,
      "ठक्कर</w>": 7098,
      "माल्": 7099,
      "राजपा</w>": 7100,
      "कसु": 7101,
      "संसार": 7102,
      "रहँदै</w>": 7103,
      "तनाव</w>": 7104,
      "कर्पो": 7105,
      "भलि": 7106,
      "कोषा": 7107,
      "राती</w>": 7108,
      "संवेदनशील</w>": 7109,
      "न्ती</w>": 7110,
      "ईश्वर</w>": 7111,
      "पर्यटकको</w>": 7112,
      "कास्की</w>": 7113,
      "न्यौपानेले</w>": 7114,
      "झग": 7115,
      "सोको</w>": 7116,
      "लाबाट</w>": 7117,
      "खासगरी</w>": 7118,
      "सेन</w>": 7119,
      "जबाट</w>": 7120,
      "अर्ध": 7121,
      "रानी": 7122,
      "पछ्या": 7123,
      "रौतहट</w>": 7124,
      "अनुमोदन</w>": 7125,
      "माटो</w>": 7126,
      "माछा": 7127,
      "शको</w>": 7128,
      "ठेकेदार</w>": 7129,
      "उपलब्धि</w>": 7130,
      "लगाउँदै</w>": 7131,
      "किसिमका</w>": 7132,
      "लेन्": 7133,
      "अनुप": 7134,
      "मानको</w>": 7135,
      "मूल्यांकन</w>": 7136,
      "महाधिवेशनको</w>": 7137,
      "हैसिय": 7138,
      "ड्रा": 7139,
      "त्यहाँबाट</w>": 7140,
      "पारिवा": 7141,
      "समितिलाई</w>": 7142,
      "देखिँदैन</w>": 7143,
      "सुरक्षाकर्मी</w>": 7144,
      "विष्ट</w>": 7145,
      "सर्वसाधारण</w>": 7146,
      "फ्रि": 7147,
      "गिरीले</w>": 7148,
      "दरबार</w>": 7149,
      "प्रदर्शनमा</w>": 7150,
      "बिग्र": 7151,
      "प्रधा": 7152,
      "उपचाररत</w>": 7153,
      "च्यु": 7154,
      "उनुभयो</w>": 7155,
      "हल्का</w>": 7156,
      "कवि</w>": 7157,
      "प्ने</w>": 7158,
      "प्रधानमन्त्रीलाई</w>": 7159,
      "महासंघले</w>": 7160,
      "माथा</w>": 7161,
      "स्रोतको</w>": 7162,
      "दुर्गा</w>": 7163,
      "गराएर</w>": 7164,
      "स्थिर</w>": 7165,
      "त्यसकारण</w>": 7166,
      "भाइरसबाट</w>": 7167,
      "जन्मा": 7168,
      "बाहेकका</w>": 7169,
      "भारतसँग</w>": 7170,
      "मण्डल</w>": 7171,
      "निजामती</w>": 7172,
      "सहकार": 7173,
      "समाजका</w>": 7174,
      "टेक्": 7175,
      "वृत्ति": 7176,
      "चलाएको</w>": 7177,
      "वक्त": 7178,
      "गढ": 7179,
      "महेन्द्र</w>": 7180,
      "लम्बि": 7181,
      "माका</w>": 7182,
      "बुबा": 7183,
      "सुशासन</w>": 7184,
      "संघीयता</w>": 7185,
      "समुदायमा</w>": 7186,
      "ठोस</w>": 7187,
      "सोमवार</w>": 7188,
      "विपद्</w>": 7189,
      "अवका": 7190,
      "लिनुपर्ने</w>": 7191,
      "गइरहेको</w>": 7192,
      "विस्तारै</w>": 7193,
      "प्रस्तावित</w>": 7194,
      "उत्सा": 7195,
      "सस्तो</w>": 7196,
      "भाडामा</w>": 7197,
      "प्राथमिक</w>": 7198,
      "तापूर्वक</w>": 7199,
      "शनिवार</w>": 7200,
      "अखिल</w>": 7201,
      "हिरास": 7202,
      "पदार्थको</w>": 7203,
      "सगरमाथा</w>": 7204,
      "ठगी</w>": 7205,
      "सायद</w>": 7206,
      "सम्पदा</w>": 7207,
      "टोली": 7208,
      "गर्दछन्</w>": 7209,
      "सान</w>": 7210,
      "तुरु": 7211,
      "कर्ता": 7212,
      "अस्ति": 7213,
      "समावेश": 7214,
      "जर्म": 7215,
      "पहिले": 7216,
      "चाहिन्छ</w>": 7217,
      "सेप्टे": 7218,
      "तोकि": 7219,
      "आफूहरु</w>": 7220,
      "बयान</w>": 7221,
      "एमसीसी</w>": 7222,
      "न्यौपाने</w>": 7223,
      "नायक</w>": 7224,
      "प्रदाय": 7225,
      "मुलुकलाई</w>": 7226,
      "एएफ": 7227,
      "जनताका</w>": 7228,
      "बित्": 7229,
      "किन्न</w>": 7230,
      "आफन्त</w>": 7231,
      "विविध</w>": 7232,
      "अपनाउन</w>": 7233,
      "नाम": 7234,
      "सदु": 7235,
      "नारायणी</w>": 7236,
      "त्वको</w>": 7237,
      "इन्जिनियर</w>": 7238,
      "देखा</w>": 7239,
      "बुद्ध": 7240,
      "गरिए</w>": 7241,
      "कुनै": 7242,
      "पाउनेछन्</w>": 7243,
      "कुटपिट</w>": 7244,
      "चलचित्रको</w>": 7245,
      "कम्प्यु": 7246,
      "मजदुर</w>": 7247,
      "किताब</w>": 7248,
      "जङ्ग": 7249,
      "आउनु</w>": 7250,
      "छानविन</w>": 7251,
      "कर्षमा</w>": 7252,
      "उद्योगमा</w>": 7253,
      "काफ्": 7254,
      "आकस्मिक</w>": 7255,
      "प्रशासनिक</w>": 7256,
      "सरस्व": 7257,
      "मिटरको</w>": 7258,
      "सजिलै</w>": 7259,
      "साँझ": 7260,
      "१४": 7261,
      "वीरगञ्ज</w>": 7262,
      "अप्रि": 7263,
      "पुलको</w>": 7264,
      "च्छे": 7265,
      "१८": 7266,
      "विमानस्थलको</w>": 7267,
      "धर</w>": 7268,
      "रजि": 7269,
      "ंख": 7270,
      "रथ</w>": 7271,
      "नाकामा</w>": 7272,
      "भोग्": 7273,
      "छाप</w>": 7274,
      "ीहरू</w>": 7275,
      "फर्कने</w>": 7276,
      "यात्रामा</w>": 7277,
      "कायमै</w>": 7278,
      "सकिएपछि</w>": 7279,
      "चित्र</w>": 7280,
      "देउवाको</w>": 7281,
      "आउँदो</w>": 7282,
      "रान</w>": 7283,
      "ट्रक</w>": 7284,
      "प्रतिवद्धता</w>": 7285,
      "रहरु</w>": 7286,
      "सुत्केरी</w>": 7287,
      "स्यो": 7288,
      "आइतवार</w>": 7289,
      "नायव</w>": 7290,
      "खोज्न</w>": 7291,
      "स्ट्र": 7292,
      "गर्नेलाई</w>": 7293,
      "बेवास्ता</w>": 7294,
      "रेन्ट</w>": 7295,
      "पढ्ने</w>": 7296,
      "बोल्ने</w>": 7297,
      "रेपछि</w>": 7298,
      "अनुसन्धानमा</w>": 7299,
      "पाउँदा</w>": 7300,
      "गरेपनि</w>": 7301,
      "रवि": 7302,
      "योर्": 7303,
      "विद्य": 7304,
      "शहर</w>": 7305,
      "वर्ती</w>": 7306,
      "वीरेन्द्र": 7307,
      "हाराहारीमा</w>": 7308,
      "पात्र": 7309,
      "मानिएको</w>": 7310,
      "सेके": 7311,
      "अन्तरले</w>": 7312,
      "बारम्": 7313,
      "कर्तव्य</w>": 7314,
      "ओभर</w>": 7315,
      "टेस्ट</w>": 7316,
      "अगाडी</w>": 7317,
      "हँ": 7318,
      "उपत्यका": 7319,
      "डबाट</w>": 7320,
      "दवा": 7321,
      "एके": 7322,
      "परिचय": 7323,
      "त्रै": 7324,
      "इन्धन</w>": 7325,
      "गन्तव्य</w>": 7326,
      "छ्या": 7327,
      "सिस्ट": 7328,
      "कसहित</w>": 7329,
      "जिल्लाबाट</w>": 7330,
      "गर्नुपर्नेमा</w>": 7331,
      "हिस्सा</w>": 7332,
      "राणा</w>": 7333,
      "विश्लेष": 7334,
      "अप</w>": 7335,
      "बचाउन</w>": 7336,
      "चारु</w>": 7337,
      "दोष</w>": 7338,
      "ढिलो</w>": 7339,
      "थाले": 7340,
      "फोटो": 7341,
      "स्ववि": 7342,
      "फलफूल</w>": 7343,
      "वाहक</w>": 7344,
      "आफूहरुले</w>": 7345,
      "कर्ण</w>": 7346,
      "रेलले</w>": 7347,
      "नौँ</w>": 7348,
      "मुस्लिम</w>": 7349,
      "बालबालिकाको</w>": 7350,
      "नेटवर्": 7351,
      "उल्लंघन</w>": 7352,
      "तरण</w>": 7353,
      "छोडेर</w>": 7354,
      "इलाम</w>": 7355,
      "सदुप": 7356,
      "हल्ला</w>": 7357,
      "बोलाएर</w>": 7358,
      "प्रतिस्पर्धा": 7359,
      "निकाल्न</w>": 7360,
      "सकिँदैन</w>": 7361,
      "सि</w>": 7362,
      "अनुहार</w>": 7363,
      "आश्वा": 7364,
      "तिमी</w>": 7365,
      "अभिनेता</w>": 7366,
      "ठि": 7367,
      "संसद्को</w>": 7368,
      "पक्का</w>": 7369,
      "कञ्चनपुर</w>": 7370,
      "विजय": 7371,
      "पारिवारिक</w>": 7372,
      "लागेपछि</w>": 7373,
      "सहभागि": 7374,
      "प्रयत्": 7375,
      "राम्र": 7376,
      "म्स</w>": 7377,
      "पार्दै</w>": 7378,
      "सहमतिमा</w>": 7379,
      "शुक्": 7380,
      "बुझाउन</w>": 7381,
      "न्तर</w>": 7382,
      "धेरैजसो</w>": 7383,
      "गका</w>": 7384,
      "सावि": 7385,
      "आवमा</w>": 7386,
      "च्चा</w>": 7387,
      "सिद्ध</w>": 7388,
      "धनका</w>": 7389,
      "एकीकरण</w>": 7390,
      "बन्दी": 7391,
      "इमा": 7392,
      "शले</w>": 7393,
      "उत्पादित</w>": 7394,
      "लागे</w>": 7395,
      "आईपी": 7396,
      "उक्": 7397,
      "तिक": 7398,
      "लिइ": 7399,
      "त्यसअघि</w>": 7400,
      "नवराज</w>": 7401,
      "तीव्र": 7402,
      "इन्जिनिय": 7403,
      "गंगा</w>": 7404,
      "ड्य": 7405,
      "पूजा": 7406,
      "लापर": 7407,
      "त्ता</w>": 7408,
      "सेन्स</w>": 7409,
      "डेन</w>": 7410,
      "मस्यौदा</w>": 7411,
      "भौगो": 7412,
      "खस्": 7413,
      "प्रशंसा</w>": 7414,
      "पृष्ठ": 7415,
      "तर्फी</w>": 7416,
      "सना": 7417,
      "बेल": 7418,
      "दर्शी</w>": 7419,
      "म्यान": 7420,
      "खब": 7421,
      "विधेयकमा</w>": 7422,
      "सुवास</w>": 7423,
      "पास": 7424,
      "नेपालगञ्ज</w>": 7425,
      "विकास": 7426,
      "णु</w>": 7427,
      "धितो": 7428,
      "शैलीमा</w>": 7429,
      "खुल्": 7430,
      "रोजगारीका</w>": 7431,
      "इजलासमा</w>": 7432,
      "उता": 7433,
      "ख्य": 7434,
      "प्रवद्र्धन</w>": 7435,
      "ट्वि": 7436,
      "अभिनेत्री</w>": 7437,
      "प्रहरीमा</w>": 7438,
      "आंशिक</w>": 7439,
      "चिनी</w>": 7440,
      "३०": 7441,
      "तिनै</w>": 7442,
      "बोलाइएको</w>": 7443,
      "न्थ</w>": 7444,
      "पानीमा</w>": 7445,
      "पत्रिका</w>": 7446,
      "जोडेको</w>": 7447,
      "किसान": 7448,
      "बुझाइ</w>": 7449,
      "भर्ख": 7450,
      "शम्": 7451,
      "हिमालय": 7452,
      "चढा": 7453,
      "उद्ध": 7454,
      "क्यान": 7455,
      "घोषित</w>": 7456,
      "नेदर": 7457,
      "शत": 7458,
      "मन्त्रालयलाई</w>": 7459,
      "बाह्य</w>": 7460,
      "सागर</w>": 7461,
      "देशबाट</w>": 7462,
      "दिवसीय</w>": 7463,
      "भूमिकामा</w>": 7464,
      "दु</w>": 7465,
      "सम्झि": 7466,
      "मालपो": 7467,
      "बारम्बार</w>": 7468,
      "फूल": 7469,
      "हराउँदै</w>": 7470,
      "हक": 7471,
      "ह्र": 7472,
      "बाँस्": 7473,
      "रेमि": 7474,
      "तया</w>": 7475,
      "कक्ष</w>": 7476,
      "त्री": 7477,
      "आयल</w>": 7478,
      "जलवायु</w>": 7479,
      "दासम्म</w>": 7480,
      "जीमा</w>": 7481,
      "ढिला</w>": 7482,
      "चितवनको</w>": 7483,
      "बाँड": 7484,
      "राखिएका</w>": 7485,
      "क्षित</w>": 7486,
      "उचा": 7487,
      "फेसबुक</w>": 7488,
      "प्रजि": 7489,
      "बोकेको</w>": 7490,
      "प्रस्तावमा</w>": 7491,
      "मङ्गलबार</w>": 7492,
      "समावेशी</w>": 7493,
      "अर्जेन्": 7494,
      "भेटवार्ता</w>": 7495,
      "व्यवस्थापनका</w>": 7496,
      "रमाइलो</w>": 7497,
      "बस्तीमा</w>": 7498,
      "चाहने</w>": 7499,
      "राज्यका</w>": 7500,
      "लोक</w>": 7501,
      "कक्षमा</w>": 7502,
      "राज्यमन्त्री</w>": 7503,
      "रत्न": 7504,
      "सहरी</w>": 7505,
      "भिसा</w>": 7506,
      "बोलाएको</w>": 7507,
      "धमाध": 7508,
      "महिनासम्म</w>": 7509,
      "खुट्टा</w>": 7510,
      "क्षतिपूर्ति</w>": 7511,
      "महोत्सव</w>": 7512,
      "स्मृति</w>": 7513,
      "संहिता</w>": 7514,
      "हेक्टर</w>": 7515,
      "स्वयं": 7516,
      "चीनबाट</w>": 7517,
      "मानमा</w>": 7518,
      "धमाधम</w>": 7519,
      "पक्कै</w>": 7520,
      "सम्मान": 7521,
      "क्रामक</w>": 7522,
      "कब्जा</w>": 7523,
      "सधैँ</w>": 7524,
      "पशु</w>": 7525,
      "नुअघि</w>": 7526,
      "बैंकमा</w>": 7527,
      "अदालतका</w>": 7528,
      "तथ्यां": 7529,
      "नवलपरासी</w>": 7530,
      "बंगलादेश</w>": 7531,
      "आमाले</w>": 7532,
      "सकेसम्म</w>": 7533,
      "धका</w>": 7534,
      "२०२१</w>": 7535,
      "राजन</w>": 7536,
      "रात": 7537,
      "कैको</w>": 7538,
      "आपूर्": 7539,
      "कतार</w>": 7540,
      "घटेर</w>": 7541,
      "खोज्दा</w>": 7542,
      "नसकिएको</w>": 7543,
      "समर्": 7544,
      "विपरि": 7545,
      "चल्न</w>": 7546,
      "खातामा</w>": 7547,
      "पाहु": 7548,
      "मुनि</w>": 7549,
      "अनुसन्धानका</w>": 7550,
      "रोजगारीमा</w>": 7551,
      "फिट</w>": 7552,
      "लेट</w>": 7553,
      "कोप्": 7554,
      "लाम</w>": 7555,
      "परिचित</w>": 7556,
      "सेनाका</w>": 7557,
      "प्रशस्त</w>": 7558,
      "सीसी": 7559,
      "गर्भ": 7560,
      "भाग्य": 7561,
      "पुँजी</w>": 7562,
      "चाँदी</w>": 7563,
      "अनियमितता</w>": 7564,
      "लोड</w>": 7565,
      "आपसी</w>": 7566,
      "शही": 7567,
      "ताइ": 7568,
      "आल": 7569,
      "धरान</w>": 7570,
      "कान्छ": 7571,
      "स्ट्रा": 7572,
      "भौगोलिक</w>": 7573,
      "तारा</w>": 7574,
      "दम": 7575,
      "विश्वको</w>": 7576,
      "उल्लेख्य</w>": 7577,
      "्रु": 7578,
      "दाहाल": 7579,
      "झलनाथ</w>": 7580,
      "च्छ</w>": 7581,
      "मेस्": 7582,
      "लघुवित्त</w>": 7583,
      "महिनापछि</w>": 7584,
      "सुपर</w>": 7585,
      "बालिका</w>": 7586,
      "श्रद्धा": 7587,
      "षित</w>": 7588,
      "चेतना</w>": 7589,
      "बनाउनुपर्ने</w>": 7590,
      "नन्द": 7591,
      "ताब्": 7592,
      "मावि": 7593,
      "विरुद्ध": 7594,
      "तिब्ब": 7595,
      "अक्टो": 7596,
      "चितवनमा</w>": 7597,
      "महिनाभित्र</w>": 7598,
      "सदुपयोग</w>": 7599,
      "अत्यन्तै</w>": 7600,
      "मोदीले</w>": 7601,
      "रौतहटका</w>": 7602,
      "निकायमा</w>": 7603,
      "सुनसरी</w>": 7604,
      "नृ": 7605,
      "कामका</w>": 7606,
      "शान्त</w>": 7607,
      "यका</w>": 7608,
      "छोरीको</w>": 7609,
      "लहर": 7610,
      "राजु</w>": 7611,
      "मनाङ</w>": 7612,
      "उप्रे": 7613,
      "अनिल</w>": 7614,
      "विशेषगरी</w>": 7615,
      "विशिष्ट</w>": 7616,
      "भ्रमणका</w>": 7617,
      "दिनँ</w>": 7618,
      "पन्थी</w>": 7619,
      "गाविस</w>": 7620,
      "खोल्": 7621,
      "पुलिस</w>": 7622,
      "अर्जेन्टि": 7623,
      "डरा": 7624,
      "चुअल</w>": 7625,
      "राख्नु</w>": 7626,
      "खोजे": 7627,
      "विधा": 7628,
      "बारीमा</w>": 7629,
      "मनोनयन</w>": 7630,
      "तौल</w>": 7631,
      "बेलायती</w>": 7632,
      "सोलु": 7633,
      "अंकले</w>": 7634,
      "आर्जन</w>": 7635,
      "विधान": 7636,
      "शपथ</w>": 7637,
      "बराबर</w>": 7638,
      "नेतालाई</w>": 7639,
      "सहजै</w>": 7640,
      "सचेतक</w>": 7641,
      "उठ्": 7642,
      "कसँग</w>": 7643,
      "फर्किने</w>": 7644,
      "शेर्पा</w>": 7645,
      "गभर्": 7646,
      "ब्रो": 7647,
      "छॽ</w>": 7648,
      "नदेखि</w>": 7649,
      "नपाठ": 7650,
      "डियो": 7651,
      "पीडित": 7652,
      "क्वि": 7653,
      "द्धन</w>": 7654,
      "त्यसबेला</w>": 7655,
      "आरोप": 7656,
      "परराष्ट्रमन्त्री</w>": 7657,
      "रानी</w>": 7658,
      "लिमिटेड</w>": 7659,
      "लेक</w>": 7660,
      "डोनाल्": 7661,
      "नगरा": 7662,
      "पिका</w>": 7663,
      "संरचना": 7664,
      "टिन</w>": 7665,
      "दोब्बर</w>": 7666,
      "कीका</w>": 7667,
      "फोर्": 7668,
      "मुद्दाको</w>": 7669,
      "गर्नुको</w>": 7670,
      "प्राइ": 7671,
      "पठनपाठ": 7672,
      "पेर</w>": 7673,
      "विवरण": 7674,
      "निषेधाज्ञा": 7675,
      "केश</w>": 7676,
      "लाखभन्दा</w>": 7677,
      "ढे": 7678,
      "सुचारु</w>": 7679,
      "प्रसार</w>": 7680,
      "नारा": 7681,
      "खरिद": 7682,
      "दिवसको</w>": 7683,
      "रोजगारीको</w>": 7684,
      "महानिरीक्षक</w>": 7685,
      "परिचय</w>": 7686,
      "नगरमा</w>": 7687,
      "कपिलवस्तु": 7688,
      "ईएको</w>": 7689,
      "बधा": 7690,
      "प्रमुखको</w>": 7691,
      "सिरहा": 7692,
      "परिसरमा</w>": 7693,
      "अन्तरराष्ट्रिय</w>": 7694,
      "नाक</w>": 7695,
      "सहजीकरण</w>": 7696,
      "खाल्": 7697,
      "लाखको</w>": 7698,
      "शताब्": 7699,
      "अर्ब": 7700,
      "त्रिवि</w>": 7701,
      "प्रत्यक्ष": 7702,
      "दर्शक</w>": 7703,
      "कार्यकर्तालाई</w>": 7704,
      "डिजाइन</w>": 7705,
      "संचाल": 7706,
      "कोषको</w>": 7707,
      "डाले</w>": 7708,
      "सहकार्यमा</w>": 7709,
      "दाइ</w>": 7710,
      "सेवाग्राह": 7711,
      "पेट्रोल</w>": 7712,
      "विभेद</w>": 7713,
      "कार्यान्वयनका</w>": 7714,
      "डभाड</w>": 7715,
      "बर्खा": 7716,
      "बेड</w>": 7717,
      "एकेडे": 7718,
      "जोन</w>": 7719,
      "हिंसा": 7720,
      "२०१४</w>": 7721,
      "नम्बरमा</w>": 7722,
      "ीहरुले</w>": 7723,
      "पात्र</w>": 7724,
      "पीडितलाई</w>": 7725,
      "पोस्ट</w>": 7726,
      "रवी": 7727,
      "ौलाले</w>": 7728,
      "एन्फा": 7729,
      "ण्डमा</w>": 7730,
      "सेमिफाइनलमा</w>": 7731,
      "संगै</w>": 7732,
      "क्वारेन्टाइन</w>": 7733,
      "अपिल</w>": 7734,
      "प्रेरित</w>": 7735,
      "मलेसिया</w>": 7736,
      "पूर्वानुमान</w>": 7737,
      "रेग्मीले</w>": 7738,
      "वत्</w>": 7739,
      "राबाट</w>": 7740,
      "युक्त": 7741,
      "फको</w>": 7742,
      "मुआब्जा</w>": 7743,
      "छाड्ने</w>": 7744,
      "राष्ट्रियसभा</w>": 7745,
      "कहिलेका": 7746,
      "मिन</w>": 7747,
      "व्यापारी</w>": 7748,
      "कुशल</w>": 7749,
      "दिन्छन्</w>": 7750,
      "योग्य": 7751,
      "दक्षिण": 7752,
      "त्तर</w>": 7753,
      "निर्देशनालय": 7754,
      "छोरीलाई</w>": 7755,
      "एकातिर</w>": 7756,
      "विष्य</w>": 7757,
      "पर्नेछ</w>": 7758,
      "चिन्त": 7759,
      "बाने": 7760,
      "बाहिरबाट</w>": 7761,
      "कम्तिमा</w>": 7762,
      "मर</w>": 7763,
      "राजेश</w>": 7764,
      "औँ": 7765,
      "सुवेदी</w>": 7766,
      "ब्याट्": 7767,
      "देखाएर</w>": 7768,
      "इन्चार्ज</w>": 7769,
      "सांसदहरुले</w>": 7770,
      "पशुपति": 7771,
      "हेलिकोप्": 7772,
      "बासिन्दा</w>": 7773,
      "लेन</w>": 7774,
      "साधारण": 7775,
      "परि</w>": 7776,
      "डाका</w>": 7777,
      "बढ्छ</w>": 7778,
      "पोजि": 7779,
      "परिसर</w>": 7780,
      "भविष्य</w>": 7781,
      "हुला": 7782,
      "न्ट": 7783,
      "डोनाल्ड</w>": 7784,
      "धनमा</w>": 7785,
      "पदबाट</w>": 7786,
      "गुज": 7787,
      "चेक": 7788,
      "छैट": 7789,
      "लागतमा</w>": 7790,
      "भुसालले</w>": 7791,
      "झ्या": 7792,
      "सभापतिमा</w>": 7793,
      "उठाएको</w>": 7794,
      "पत्रको</w>": 7795,
      "प्रतिशतभन्दा</w>": 7796,
      "कास्पद</w>": 7797,
      "पूर्वप्रधानमन्त्री</w>": 7798,
      "लाइसेन्स</w>": 7799,
      "प्रचण्डको</w>": 7800,
      "होइनन्</w>": 7801,
      "राप्ती</w>": 7802,
      "देखाउने</w>": 7803,
      "मैना": 7804,
      "चेस्टर</w>": 7805,
      "खाएर</w>": 7806,
      "भोग": 7807,
      "कीलाई</w>": 7808,
      "मिनेट": 7809,
      "घटनाका</w>": 7810,
      "रालो</w>": 7811,
      "साइकल</w>": 7812,
      "नायिका</w>": 7813,
      "रसँग</w>": 7814,
      "महिनाअघि</w>": 7815,
      "खै": 7816,
      "श्रृ": 7817,
      "उनेको</w>": 7818,
      "बैङ्क</w>": 7819,
      "कर्पोरे": 7820,
      "लान</w>": 7821,
      "कार्यदल</w>": 7822,
      "मध्यनजर</w>": 7823,
      "जग</w>": 7824,
      "दीप": 7825,
      "जति": 7826,
      "गोमा</w>": 7827,
      "सप": 7828,
      "उद्योगी</w>": 7829,
      "ङ्कन</w>": 7830,
      "किट</w>": 7831,
      "निम्त्या": 7832,
      "शान्तिपूर्ण</w>": 7833,
      "बल्ल</w>": 7834,
      "लाभांश</w>": 7835,
      "धरौ": 7836,
      "भल</w>": 7837,
      "प्रयोगशाला</w>": 7838,
      "महँगो</w>": 7839,
      "भर्खरै</w>": 7840,
      "असन्तुष्ट</w>": 7841,
      "माटो": 7842,
      "प्न</w>": 7843,
      "रूपैयाँ</w>": 7844,
      "टेलिभि": 7845,
      "पालो</w>": 7846,
      "च्याम्पियन</w>": 7847,
      "सप्तरी</w>": 7848,
      "पौडेलको</w>": 7849,
      "लाग्दैन</w>": 7850,
      "बिहीवार</w>": 7851,
      "काभ्रे": 7852,
      "हालको</w>": 7853,
      "नुभएका</w>": 7854,
      "ट्रान्स": 7855,
      "सार्वभौ": 7856,
      "दास</w>": 7857,
      "डिग्री</w>": 7858,
      "नआएको</w>": 7859,
      "मोदी</w>": 7860,
      "करोडको</w>": 7861,
      "आजदेखि</w>": 7862,
      "एक्स": 7863,
      "मराज</w>": 7864,
      "राष्ट्रिय": 7865,
      "आर्मी</w>": 7866,
      "दुर्गा": 7867,
      "कार्यलाई</w>": 7868,
      "नेताहरुको</w>": 7869,
      "रावल</w>": 7870,
      "शिक्षाको</w>": 7871,
      "मातृ": 7872,
      "बुढाथो": 7873,
      "इतिहासमा</w>": 7874,
      "म्याने": 7875,
      "खास</w>": 7876,
      "जेन</w>": 7877,
      "सशक्त</w>": 7878,
      "शाक्य</w>": 7879,
      "श्रम": 7880,
      "निर्णयमा</w>": 7881,
      "बुबा</w>": 7882,
      "द्वि": 7883,
      "हौँ</w>": 7884,
      "बोल": 7885,
      "नसम्म</w>": 7886,
      "कालोपत्रे</w>": 7887,
      "अविश्वासको</w>": 7888,
      "छुट्टा": 7889,
      "काई</w>": 7890,
      "डन</w>": 7891,
      "न्यायाधि": 7892,
      "काँग्रेसका</w>": 7893,
      "सम्पत्": 7894,
      "गाडीमा</w>": 7895,
      "मानन्ध": 7896,
      "भैरहेको</w>": 7897,
      "गैँ": 7898,
      "गतेबाट</w>": 7899,
      "सम्मानित</w>": 7900,
      "झरेको</w>": 7901,
      "संस्थालाई</w>": 7902,
      "एन्फा</w>": 7903,
      "सम्झौतामा</w>": 7904,
      "रेखा</w>": 7905,
      "निर्मला</w>": 7906,
      "झन्": 7907,
      "काटि": 7908,
      "सारेको</w>": 7909,
      "मूर्ति</w>": 7910,
      "थ्र्": 7911,
      "करिव</w>": 7912,
      "वल्": 7913,
      "खण्डको</w>": 7914,
      "केही": 7915,
      "चिएको</w>": 7916,
      "अनुभूति</w>": 7917,
      "प्रणालीको</w>": 7918,
      "सामु</w>": 7919,
      "ट्टी</w>": 7920,
      "उखु</w>": 7921,
      "कम्पनीमा</w>": 7922,
      "कडाइ</w>": 7923,
      "गंगा": 7924,
      "जोखिम": 7925,
      "घाइते": 7926,
      "लाइनमा</w>": 7927,
      "पाण्डे": 7928,
      "सम्भाव": 7929,
      "बाँडफाँ": 7930,
      "लसँग</w>": 7931,
      "परिवारमा</w>": 7932,
      "रेन्स</w>": 7933,
      "नियाँ": 7934,
      "हेटौंडा</w>": 7935,
      "सनका</w>": 7936,
      "ओखल": 7937,
      "प्रधानन्यायाधीश": 7938,
      "ध्यानमा</w>": 7939,
      "पदका</w>": 7940,
      "बढुवा</w>": 7941,
      "लाइट</w>": 7942,
      "आदिवासी</w>": 7943,
      "त्रास</w>": 7944,
      "गुप्": 7945,
      "हजारको</w>": 7946,
      "मानिने</w>": 7947,
      "म्बरमा</w>": 7948,
      "कृष्णबहादुर</w>": 7949,
      "सुब्बा</w>": 7950,
      "गरेसँगै</w>": 7951,
      "विपरित</w>": 7952,
      "शिव</w>": 7953,
      "न्यूनीकरण</w>": 7954,
      "षा": 7955,
      "बाढी": 7956,
      "सेती</w>": 7957,
      "बजेतिर</w>": 7958,
      "दिभ्": 7959,
      "सयभन्दा</w>": 7960,
      "च्याम्पियन्स</w>": 7961,
      "आश्वासन</w>": 7962,
      "विभागमा</w>": 7963,
      "द्वार</w>": 7964,
      "ग्राहकले</w>": 7965,
      "कोट": 7966,
      "निर्देशिका</w>": 7967,
      "गुमाएर</w>": 7968,
      "इन्स्यो": 7969,
      "हार": 7970,
      "शनमा</w>": 7971,
      "रुपन्देही</w>": 7972,
      "सिएको</w>": 7973,
      "सरोकारवाला</w>": 7974,
      "वर्षभन्दा</w>": 7975,
      "अनौपचारिक</w>": 7976,
      "निवासमा</w>": 7977,
      "सकेकाले</w>": 7978,
      "सापकोटा</w>": 7979,
      "मरि": 7980,
      "ोस्</w>": 7981,
      "सन्तोष": 7982,
      "देखिन्छन्</w>": 7983,
      "बनेपछि</w>": 7984,
      "उत्साहित</w>": 7985,
      "विद्यालयले</w>": 7986,
      "कलेजमा</w>": 7987,
      "सेट</w>": 7988,
      "आयुक्त</w>": 7989,
      "सुर": 7990,
      "प्रश्नको</w>": 7991,
      "महेश</w>": 7992,
      "कोल": 7993,
      "झल्": 7994,
      "कोसी</w>": 7995,
      "कहरुको</w>": 7996,
      "किम</w>": 7997,
      "जसपा</w>": 7998,
      "राम्ररी</w>": 7999,
      "पत्राचार</w>": 8000,
      "घाटमा</w>": 8001,
      "गरेकोमा</w>": 8002,
      "मल्लले</w>": 8003,
      "लडाइ": 8004,
      "प्रयोगशालामा</w>": 8005,
      "उठाएका</w>": 8006,
      "विचार": 8007,
      "दक्ष</w>": 8008,
      "औसत</w>": 8009,
      "ढुङ्गा</w>": 8010,
      "पाटी</w>": 8011,
      "मार</w>": 8012,
      "कोर्": 8013,
      "कागजात</w>": 8014,
      "स्वार्थ</w>": 8015,
      "वट</w>": 8016,
      "बुझ्ने</w>": 8017,
      "यूए": 8018,
      "नाफा": 8019,
      "गहिरो</w>": 8020,
      "अतिक्रमण</w>": 8021,
      "घात</w>": 8022,
      "इञ्जि": 8023,
      "२०७१</w>": 8024,
      "लिस</w>": 8025,
      "ंदै</w>": 8026,
      "लास</w>": 8027,
      "सुदृढ</w>": 8028,
      "क्वारेन्टिनमा</w>": 8029,
      "बालुवा</w>": 8030,
      "कारागार</w>": 8031,
      "धके": 8032,
      "मार्ने</w>": 8033,
      "बलिउड</w>": 8034,
      "लोकतन्त्रको</w>": 8035,
      "मतगणना</w>": 8036,
      "महानगरले</w>": 8037,
      "लगानीको</w>": 8038,
      "सिन्धुपाल्चोक</w>": 8039,
      "काठमाण्डौ</w>": 8040,
      "झापाको</w>": 8041,
      "कपिलवस्तु</w>": 8042,
      "अर्घा": 8043,
      "अभियोग</w>": 8044,
      "वासि": 8045,
      "मान्ने</w>": 8046,
      "फ्ट</w>": 8047,
      "हेटौँ": 8048,
      "संग्र": 8049,
      "गर्दछु</w>": 8050,
      "अस्पताललाई</w>": 8051,
      "फुटबलमा</w>": 8052,
      "भूकम्पले</w>": 8053,
      "ँको</w>": 8054,
      "युरोपेली</w>": 8055,
      "कहरूले</w>": 8056,
      "फिलि": 8057,
      "रुपि": 8058,
      "पोर्चु": 8059,
      "हुन्छ": 8060,
      "डिफे": 8061,
      "लकडाउनका</w>": 8062,
      "ग्राहक</w>": 8063,
      "प्रकरणमा</w>": 8064,
      "पूँजी</w>": 8065,
      "शहरी</w>": 8066,
      "दस्ता": 8067,
      "एकामा</w>": 8068,
      "व्यवसायीको</w>": 8069,
      "लिएपछि</w>": 8070,
      "जिन्द": 8071,
      "जबरा": 8072,
      "महतो</w>": 8073,
      "बनाउ": 8074,
      "प्य</w>": 8075,
      "बुहा": 8076,
      "गर्भवती</w>": 8077,
      "सिफारिसमा</w>": 8078,
      "अरुण</w>": 8079,
      "अगाडि": 8080,
      "कमल": 8081,
      "धम्की</w>": 8082,
      "होम": 8083,
      "गैं": 8084,
      "उत्तम</w>": 8085,
      "पर्वत</w>": 8086,
      "बढीमा</w>": 8087,
      "सुकु": 8088,
      "व्यवसायीलाई</w>": 8089,
      "वरको</w>": 8090,
      "शल्यक्रिया</w>": 8091,
      "हका</w>": 8092,
      "तारा": 8093,
      "साउनमा</w>": 8094,
      "रुपैयाँसम्म</w>": 8095,
      "जलविद्युत</w>": 8096,
      "दूतावासले</w>": 8097,
      "सिमेन्ट</w>": 8098,
      "चरम</w>": 8099,
      "समाजले</w>": 8100,
      "शतक</w>": 8101,
      "महाराज": 8102,
      "ब्याट्सम्या": 8103,
      "कार्यको</w>": 8104,
      "कोरियाली</w>": 8105,
      "द्वन्द्व</w>": 8106,
      "प्रजातान्त्रिक</w>": 8107,
      "समुदायले</w>": 8108,
      "मापन</w>": 8109,
      "केन्द्रबाट</w>": 8110,
      "नेकपाले</w>": 8111,
      "सर्लाही</w>": 8112,
      "ञ्ज": 8113,
      "ट्र्या": 8114,
      "करको</w>": 8115,
      "गुमाएको</w>": 8116,
      "ऋण": 8117,
      "ढुङ्गा": 8118,
      "३००</w>": 8119,
      "कार्तिक</w>": 8120,
      "थारु</w>": 8121,
      "प्रधाना": 8122,
      "सैद्धा": 8123,
      "प्रतितोला</w>": 8124,
      "बिस्तारै</w>": 8125,
      "मावि</w>": 8126,
      "भवनको</w>": 8127,
      "उनीहरु": 8128,
      "पश्चात्</w>": 8129,
      "मौन</w>": 8130,
      "न्तिक</w>": 8131,
      "भन्नेबारे</w>": 8132,
      "निगमको</w>": 8133,
      "नँ</w>": 8134,
      "विचा": 8135,
      "यत": 8136,
      "परिमा": 8137,
      "श्रीमान्</w>": 8138,
      "बोनस</w>": 8139,
      "पोस्ट": 8140,
      "दिनुभएको</w>": 8141,
      "जथा": 8142,
      "मागेको</w>": 8143,
      "ग्री": 8144,
      "जाँच": 8145,
      "सत्र": 8146,
      "सहमतिको</w>": 8147,
      "प्रदर्शन": 8148,
      "उज्या": 8149,
      "मोर्चा</w>": 8150,
      "पाइँदैन</w>": 8151,
      "रुचा": 8152,
      "दशैं": 8153,
      "बार्": 8154,
      "रहेकोले</w>": 8155,
      "डीका</w>": 8156,
      "बङ्ग": 8157,
      "बच्न</w>": 8158,
      "निक्षेप</w>": 8159,
      "बढि</w>": 8160,
      "जिज्ञा": 8161,
      "प्रजिअ</w>": 8162,
      "ह्वा": 8163,
      "नियम": 8164,
      "सम्वन्": 8165,
      "गरिबी</w>": 8166,
      "चट्या": 8167,
      "बजेट": 8168,
      "लगेको</w>": 8169,
      "धनुषा</w>": 8170,
      "सरि": 8171,
      "एनए</w>": 8172,
      "अख्तियारले</w>": 8173,
      "बहिनी</w>": 8174,
      "प्रेरण": 8175,
      "नीतिमा</w>": 8176,
      "चना</w>": 8177,
      "टोल</w>": 8178,
      "गरेँ</w>": 8179,
      "शर": 8180,
      "हौ": 8181,
      "नसके</w>": 8182,
      "बौद्ध</w>": 8183,
      "नाकाबाट</w>": 8184,
      "ठाउँबाट</w>": 8185,
      "बालबालिका": 8186,
      "त्यो": 8187,
      "नपाइने</w>": 8188,
      "सङ्घले</w>": 8189,
      "सहुलियत</w>": 8190,
      "कार्यकर्ताले</w>": 8191,
      "जाले</w>": 8192,
      "भल": 8193,
      "पुल": 8194,
      "हाल्ने</w>": 8195,
      "अन्तराष्ट्रिय</w>": 8196,
      "साबि": 8197,
      "क्रान्तिकारी</w>": 8198,
      "ईका</w>": 8199,
      "परिवर्तनको</w>": 8200,
      "तातो": 8201,
      "आगलाग": 8202,
      "काङ्": 8203,
      "इलेक्": 8204,
      "आन्दोलन": 8205,
      "बेलायतमा</w>": 8206,
      "उपहार</w>": 8207,
      "दलि": 8208,
      "कारबाहीको</w>": 8209,
      "खोलाको</w>": 8210,
      "नेत्र": 8211,
      "बाघ": 8212,
      "माध्यम</w>": 8213,
      "उँछु</w>": 8214,
      "आउँछन्</w>": 8215,
      "द्रिक</w>": 8216,
      "ट्रम्प</w>": 8217,
      "सुमन</w>": 8218,
      "करिडो": 8219,
      "रहेकोमा</w>": 8220,
      "थियौँ</w>": 8221,
      "कर्ण": 8222,
      "हारमा</w>": 8223,
      "विगतका</w>": 8224,
      "माथा": 8225,
      "म्यान</w>": 8226,
      "युनियन</w>": 8227,
      "सन्तान</w>": 8228,
      "उनीहरू": 8229,
      "सेतो</w>": 8230,
      "टेलिभिजन</w>": 8231,
      "साझेदा": 8232,
      "चाँडो</w>": 8233,
      "अमि": 8234,
      "स्टमा</w>": 8235,
      "ललितपुरको</w>": 8236,
      "गर्नुका</w>": 8237,
      "ज्ञवाली</w>": 8238,
      "म्यानमा": 8239,
      "सर्वोच्चले</w>": 8240,
      "तिम्रो</w>": 8241,
      "प्रकोप</w>": 8242,
      "कार्यस": 8243,
      "अनुमति": 8244,
      "बुझाउने</w>": 8245,
      "विभागीय</w>": 8246,
      "सारका</w>": 8247,
      "उत्पादनको</w>": 8248,
      "लङ्": 8249,
      "किनारमा</w>": 8250,
      "तोड": 8251,
      "चालय</w>": 8252,
      "बाँध": 8253,
      "ठमा</w>": 8254,
      "लड्": 8255,
      "फत</w>": 8256,
      "महोत्तरी</w>": 8257,
      "निज</w>": 8258,
      "आय</w>": 8259,
      "अन्यत्र</w>": 8260,
      "उत्खन": 8261,
      "निएको</w>": 8262,
      "विद्यमान</w>": 8263,
      "छाड्": 8264,
      "साले</w>": 8265,
      "पेट</w>": 8266,
      "सत्तामा</w>": 8267,
      "बानी</w>": 8268,
      "ओपन": 8269,
      "नामावली</w>": 8270,
      "आचार": 8271,
      "चीनका</w>": 8272,
      "काएर</w>": 8273,
      "मार्च</w>": 8274,
      "असारमा</w>": 8275,
      "बताउँछिन्</w>": 8276,
      "बढाएर</w>": 8277,
      "निकास</w>": 8278,
      "रंगशालामा</w>": 8279,
      "उको</w>": 8280,
      "प्रस्ट</w>": 8281,
      "सेवाका</w>": 8282,
      "संविधानसभा</w>": 8283,
      "ठिक</w>": 8284,
      "पन्तले</w>": 8285,
      "थ्री</w>": 8286,
      "झाँ": 8287,
      "मसान्तसम्म</w>": 8288,
      "दिलाए</w>": 8289,
      "अभिवृद्धि</w>": 8290,
      "बिभिन्न</w>": 8291,
      "औचि": 8292,
      "कुलपति</w>": 8293,
      "शरण": 8294,
      "सुरुङ</w>": 8295,
      "संगठनले</w>": 8296,
      "भक्तपुरमा</w>": 8297,
      "चेर</w>": 8298,
      "नगरे": 8299,
      "तथ्य": 8300,
      "गोप्य</w>": 8301,
      "मालपोत</w>": 8302,
      "सञ्चारकर्म": 8303,
      "भेरिय": 8304,
      "भ्रम</w>": 8305,
      "सहरमा</w>": 8306,
      "बास्": 8307,
      "बोहरा": 8308,
      "चोक": 8309,
      "न्दै</w>": 8310,
      "तस्वीर</w>": 8311,
      "प्रधानमन्त्रीका</w>": 8312,
      "गु</w>": 8313,
      "प्रशोधन</w>": 8314,
      "मंगलवार</w>": 8315,
      "नेतृत्वले</w>": 8316,
      "जनजाति</w>": 8317,
      "बारका</w>": 8318,
      "काउन</w>": 8319,
      "फ्रेन्": 8320,
      "व्यवसायमा</w>": 8321,
      "परिस्थितिमा</w>": 8322,
      "सोध्": 8323,
      "रेष्ट": 8324,
      "जनी</w>": 8325,
      "एसएसपी</w>": 8326,
      "पस्": 8327,
      "हता": 8328,
      "खुकुलो</w>": 8329,
      "प्रतिशतसम्म</w>": 8330,
      "बिरुवा</w>": 8331,
      "मेट्रिक</w>": 8332,
      "निधि": 8333,
      "लिपु": 8334,
      "कार्ययोजना</w>": 8335,
      "समेटिएको</w>": 8336,
      "रेड</w>": 8337,
      "त्याग</w>": 8338,
      "शुभ</w>": 8339,
      "१३": 8340,
      "कल्याण</w>": 8341,
      "अचा": 8342,
      "म्याच</w>": 8343,
      "बागलु": 8344,
      "गुरु</w>": 8345,
      "स्थलगत</w>": 8346,
      "ण्डको</w>": 8347,
      "परिमार्जन</w>": 8348,
      "ीहरुको</w>": 8349,
      "साग</w>": 8350,
      "नियमन</w>": 8351,
      "निटाइ": 8352,
      "ीत</w>": 8353,
      "चलाइ": 8354,
      "पहलमा</w>": 8355,
      "ंको</w>": 8356,
      "यससँगै</w>": 8357,
      "वो": 8358,
      "झैँ</w>": 8359,
      "पुरबाट</w>": 8360,
      "व्यवस्थापनको</w>": 8361,
      "दाइ": 8362,
      "जनतामा</w>": 8363,
      "युवालाई</w>": 8364,
      "संगठनको</w>": 8365,
      "नेपालगञ्": 8366,
      "खोजिएको</w>": 8367,
      "सैद्धान्तिक</w>": 8368,
      "मनोरञ्": 8369,
      "सांसदको</w>": 8370,
      "आइरहेका</w>": 8371,
      "सम्झा": 8372,
      "सम्बन्धलाई</w>": 8373,
      "मद": 8374,
      "निकाल्ने</w>": 8375,
      "लक्ष्मी": 8376,
      "विभाजित</w>": 8377,
      "लामिछाने</w>": 8378,
      "राजवि": 8379,
      "गैरआवासीय</w>": 8380,
      "रोनाल्डो": 8381,
      "भूमिमा</w>": 8382,
      "अपरे": 8383,
      "शौचालय</w>": 8384,
      "संक्रमणका</w>": 8385,
      "ख्याल</w>": 8386,
      "जागर": 8387,
      "बालक</w>": 8388,
      "माल्दिभ्": 8389,
      "खानेकुरा</w>": 8390,
      "बताउनुभएको</w>": 8391,
      "सांग": 8392,
      "रोले</w>": 8393,
      "पूर्णि": 8394,
      "कोरोनाभाइरस</w>": 8395,
      "चक</w>": 8396,
      "राम्रै</w>": 8397,
      "केपछि</w>": 8398,
      "राख्नुपर्ने</w>": 8399,
      "धौ": 8400,
      "पल</w>": 8401,
      "बजेर</w>": 8402,
      "ँदैछ</w>": 8403,
      "पैदा</w>": 8404,
      "सुनिल</w>": 8405,
      "टाले</w>": 8406,
      "भगवा": 8407,
      "रनले</w>": 8408,
      "गठबन्धनको</w>": 8409,
      "कतिपयले</w>": 8410,
      "चिन्तित</w>": 8411,
      "ध्रु": 8412,
      "नुसार</w>": 8413,
      "नियमाव": 8414,
      "श्रो": 8415,
      "जबर": 8416,
      "दलमा</w>": 8417,
      "र्य": 8418,
      "जाने": 8419,
      "बैङ्कको</w>": 8420,
      "ओस्</w>": 8421,
      "पिङ</w>": 8422,
      "सेवाग्रा": 8423,
      "भन्छ</w>": 8424,
      "पेशा": 8425,
      "सर्वसम्मत</w>": 8426,
      "आवद्ध</w>": 8427,
      "पठाएका</w>": 8428,
      "तहलाई</w>": 8429,
      "तत्": 8430,
      "आरोहण</w>": 8431,
      "निकायका</w>": 8432,
      "पक्षबाट</w>": 8433,
      "खुल्न</w>": 8434,
      "बुझि": 8435,
      "छनौ": 8436,
      "रसम्म</w>": 8437,
      "नामको</w>": 8438,
      "सिधै</w>": 8439,
      "घटनाबारे</w>": 8440,
      "समै</w>": 8441,
      "अध्ययनरत</w>": 8442,
      "कैलालीको</w>": 8443,
      "बर्दिया</w>": 8444,
      "धर": 8445,
      "प्रचलन</w>": 8446,
      "सङ्क्रमणको</w>": 8447,
      "हिरासतमा</w>": 8448,
      "अस्पतालबाट</w>": 8449,
      "कहरुलाई</w>": 8450,
      "अँ": 8451,
      "गर्दैछ</w>": 8452,
      "निकुञ्ज</w>": 8453,
      "कर्ताले</w>": 8454,
      "नसम्बन्धी</w>": 8455,
      "छलफलका</w>": 8456,
      "साताको</w>": 8457,
      "परो": 8458,
      "मनोज</w>": 8459,
      "विपक्षमा</w>": 8460,
      "व्यवसायिक</w>": 8461,
      "परिषद्को</w>": 8462,
      "आनन्द</w>": 8463,
      "दललाई</w>": 8464,
      "अध्यक्षको</w>": 8465,
      "दिदी": 8466,
      "भान्": 8467,
      "काउन्सि": 8468,
      "गाली</w>": 8469,
      "पुर्ण</w>": 8470,
      "नहरू</w>": 8471,
      "इनि": 8472,
      "उसका</w>": 8473,
      "भाषा": 8474,
      "शहरमा</w>": 8475,
      "अभिभावक</w>": 8476,
      "उद्योगले</w>": 8477,
      "परियोजना": 8478,
      "ँमा</w>": 8479,
      "संवाद": 8480,
      "नगरप्रमुख</w>": 8481,
      "आतंक": 8482,
      "जोड्न</w>": 8483,
      "रेग्मी</w>": 8484,
      "प्याकेज</w>": 8485,
      "कठिना": 8486,
      "विश्वकपमा</w>": 8487,
      "देखेको</w>": 8488,
      "ढाँ": 8489,
      "रिहा</w>": 8490,
      "सरसफाइ</w>": 8491,
      "कान्तिपुर</w>": 8492,
      "मड्रि": 8493,
      "उत्र": 8494,
      "अवस्थाको</w>": 8495,
      "बाहिरी</w>": 8496,
      "हिन्दु</w>": 8497,
      "होलान्</w>": 8498,
      "पैदल</w>": 8499,
      "भ्याक्सिन</w>": 8500,
      "रुपले</w>": 8501,
      "सिलसि": 8502,
      "मानले</w>": 8503,
      "मिलाएर</w>": 8504,
      "जवाफमा</w>": 8505,
      "छोरी": 8506,
      "जुम्ला</w>": 8507,
      "भिर</w>": 8508,
      "दशक</w>": 8509,
      "पारस</w>": 8510,
      "प्रदेशसभामा</w>": 8511,
      "रोजगार": 8512,
      "सभाबाट</w>": 8513,
      "घुस</w>": 8514,
      "ब्रुअ": 8515,
      "निकालेर</w>": 8516,
      "यादवको</w>": 8517,
      "ब्यू": 8518,
      "देखेपछि</w>": 8519,
      "एशो": 8520,
      "आवतजावत</w>": 8521,
      "प्रतिरो": 8522,
      "पारदर्शी</w>": 8523,
      "आपसमा</w>": 8524,
      "जानकार": 8525,
      "लिटी</w>": 8526,
      "उहाँका</w>": 8527,
      "सफाइ": 8528,
      "सञ्चालनको</w>": 8529,
      "नभएसम्म</w>": 8530,
      "हद": 8531,
      "नवीकरण</w>": 8532,
      "कोटको</w>": 8533,
      "याबाट</w>": 8534,
      "नगरे</w>": 8535,
      "अन्या": 8536,
      "मिर्गौला</w>": 8537,
      "काअनुसार</w>": 8538,
      "पक्की</w>": 8539,
      "क्रिकेटमा</w>": 8540,
      "डिल्": 8541,
      "जाका</w>": 8542,
      "अा": 8543,
      "प्रारम्भ</w>": 8544,
      "राजमार्ग": 8545,
      "समाचारमा</w>": 8546,
      "गर्नुपरेको</w>": 8547,
      "ठुलो</w>": 8548,
      "विवादित</w>": 8549,
      "मतले</w>": 8550,
      "पसलमा</w>": 8551,
      "घनश्याम</w>": 8552,
      "अस्थि": 8553,
      "गएराति</w>": 8554,
      "बङ्गला": 8555,
      "युभेन्": 8556,
      "गैरसरकारी</w>": 8557,
      "उपाध्यक्षमा</w>": 8558,
      "ज्यू": 8559,
      "काठमाडौंबाट</w>": 8560,
      "यकिन</w>": 8561,
      "रणका</w>": 8562,
      "गाउँको</w>": 8563,
      "चाहे": 8564,
      "ङ्गले</w>": 8565,
      "भैरहवा</w>": 8566,
      "तब</w>": 8567,
      "सम्पदा": 8568,
      "समूहलाई</w>": 8569,
      "याम</w>": 8570,
      "संकटमा</w>": 8571,
      "माओवादीका</w>": 8572,
      "पूर्णता</w>": 8573,
      "रिजालले</w>": 8574,
      "पवि": 8575,
      "सक्दो</w>": 8576,
      "नहोस्</w>": 8577,
      "एयर</w>": 8578,
      "संयन्त्र": 8579,
      "द्वन्द्व": 8580,
      "बिज": 8581,
      "रथ": 8582,
      "आशि": 8583,
      "समेटेर</w>": 8584,
      "रहेकै</w>": 8585,
      "चिकित्सकले</w>": 8586,
      "आयोजकले</w>": 8587,
      "निएका</w>": 8588,
      "स्थानबाट</w>": 8589,
      "पाउँछन्</w>": 8590,
      "सम्बन्धि</w>": 8591,
      "महामारी": 8592,
      "पन्त</w>": 8593,
      "कारोबारमा</w>": 8594,
      "संयन्त्र</w>": 8595,
      "मकवानपुर</w>": 8596,
      "शमशेर</w>": 8597,
      "स्वच्छ</w>": 8598,
[...]
