{
  "version": "1.0",
  "truncation": null,
  "padding": null,
  "added_tokens": [
    {
      "id": 0,
      "content": "<|endoftext|>",
      "single_word": false,
      "lstrip": false,
      "rstrip": false,
      "normalized": false,
      "special": true
    },
    {
      "id": 1,
      "content": "<|unk|>",
      "single_word": false,
      "lstrip": false,
      "rstrip": false,
      "normalized": false,
      "special": true
    },
    {
      "id": 2,
      "content": "<|pad|>",
      "single_word": false,
      "lstrip": false,
      "rstrip": false,
      "normalized": false,
      "special": true
    },
    {
      "id": 3,
      "content": "<|sep|>",
      "single_word": false,
      "lstrip": false,
      "rstrip": false,
      "normalized": false,
      "special": true
    },
    {
      "id": 4,
      "content": "<|mask|>",
      "single_word": false,
      "lstrip": false,
      "rstrip": false,
      "normalized": false,
      "special": true
    }
  ],
  "normalizer": {
    "type": "BertNormalizer",
    "clean_text": true,
    "handle_chinese_chars": true,
    "strip_accents": null,
    "lowercase": false
  },
  "pre_tokenizer": {
    "type": "BertPreTokenizer"
  },
  "post_processor": null,
  "decoder": {
    "type": "BPEDecoder",
    "suffix": "</w>"
  },
  "model": {
    "type": "BPE",
    "dropout": null,
    "unk_token": "<unk>",
    "continuing_subword_prefix": null,
    "end_of_word_suffix": "</w>",
    "fuse_unk": false,
    "byte_fallback": false,
    "ignore_merges": false,
    "vocab": {
      "<|endoftext|>": 0,
      "<|unk|>": 1,
      "<|pad|>": 2,
      "<|sep|>": 3,
      "<|mask|>": 4,
      "!": 5,
      "\"": 6,
      "'": 7,
      "(": 8,
      ")": 9,
      ",": 10,
      "-": 11,
      ".": 12,
      "/": 13,
      ":": 14,
      "\\": 15,
      "ँ": 16,
      "ं": 17,
      "ः": 18,
      "अ": 19,
      "आ": 20,
      "इ": 21,
      "ई": 22,
      "उ": 23,
      "ऊ": 24,
      "ऋ": 25,
      "ए": 26,
      "ऐ": 27,
      "ऑ": 28,
      "ओ": 29,
      "औ": 30,
      "क": 31,
      "ख": 32,
      "ग": 33,
      "घ": 34,
      "ङ": 35,
      "च": 36,
      "छ": 37,
      "ज": 38,
      "झ": 39,
      "ञ": 40,
      "ट": 41,
      "ठ": 42,
      "ड": 43,
      "ढ": 44,
      "ण": 45,
      "त": 46,
      "थ": 47,
      "द": 48,
      "ध": 49,
      "न": 50,
      "प": 51,
      "फ": 52,
      "ब": 53,
      "भ": 54,
      "म": 55,
      "य": 56,
      "र": 57,
      "ल": 58,
      "व": 59,
      "श": 60,
      "ष": 61,
      "स": 62,
      "ह": 63,
      "ा": 64,
      "ि": 65,
      "ी": 66,
      "ु": 67,
      "ू": 68,
      "ृ": 69,
      "ॅ": 70,
      "े": 71,
      "ै": 72,
      "ो": 73,
      "ौ": 74,
      "्": 75,
      "।": 76,
      "०": 77,
      "१": 78,
      "२": 79,
      "३": 80,
      "४": 81,
      "५": 82,
      "६": 83,
      "७": 84,
      "८": 85,
      "९": 86,
      "ो</w>": 87,
      "ी</w>": 88,
      "ि</w>": 89,
      "म</w>": 90,
      "ा</w>": 91,
      "क</w>": 92,
      "ण</w>": 93,
      "ज</w>": 94,
      "ट</w>": 95,
      "य</w>": 96,
      "ष</w>": 97,
      "त</w>": 98,
      "े</w>": 99,
      "ई</w>": 100,
      "ग</w>": 101,
      "श</w>": 102,
      "र</w>": 103,
      "न</w>": 104,
      "८</w>": 105,
      "ठ</w>": 106,
      "ख</w>": 107,
      "ए</w>": 108,
      "ङ</w>": 109,
      "ु</w>": 110,
      "द</w>": 111,
      "स</w>": 112,
      "ं</w>": 113,
      "ल</w>": 114,
      "ै</w>": 115,
      "ू</w>": 116,
      "ध</w>": 117,
      "फ</w>": 118,
      "ह</w>": 119,
      "्</w>": 120,
      "भ</w>": 121,
      "व</w>": 122,
      "७</w>": 123,
      "थ</w>": 124,
      "छ</w>": 125,
      ".</w>": 126,
      "इ</w>": 127,
      "१</w>": 128,
      "५</w>": 129,
      "०</w>": 130,
      "ड</w>": 131,
      "२</w>": 132,
      "ः</w>": 133,
      "ँ</w>": 134,
      "३</w>": 135,
      "९</w>": 136,
      "ढ</w>": 137,
      "४</w>": 138,
      "झ</w>": 139,
      "च</w>": 140,
      "ौ</w>": 141,
      "प</w>": 142,
      "'</w>": 143,
      "ब</w>": 144,
      "उ</w>": 145,
      "६</w>": 146,
      "ओ</w>": 147,
      "ञ</w>": 148,
      "ृ</w>": 149,
      "घ</w>": 150,
      "(</w>": 151,
      ",</w>": 152,
      "!</w>": 153,
      ":</w>": 154,
      "औ</w>": 155,
      "।</w>": 156,
      "ऊ</w>": 157,
      ")</w>": 158,
      "आ</w>": 159,
      "अ</w>": 160,
      "\"</w>": 161,
      "/</w>": 162,
      "\\</w>": 163,
      "-</w>": 164,
      "को</w>": 165,
      "र्": 166,
      "्र": 167,
      "ले</w>": 168,
      "मा</w>": 169,
      "न्": 170,
      "का</w>": 171,
      "ला": 172,
      "का": 173,
      "प्र": 174,
      "्य": 175,
      "मा": 176,
      "स्": 177,
      "ने</w>": 178,
      "क्": 179,
      "रा": 180,
      "पा": 181,
      "वा": 182,
      "ने": 183,
      "नि": 184,
      "गर": 185,
      "एको</w>": 186,
      "ता": 187,
      "वि": 188,
      "खे": 189,
      "बा": 190,
      "ेको</w>": 191,
      "सम": 192,
      "िय": 193,
      "ना": 194,
      "गर्": 195,
      "लाई</w>": 196,
      "दे": 197,
      "न्</w>": 198,
      "ति": 199,
      "ता</w>": 200,
      "हा": 201,
      "हु": 202,
      "सा": 203,
      "के": 204,
      "उन": 205,
      "त्": 206,
      "ष्": 207,
      "लि": 208,
      "ल्": 209,
      "दि": 210,
      "ान": 211,
      "न्द": 212,
      "त्र": 213,
      "सं": 214,
      "रु": 215,
      "हि": 216,
      "भा": 217,
      "पन": 218,
      "निर्": 219,
      "जि": 220,
      "लाग": 221,
      "सि": 222,
      "या": 223,
      "्या": 224,
      "रि": 225,
      "री</w>": 226,
      "स्थ": 227,
      "पनि</w>": 228,
      "नु": 229,
      "ेका</w>": 230,
      "छन्</w>": 231,
      "क्ष": 232,
      "भएको</w>": 233,
      "रह": 234,
      "दै</w>": 235,
      "म्": 236,
      "एका</w>": 237,
      "खेल": 238,
      "लागि</w>": 239,
      "र्ट": 240,
      "प्रदे": 241,
      "ति</w>": 242,
      "यो": 243,
      "मि": 244,
      "जन": 245,
      "सम्": 246,
      "दा": 247,
      "कु": 248,
      "मु": 249,
      "उनले</w>": 250,
      "ट्र": 251,
      "त्य": 252,
      "दु": 253,
      "पार्ट": 254,
      "ीले</w>": 255,
      "बता": 256,
      "क्र": 257,
      "न्त्र": 258,
      "सु": 259,
      "भने</w>": 260,
      "पु": 261,
      "गरेको</w>": 262,
      "ियो</w>": 263,
      "कार्": 264,
      "चा": 265,
      "बाट</w>": 266,
      "सर": 267,
      "नेपा": 268,
      "राष्": 269,
      "पछ": 270,
      "कार": 271,
      "अध": 272,
      "निर्वा": 273,
      "गो": 274,
      "मन्त्र": 275,
      "राष्ट्र": 276,
      "निर्वाच": 277,
      "सद": 278,
      "थि": 279,
      "रो": 280,
      "ग्र": 281,
      "ली</w>": 282,
      "मे": 283,
      "ीय</w>": 284,
      "धा": 285,
      "पर्": 286,
      "एक": 287,
      "गा": 288,
      "थियो</w>": 289,
      "्यक्": 290,
      "ौं</w>": 291,
      "ले": 292,
      "बै": 293,
      "लाड": 294,
      "नै</w>": 295,
      "ीको</w>": 296,
      "खेलाड": 297,
      "कि": 298,
      "द्": 299,
      "जा": 300,
      "सँ": 301,
      "ला</w>": 302,
      "पछि</w>": 303,
      "को": 304,
      "रे": 305,
      "वाद": 306,
      "लो</w>": 307,
      "ना</w>": 308,
      "गर्ने</w>": 309,
      "एमा": 310,
      "यु": 311,
      "न्द्र": 312,
      "आफ": 313,
      "हरु": 314,
      "रहेको</w>": 315,
      "हो</w>": 316,
      "गर्न</w>": 317,
      "सह": 318,
      "थिए</w>": 319,
      "हर": 320,
      "प्रदेश</w>": 321,
      "अन्": 322,
      "्यक्ष</w>": 323,
      "सभा": 324,
      "अनु": 325,
      "गरि": 326,
      "गर्दै</w>": 327,
      "पार्टी</w>": 328,
      "ित</w>": 329,
      "बैठ": 330,
      "पू": 331,
      "स्त": 332,
      "एक</w>": 333,
      "धान": 334,
      "केन्द्र": 335,
      "लले</w>": 336,
      "शि": 337,
      "बन्": 338,
      "ण्": 339,
      "प्रदेश": 340,
      "यो</w>": 341,
      "दा</w>": 342,
      "प्रति": 343,
      "त्र</w>": 344,
      "प्": 345,
      "जित</w>": 346,
      "बार</w>": 347,
      "माओ": 348,
      "स्था": 349,
      "वर्": 350,
      "धि": 351,
      "टो": 352,
      "माओवाद": 353,
      "खेलमा</w>": 354,
      "बि": 355,
      "िय</w>": 356,
      "हुने</w>": 357,
      "भि": 358,
      "कार्य": 359,
      "माड": 360,
      "अध्यक्ष</w>": 361,
      "काठ": 362,
      "काठमाड": 363,
      "लको</w>": 364,
      "गरेका</w>": 365,
      "जे": 366,
      "बना": 367,
      "नको</w>": 368,
      "उँ": 369,
      "्रो</w>": 370,
      "लो": 371,
      "मन्त्री</w>": 372,
      "राष्ट्रिय</w>": 373,
      "खेल</w>": 374,
      "गोल</w>": 375,
      "तर्": 376,
      "नमा</w>": 377,
      "पहि": 378,
      "क्ल": 379,
      "सँग</w>": 380,
      "ेस": 381,
      "भा</w>": 382,
      "बताए</w>": 383,
      "चि": 384,
      "देख": 385,
      "ही</w>": 386,
      "श्": 387,
      "शिक्ष": 388,
      "कार</w>": 389,
      "टि": 390,
      "उन</w>": 391,
      "जना": 392,
      "फा": 393,
      "पूर्": 394,
      "परि": 395,
      "सभा</w>": 396,
      "री": 397,
      "सरकार": 398,
      "दुई</w>": 399,
      "गठ": 400,
      "उने</w>": 401,
      "पा</w>": 402,
      "राज": 403,
      "आयो": 404,
      "तथ": 405,
      "माओवादी</w>": 406,
      "रा</w>": 407,
      "सी</w>": 408,
      "लमा</w>": 409,
      "वे": 410,
      "ण्ड": 411,
      "ली": 412,
      "त्यस": 413,
      "प्रशिक्ष": 414,
      "कां": 415,
      "समा": 416,
      "तथा</w>": 417,
      "तर</w>": 418,
      "हाम": 419,
      "कारी</w>": 420,
      "से": 421,
      "समि": 422,
      "काठमाडौं</w>": 423,
      "ट्": 424,
      "बु": 425,
      "नेता</w>": 426,
      "मै": 427,
      "कांग्र": 428,
      "टा": 429,
      "मुख": 430,
      "शा": 431,
      "जो": 432,
      "जना</w>": 433,
      "निर्वाचन</w>": 434,
      "टे": 435,
      "पर्ने</w>": 436,
      "पी": 437,
      "ती": 438,
      "अव": 439,
      "भन्द": 440,
      "भए": 441,
      "गु": 442,
      "बी": 443,
      "ंग": 444,
      "यस": 445,
      "स्य": 446,
      "पे": 447,
      "पहिलो</w>": 448,
      "न्ड": 449,
      "नेता": 450,
      "हुन्</w>": 451,
      "यमा</w>": 452,
      "ल्या": 453,
      "बैठक": 454,
      "फल</w>": 455,
      "गरे</w>": 456,
      "आफ्": 457,
      "एमाले</w>": 458,
      "नेपाली</w>": 459,
      "पमा</w>": 460,
      "अघ": 461,
      "दो": 462,
      "ङ्": 463,
      "लगा": 464,
      "निर्ण": 465,
      "म्ब": 466,
      "छै": 467,
      "नेछ</w>": 468,
      "डे": 469,
      "रमा</w>": 470,
      "स्य</w>": 471,
      "बढ": 472,
      "जान": 473,
      "म्प": 474,
      "संघ": 475,
      "सी": 476,
      "गि": 477,
      "२०": 478,
      "की</w>": 479,
      "गरे": 480,
      "व्य": 481,
      "हो": 482,
      "नो</w>": 483,
      "महा": 484,
      "सार</w>": 485,
      "उप": 486,
      "रहेका</w>": 487,
      "याँ</w>": 488,
      "सो": 489,
      "समे": 490,
      "ानमा</w>": 491,
      "गरी</w>": 492,
      "विष": 493,
      "सरकार</w>": 494,
      "था": 495,
      "अघि</w>": 496,
      "कृ": 497,
      "सक्": 498,
      "खेल्": 499,
      "प्रधान": 500,
      "टमा</w>": 501,
      "नेक": 502,
      "खेलाडी</w>": 503,
      "क्त</w>": 504,
      "्र</w>": 505,
      "जन</w>": 506,
      "रण": 507,
      "बे": 508,
      "क्रम": 509,
      "नेकपा</w>": 510,
      "भएका</w>": 511,
      "केट</w>": 512,
      "सदस्य</w>": 513,
      "िया": 514,
      "मुख</w>": 515,
      "अनुसार</w>": 516,
      "वा</w>": 517,
      "ुट": 518,
      "काले</w>": 519,
      "रु</w>": 520,
      "ष्ट</w>": 521,
      "स्तै</w>": 522,
      "अर्": 523,
      "पो": 524,
      "नले</w>": 525,
      "कर्": 526,
      "रण</w>": 527,
      "तया": 528,
      "चे": 529,
      "सम्म</w>": 530,
      "गत</w>": 531,
      "नेत": 532,
      "जानकारी</w>": 533,
      "महि": 534,
      "सक": 535,
      "पीए": 536,
      "बो": 537,
      "समेत</w>": 538,
      "एकता</w>": 539,
      "समिति": 540,
      "ेर": 541,
      "लिग": 542,
      "विश्": 543,
      "सदस्य": 544,
      "ताको</w>": 545,
      "लिग</w>": 546,
      "हरु</w>": 547,
      "नयाँ</w>": 548,
      "देश": 549,
      "नका</w>": 550,
      "कांग्रेस": 551,
      "प्रा": 552,
      "र्व": 553,
      "दिए</w>": 554,
      "धि</w>": 555,
      "आफ्नो</w>": 556,
      "स्ता": 557,
      "सँग": 558,
      "एजे": 559,
      "छल": 560,
      "मत": 561,
      "ृत्": 562,
      "च्या": 563,
      "ज्": 564,
      "भन्": 565,
      "ीमा</w>": 566,
      "चु": 567,
      "सचि": 568,
      "फुट": 569,
      "तिक</w>": 570,
      "निर्णय</w>": 571,
      "बै</w>": 572,
      "हे": 573,
      "फुटब": 574,
      "ियो": 575,
      "अहि": 576,
      "भे": 577,
      "न्छ</w>": 578,
      "न्द्र</w>": 579,
      "निका": 580,
      "जित": 581,
      "दोस": 582,
      "हुँ": 583,
      "नेतृत्": 584,
      "मो": 585,
      "रले</w>": 586,
      "श्र": 587,
      "ीलाई</w>": 588,
      "केही</w>": 589,
      "रुपमा</w>": 590,
      "नेपाल</w>": 591,
      "दोस्रो</w>": 592,
      "बन्ध": 593,
      "गत": 594,
      "नुपर्ने</w>": 595,
      "जु": 596,
      "ड्": 597,
      "ग्": 598,
      "ञ्": 599,
      "एजेन्": 600,
      "टी</w>": 601,
      "डि": 602,
      "व्यव": 603,
      "परा": 604,
      "ीका</w>": 605,
      "एर</w>": 606,
      "सके": 607,
      "भाग": 608,
      "बताएका</w>": 609,
      "दै": 610,
      "बैठक</w>": 611,
      "ियन</w>": 612,
      "गरिएको</w>": 613,
      "लु": 614,
      "तीन</w>": 615,
      "काम</w>": 616,
      "बहा": 617,
      "हरुले</w>": 618,
      "एजेन्सी</w>": 619,
      "तो": 620,
      "कार्या": 621,
      "क्लब</w>": 622,
      "दान</w>": 623,
      "कै</w>": 624,
      "उपा": 625,
      "निक</w>": 626,
      "प्रधानमन्त्री</w>": 627,
      "आयोग": 628,
      "दर्": 629,
      "दुर</w>": 630,
      "क्लब": 631,
      "प्रतिनि": 632,
      "न्त": 633,
      "छैन</w>": 634,
      "बार्": 635,
      "च्याम्प": 636,
      "कम": 637,
      "दवा": 638,
      "यी</w>": 639,
      "सरकारले</w>": 640,
      "क्रि": 641,
      "खा": 642,
      "लका</w>": 643,
      "कुनै</w>": 644,
      "न्न</w>": 645,
      "मेदवा": 646,
      "कोरो": 647,
      "बहादुर</w>": 648,
      "राजन": 649,
      "नो": 650,
      "पद": 651,
      "नी</w>": 652,
      "मिने": 653,
      "उँदै</w>": 654,
      "सकेको</w>": 655,
      "ेस</w>": 656,
      "म्बर</w>": 657,
      "हुन</w>": 658,
      "राजनी": 659,
      "प्रमुख</w>": 660,
      "छलफल</w>": 661,
      "डा": 662,
      "सिलो": 663,
      "खेलकु": 664,
      "्य</w>": 665,
      "बार्सिलो": 666,
      "शर्": 667,
      "सबै</w>": 668,
      "चार</w>": 669,
      "उनको</w>": 670,
      "त्यस्तै</w>": 671,
      "गरा": 672,
      "डा</w>": 673,
      "उनी</w>": 674,
      "पूर्ण</w>": 675,
      "अन्तर्": 676,
      "वर्ष": 677,
      "देखि</w>": 678,
      "भए</w>": 679,
      "समय</w>": 680,
      "राष्ट्रिय": 681,
      "लेको</w>": 682,
      "अधि": 683,
      "बीच</w>": 684,
      "नु</w>": 685,
      "रको</w>": 686,
      "रे</w>": 687,
      "सले</w>": 688,
      "मात्र</w>": 689,
      "आज</w>": 690,
      "टु": 691,
      "सुरु</w>": 692,
      "अब</w>": 693,
      "औं</w>": 694,
      "स्व": 695,
      "मत</w>": 696,
      "िया</w>": 697,
      "भइ": 698,
      "दिएको</w>": 699,
      "णा": 700,
      "लीले</w>": 701,
      "कारण</w>": 702,
      "फर्": 703,
      "आर्": 704,
      "प्रच": 705,
      "च्": 706,
      "स्था</w>": 707,
      "ठा": 708,
      "देखि": 709,
      "टोली": 710,
      "पराजित</w>": 711,
      "धान</w>": 712,
      "लय": 713,
      "संसद": 714,
      "दिला": 715,
      "हित</w>": 716,
      "आफू": 717,
      "केन्द्रका</w>": 718,
      "भने": 719,
      "भन्दै</w>": 720,
      "फि": 721,
      "व्यक्": 722,
      "प्रतिनिधि": 723,
      "न्स</w>": 724,
      "मार्": 725,
      "लय</w>": 726,
      "विका": 727,
      "विषयमा</w>": 728,
      "ज्ञ": 729,
      "उत्": 730,
      "भन्दा</w>": 731,
      "मिनेटमा</w>": 732,
      "आज": 733,
      "इएको</w>": 734,
      "नम्बर</w>": 735,
      "वार्": 736,
      "पर": 737,
      "लेका</w>": 738,
      "सँगै</w>": 739,
      "प्रत": 740,
      "पट": 741,
      "दिन</w>": 742,
      "रन</w>": 743,
      "हरुको</w>": 744,
      "झा": 745,
      "ेष्": 746,
      "गरेर</w>": 747,
      "क्षे": 748,
      "कोरोना</w>": 749,
      "द्ध</w>": 750,
      "संवि": 751,
      "प्रतियो": 752,
      "अग्र": 753,
      "टा</w>": 754,
      "नं</w>": 755,
      "ती</w>": 756,
      "शु": 757,
      "राखे": 758,
      "गठन</w>": 759,
      "प्रतियोगि": 760,
      "समा</w>": 761,
      "तामा</w>": 762,
      "बस्": 763,
      "शी": 764,
      "विकेट</w>": 765,
      "संयो": 766,
      "सचिव</w>": 767,
      "वै</w>": 768,
      "देउ": 769,
      "पति</w>": 770,
      "न्या": 771,
      "स्प": 772,
      "बाँ": 773,
      "रिक</w>": 774,
      "खेलको</w>": 775,
      "अहिले</w>": 776,
      "सां": 777,
      "जिल्": 778,
      "युक्त</w>": 779,
      "फाइ": 780,
      "छौं</w>": 781,
      "बार्सिलोना": 782,
      "लन</w>": 783,
      "त्रै</w>": 784,
      "अं": 785,
      "राख": 786,
      "पुग": 787,
      "एमाले": 788,
      "मान</w>": 789,
      "सहम": 790,
      "हरू": 791,
      "मुख्य": 792,
      "भन्ने</w>": 793,
      "आई": 794,
      "िक</w>": 795,
      "दलको</w>": 796,
      "नन्</w>": 797,
      "सभाको</w>": 798,
      "महिला</w>": 799,
      "मैद": 800,
      "ही": 801,
      "निर्मा": 802,
      "प्रदेशसभा</w>": 803,
      "आइ": 804,
      "राम": 805,
      "केन्द्रीय</w>": 806,
      "ध्य": 807,
      "द्ध": 808,
      "हामी</w>": 809,
      "बैठकले</w>": 810,
      "खेलकुद</w>": 811,
      "पटक</w>": 812,
      "खु": 813,
      "दल": 814,
      "विरु": 815,
      "तर्फ</w>": 816,
      "श्रेष्": 817,
      "न्ट": 818,
      "पक्ष": 819,
      "च्याम्पिय": 820,
      "स्थानमा</w>": 821,
      "टै</w>": 822,
      "लगाय": 823,
      "नेतृत्व": 824,
      "अग्रता</w>": 825,
      "मह": 826,
      "कुरा</w>": 827,
      "राजनीतिक</w>": 828,
      "चौ": 829,
      "सो</w>": 830,
      "प्त</w>": 831,
      "पी</w>": 832,
      "मी</w>": 833,
      "सकि": 834,
      "विश्व": 835,
      "वै": 836,
      "पालि": 837,
      "पौ": 838,
      "बस": 839,
      "मै</w>": 840,
      "हुन्छ</w>": 841,
      "जारी</w>": 842,
      "क्रममा</w>": 843,
      "्रा": 844,
      "पाँ": 845,
      "खेलाडीको</w>": 846,
      "पछि": 847,
      "निर्वाचित</w>": 848,
      "गते</w>": 849,
      "पार्टीको</w>": 850,
      "दुवै</w>": 851,
      "रेल": 852,
      "जी</w>": 853,
      "वास</w>": 854,
      "देश</w>": 855,
      "स्थान": 856,
      "पुन": 857,
      "सञ्": 858,
      "स्ट": 859,
      "ल्यान्ड": 860,
      "भयो</w>": 861,
      "शन</w>": 862,
      "हाल</w>": 863,
      "ओली</w>": 864,
      "भित्र</w>": 865,
      "धेर": 866,
      "िम": 867,
      "राति</w>": 868,
      "उमेदवा": 869,
      "यन</w>": 870,
      "१०</w>": 871,
      "उनी": 872,
      "मन्त्रा": 873,
      "फाइन": 874,
      "भू": 875,
      "राजधान": 876,
      "समिति</w>": 877,
      "समितिको</w>": 878,
      "निर्वाचनमा</w>": 879,
      "सहित</w>": 880,
      "इङ्": 881,
      "आव": 882,
      "हुनेछ</w>": 883,
      "ियर</w>": 884,
      "भाव": 885,
      "स्तो</w>": 886,
      "प्रशिक्षण</w>": 887,
      "सक्ने</w>": 888,
      "चुना": 889,
      "रेलु</w>": 890,
      "घरेलु</w>": 891,
      "सिजन</w>": 892,
      "एमालेका</w>": 893,
      "कांग्रेस</w>": 894,
      "पौडे": 895,
      "पत्र": 896,
      "रो</w>": 897,
      "सको</w>": 898,
      "नुपर्": 899,
      "ब्": 900,
      "परिष": 901,
      "यस</w>": 902,
      "सर्व": 903,
      "जनाएको</w>": 904,
      "आएको</w>": 905,
      "तको</w>": 906,
      "कको</w>": 907,
      "सफल</w>": 908,
      "र्ष</w>": 909,
      "मात्रै</w>": 910,
      "नाइ": 911,
      "अन्ति": 912,
      "शर्मा</w>": 913,
      "एन्": 914,
      "छा": 915,
      "रास": 916,
      "कुमा": 917,
      "नलाई</w>": 918,
      "योग</w>": 919,
      "वक्": 920,
      "आयोजना</w>": 921,
      "अदा": 922,
      "निय": 923,
      "अदाल": 924,
      "स्थाप": 925,
      "धेरै</w>": 926,
      "घो": 927,
      "एपछि</w>": 928,
      "छु</w>": 929,
      "तिमा</w>": 930,
      "तयार</w>": 931,
      "विकास</w>": 932,
      "श्य": 933,
      "स्थायी</w>": 934,
      "जर्": 935,
      "योग": 936,
      "फुटबल</w>": 937,
      "संसदीय</w>": 938,
      "प्रक्र": 939,
      "प्रिम": 940,
      "बैठकमा</w>": 941,
      "प्रिमियर</w>": 942,
      "चको</w>": 943,
      "नाम</w>": 944,
      "दिने</w>": 945,
      "सम्प": 946,
      "अन्य</w>": 947,
      "सीले</w>": 948,
      "स्ट</w>": 949,
      "क्रिकेट</w>": 950,
      "आजको</w>": 951,
      "डि</w>": 952,
      "त्यसै": 953,
      "हामीले</w>": 954,
      "बरा": 955,
      "ब्या": 956,
      "ममा</w>": 957,
      "प्रशिक्षक</w>": 958,
      "मैदानमा</w>": 959,
      "च्याम्पियन्स</w>": 960,
      "यता</w>": 961,
      "स्वा": 962,
      "आयोगले</w>": 963,
      "राष्ट्रियसभा</w>": 964,
      "अन्तिम</w>": 965,
      "्यु": 966,
      "क्षेत्र": 967,
      "सबै": 968,
      "्यान": 969,
      "बाहि": 970,
      "ल्लो</w>": 971,
      "स्थित</w>": 972,
      "प्ता": 973,
      "नी": 974,
      "गर्दा</w>": 975,
      "मेस्": 976,
      "नग": 977,
      "बी</w>": 978,
      "हरुलाई</w>": 979,
      "गठबन्ध": 980,
      "सार्व": 981,
      "प्राप्त</w>": 982,
      "र्थ": 983,
      "विद": 984,
      "उनु": 985,
      "भार": 986,
      "मिला": 987,
      "चाह": 988,
      "ण्डा": 989,
      "प्रचण्ड": 990,
      "देउवा": 991,
      "आवश्य": 992,
      "जनिक</w>": 993,
      "णा</w>": 994,
      "तयारी</w>": 995,
      "लिगको</w>": 996,
      "अगा": 997,
      "डो": 998,
      "केपी</w>": 999,
      "कृष्ट</w>": 1000,
      "सार्वजनिक</w>": 1001,
      "अध्य": 1002,
      "सन्द": 1003,
      "निकाल्": 1004,
      "खो": 1005,
      "तले</w>": 1006,
      "पीएस": 1007,
      "उत्कृष्ट</w>": 1008,
      "कमा</w>": 1009,
      "भएकाले</w>": 1010,
      "अंक</w>": 1011,
      "जी": 1012,
      "सन</w>": 1013,
      "यसअघि</w>": 1014,
      "घोष": 1015,
      "तमा</w>": 1016,
      "माग</w>": 1017,
      "दिएका</w>": 1018,
      "पुष्": 1019,
      "राज</w>": 1020,
      "वाद</w>": 1021,
      "आधा": 1022,
      "घा": 1023,
      "दन</w>": 1024,
      "ताका</w>": 1025,
      "वर्ष</w>": 1026,
      "सहमति</w>": 1027,
      "राजधानी</w>": 1028,
      "नगर": 1029,
      "प्रदेशको</w>": 1030,
      "समानु": 1031,
      "बुध": 1032,
      "त्का": 1033,
      "बराब": 1034,
      "समानुपा": 1035,
      "उल्": 1036,
      "वी</w>": 1037,
      "ौँ</w>": 1038,
      "नामा</w>": 1039,
      "खेलाडी": 1040,
      "सहभाग": 1041,
      "उपाधि</w>": 1042,
      "कार्य</w>": 1043,
      "बनाउने</w>": 1044,
      "मुख्य</w>": 1045,
      "शीर्ष</w>": 1046,
      "दैन</w>": 1047,
      "तका</w>": 1048,
      "दी": 1049,
      "प्रदर्": 1050,
      "पूर्व": 1051,
      "फो": 1052,
      "मुख्यमन्त्री</w>": 1053,
      "छि": 1054,
      "आएका</w>": 1055,
      "मलाई</w>": 1056,
      "रिय": 1057,
      "ललाई</w>": 1058,
      "सका</w>": 1059,
      "स्पे": 1060,
      "कप्ता": 1061,
      "मन</w>": 1062,
      "प्रशिक्षण": 1063,
      "वन</w>": 1064,
      "सद</w>": 1065,
      "गर्नुपर्ने</w>": 1066,
      "परिणा": 1067,
      "आईपीए": 1068,
      "लीको</w>": 1069,
      "ंगल": 1070,
      "सञ्चा": 1071,
      "वक्ता</w>": 1072,
      "मंगल": 1073,
      "समू": 1074,
      "त्व": 1075,
      "वर्त": 1076,
      "विरुद्ध</w>": 1077,
      "जे</w>": 1078,
      "रू": 1079,
      "रनको</w>": 1080,
      "्रो": 1081,
      "निर्माण</w>": 1082,
      "बसेको</w>": 1083,
      "घोषणा</w>": 1084,
      "करण</w>": 1085,
      "वी": 1086,
      "ण्ड</w>": 1087,
      "टोली</w>": 1088,
      "राख्": 1089,
      "पाँच</w>": 1090,
      "नभएको</w>": 1091,
      "हजा": 1092,
      "त्यो</w>": 1093,
      "पोख": 1094,
      "बाँकी</w>": 1095,
      "सिजन": 1096,
      "बारे</w>": 1097,
      "सम्पन्न</w>": 1098,
      "धा</w>": 1099,
      "कार्यक्रममा</w>": 1100,
      "संविधान": 1101,
      "एव": 1102,
      "तत्का": 1103,
      "भना": 1104,
      "१५</w>": 1105,
      "जित्": 1106,
      "बढ्": 1107,
      "खेल्न</w>": 1108,
      "जिल्ला</w>": 1109,
      "माथ": 1110,
      "वान</w>": 1111,
      "ताले</w>": 1112,
      "समय": 1113,
      "पूरा</w>": 1114,
      "गुमा": 1115,
      "वेश</w>": 1116,
      "टुंग": 1117,
      "रका</w>": 1118,
      "प्रसा": 1119,
      "सिं": 1120,
      "धारण": 1121,
      "एकताको</w>": 1122,
      "बुधबार</w>": 1123,
      "भण्डा": 1124,
      "शे": 1125,
      "बीचको</w>": 1126,
      "व्यवस्था</w>": 1127,
      "स्पर्": 1128,
      "सम्बन्ध": 1129,
      "सोम": 1130,
      "परेको</w>": 1131,
      "तेस": 1132,
      "सन्</w>": 1133,
      "अन्तर्राष्ट्रिय</w>": 1134,
      "सहभागी</w>": 1135,
      "क्या": 1136,
      "रक्ष": 1137,
      "वाम</w>": 1138,
      "रुप": 1139,
      "सुरु": 1140,
      "गोलको</w>": 1141,
      "थिक</w>": 1142,
      "युनाइ": 1143,
      "मंगलबार</w>": 1144,
      "बल": 1145,
      "काको</w>": 1146,
      "नेतृत्व</w>": 1147,
      "पछिल्लो</w>": 1148,
      "अध्यक्ष": 1149,
      "दल</w>": 1150,
      "पति": 1151,
      "२०</w>": 1152,
      "जिम्": 1153,
      "युनाइटे": 1154,
      "लिएको</w>": 1155,
      "कर्म": 1156,
      "आर्थिक</w>": 1157,
      "सांसद</w>": 1158,
      "दिन": 1159,
      "बन्ध</w>": 1160,
      "व्यक्ति": 1161,
      "आइत": 1162,
      "तह": 1163,
      "बने": 1164,
      "मुलु": 1165,
      "बताउँदै</w>": 1166,
      "सभापति</w>": 1167,
      "रीमा</w>": 1168,
      "स्थानीय</w>": 1169,
      "अगाडि</w>": 1170,
      "तेस्रो</w>": 1171,
      "यू": 1172,
      "नेछन्</w>": 1173,
      "हाँ": 1174,
      "परिणाम</w>": 1175,
      "छनो": 1176,
      "पि": 1177,
      "मध्य": 1178,
      "सू": 1179,
      "त्म": 1180,
      "तर्फ": 1181,
      "कमल</w>": 1182,
      "फर्कि": 1183,
      "नव": 1184,
      "कार्यालय</w>": 1185,
      "संयोज": 1186,
      "इङ्ल्यान्ड": 1187,
      "ँदै</w>": 1188,
      "सिट": 1189,
      "हजार</w>": 1190,
      "सर</w>": 1191,
      "्यो</w>": 1192,
      "लागेको</w>": 1193,
      "खेलाडीलाई</w>": 1194,
      "युवा</w>": 1195,
      "कुमार</w>": 1196,
      "माथि</w>": 1197,
      "अभ": 1198,
      "परी": 1199,
      "राई": 1200,
      "सामा": 1201,
      "रहे": 1202,
      "बुझा": 1203,
      "अवस्था": 1204,
      "बेला</w>": 1205,
      "च्च</w>": 1206,
      "योजना": 1207,
      "ख्य": 1208,
      "धन</w>": 1209,
      "फा</w>": 1210,
      "सर्": 1211,
      "हरू</w>": 1212,
      "भएपछि</w>": 1213,
      "हुँदा</w>": 1214,
      "उपाध": 1215,
      "एस": 1216,
      "क्ष</w>": 1217,
      "नाल्": 1218,
      "खेलेका</w>": 1219,
      "भनेर</w>": 1220,
      "औँ</w>": 1221,
      "कप</w>": 1222,
      "१३</w>": 1223,
      "माले</w>": 1224,
      "पार्टीका</w>": 1225,
      "वादी</w>": 1226,
      "स्थान</w>": 1227,
      "त्यसपछि</w>": 1228,
      "कले</w>": 1229,
      "लियन</w>": 1230,
      "प्रवक्ता</w>": 1231,
      "पाकि": 1232,
      "रिस</w>": 1233,
      "प्रतिस्पर्": 1234,
      "कांग्रेसका</w>": 1235,
      "आवश्यक</w>": 1236,
      "सन्दी": 1237,
      "डले</w>": 1238,
      "न्दो": 1239,
      "निर्वाचनको</w>": 1240,
      "भट्": 1241,
      "नियुक्त</w>": 1242,
      "सभामा</w>": 1243,
      "धी": 1244,
      "मको</w>": 1245,
      "क्ष्": 1246,
      "लाग्": 1247,
      "दाबी</w>": 1248,
      "कुरा": 1249,
      "बनाउन</w>": 1250,
      "दिलाए</w>": 1251,
      "भूमि": 1252,
      "प्रसाद</w>": 1253,
      "आइतबार</w>": 1254,
      "पाकिस्ता": 1255,
      "उक्त</w>": 1256,
      "एफ": 1257,
      "लग": 1258,
      "लक्ष्": 1259,
      "देखिएको</w>": 1260,
      "एमालेले</w>": 1261,
      "भर": 1262,
      "सिफा": 1263,
      "सोमबार</w>": 1264,
      "फ्र": 1265,
      "माघ</w>": 1266,
      "स्त</w>": 1267,
      "हाल": 1268,
      "प्रदेशमा</w>": 1269,
      "बोला": 1270,
      "एउ": 1271,
      "बढा": 1272,
      "उल्ले": 1273,
      "रेको</w>": 1274,
      "स्</w>": 1275,
      "पार्": 1276,
      "पार्टी": 1277,
      "बिही": 1278,
      "बनाएको</w>": 1279,
      "श्रेष्ठ": 1280,
      "कप्तान</w>": 1281,
      "थप</w>": 1282,
      "लामा</w>": 1283,
      "बहु": 1284,
      "मो</w>": 1285,
      "मले</w>": 1286,
      "प्रका": 1287,
      "निस</w>": 1288,
      "हार</w>": 1289,
      "गुरु": 1290,
      "अन्तर्गत</w>": 1291,
      "पुष्प": 1292,
      "आन्दो": 1293,
      "चर्": 1294,
      "१२</w>": 1295,
      "संक्रम": 1296,
      "सिरि": 1297,
      "याद": 1298,
      "अन्त": 1299,
      "मैले</w>": 1300,
      "विद्या": 1301,
      "ठू": 1302,
      "मका</w>": 1303,
      "प्रस्ता": 1304,
      "विभि": 1305,
      "संघ</w>": 1306,
      "स्थि": 1307,
      "गमा</w>": 1308,
      "शेर": 1309,
      "केट": 1310,
      "सरकारमा</w>": 1311,
      "अर्को</w>": 1312,
      "भइरहेको</w>": 1313,
      "मू": 1314,
      "थिए": 1315,
      "धिक</w>": 1316,
      "संघीय</w>": 1317,
      "तोक्": 1318,
      "पुष्पकमल</w>": 1319,
      "ँदा</w>": 1320,
      "कस": 1321,
      "पथ</w>": 1322,
      "प्रवेश</w>": 1323,
      "बाह": 1324,
      "क्रम</w>": 1325,
      "समाज": 1326,
      "स्पष्ट</w>": 1327,
      "उल्लेख</w>": 1328,
      "इन</w>": 1329,
      "भो": 1330,
      "यर्": 1331,
      "स्ट्र": 1332,
      "हाफ": 1333,
      "सम्झ": 1334,
      "नेपालको</w>": 1335,
      "मेवा": 1336,
      "स्वर्": 1337,
      "स्टा": 1338,
      "रेमा</w>": 1339,
      "सकेका</w>": 1340,
      "्युनि": 1341,
      "प्रदर्शन</w>": 1342,
      "जिम्मेवा": 1343,
      "कर्मचा": 1344,
      "उम्": 1345,
      "पठा": 1346,
      "नेपालले</w>": 1347,
      "गाउँ": 1348,
      "सरकारको</w>": 1349,
      "प्रतिनिधिसभा</w>": 1350,
      "अस्थायी</w>": 1351,
      "म्या": 1352,
      "सहज</w>": 1353,
      "अवस्था</w>": 1354,
      "सँगको</w>": 1355,
      "संयोजन</w>": 1356,
      "परीक्ष": 1357,
      "छो": 1358,
      "११</w>": 1359,
      "नेमा</w>": 1360,
      "उनलाई</w>": 1361,
      "समान</w>": 1362,
      "प्रक्रिया</w>": 1363,
      "उम्मेदवा": 1364,
      "बन्ने</w>": 1365,
      "लोक": 1366,
      "बजे</w>": 1367,
      "प्रति</w>": 1368,
      "बारेमा</w>": 1369,
      "न्याया": 1370,
      "साथ": 1371,
      "योजना</w>": 1372,
      "संविधान</w>": 1373,
      "करण": 1374,
      "क्ति</w>": 1375,
      "केन्द्र</w>": 1376,
      "धारणा</w>": 1377,
      "ते": 1378,
      "लित</w>": 1379,
      "सभामुख</w>": 1380,
      "खेल्दै</w>": 1381,
      "लिगमा</w>": 1382,
      "त्यसैले</w>": 1383,
      "भनि": 1384,
      "शो": 1385,
      "सन": 1386,
      "१९</w>": 1387,
      "तालि": 1388,
      "हाँ</w>": 1389,
      "रहने</w>": 1390,
      "गामी</w>": 1391,
      "सहयोग</w>": 1392,
      "थापा": 1393,
      "चेल्": 1394,
      "संयोजक</w>": 1395,
      "टो</w>": 1396,
      "नहुने</w>": 1397,
      "लयमा</w>": 1398,
      "२१</w>": 1399,
      "लामो</w>": 1400,
      "सूच": 1401,
      "इन्</w>": 1402,
      "पुर</w>": 1403,
      "बिहा": 1404,
      "पूर्व</w>": 1405,
      "वेश": 1406,
      "हाम्रो</w>": 1407,
      "प्रतियोगिता</w>": 1408,
      "तय</w>": 1409,
      "पत्र</w>": 1410,
      "यमा": 1411,
      "ृद्": 1412,
      "न्ड</w>": 1413,
      "विज्ञ": 1414,
      "फाइनलमा</w>": 1415,
      "गृ": 1416,
      "यस्तो</w>": 1417,
      "ङ्ग": 1418,
      "सीलाई</w>": 1419,
      "निकालेको</w>": 1420,
      "राम्रो</w>": 1421,
      "श्रेष्ठ</w>": 1422,
      "अवस्थामा</w>": 1423,
      "१६</w>": 1424,
      "साथ</w>": 1425,
      "मैदान</w>": 1426,
      "मन्त्रालय": 1427,
      "योजनामा</w>": 1428,
      "अन": 1429,
      "के</w>": 1430,
      "चित</w>": 1431,
      "्रख": 1432,
      "पना</w>": 1433,
      "दाहाल</w>": 1434,
      "पदक</w>": 1435,
      "भावना</w>": 1436,
      "रासस</w>": 1437,
      "टुंगो</w>": 1438,
      "भट्ट": 1439,
      "बिहीबार</w>": 1440,
      "शेरबहादुर</w>": 1441,
      "कता</w>": 1442,
      "त्व</w>": 1443,
      "नुपर्छ</w>": 1444,
      "बाह्रख": 1445,
      "सा</w>": 1446,
      "न्त्र</w>": 1447,
      "क्वा": 1448,
      "खेलेको</w>": 1449,
      "जोड": 1450,
      "खेल्ने</w>": 1451,
      "सर्वो": 1452,
      "स्पेनिस</w>": 1453,
      "नगर</w>": 1454,
      "उपाध्यक्ष</w>": 1455,
      "बल</w>": 1456,
      "रीले</w>": 1457,
      "समस्य": 1458,
      "लिए</w>": 1459,
      "स्थग": 1460,
      "टोलीका</w>": 1461,
      "इरा": 1462,
      "चयन</w>": 1463,
      "जा</w>": 1464,
      "ताव": 1465,
      "आफू</w>": 1466,
      "कांग्रेसले</w>": 1467,
      "परिषद": 1468,
      "आगामी</w>": 1469,
      "इन्ड": 1470,
      "पन्": 1471,
      "हुँदै</w>": 1472,
      "प्रचण्ड</w>": 1473,
      "एवं</w>": 1474,
      "ओभ": 1475,
      "कर</w>": 1476,
      "प्रमुख": 1477,
      "चित": 1478,
      "लगायत</w>": 1479,
      "उमेदवार</w>": 1480,
      "समानुपाति": 1481,
      "गाउँपालि": 1482,
      "बाह्रखरी": 1483,
      "समस्या</w>": 1484,
      "खर्": 1485,
      "मनो": 1486,
      "ेर</w>": 1487,
      "मन्त्रि": 1488,
      "कोइरा": 1489,
      "जितेको</w>": 1490,
      "प्रत्य": 1491,
      "त्रि": 1492,
      "चारिक</w>": 1493,
      "हाफमा</w>": 1494,
      "स्थगित</w>": 1495,
      "आग्र": 1496,
      "चरण": 1497,
      "पद</w>": 1498,
      "पराज": 1499,
      "रै</w>": 1500,
      "निर्देश": 1501,
      "क्रा": 1502,
      "युभे": 1503,
      "राजी": 1504,
      "छैनन्</w>": 1505,
      "द्य": 1506,
      "१४</w>": 1507,
      "रोध</w>": 1508,
      "स्वी": 1509,
      "बस्ने</w>": 1510,
      "आधारमा</w>": 1511,
      "सुरुवा": 1512,
      "विभिन्न</w>": 1513,
      "अल्": 1514,
      "स्रो": 1515,
      "समु": 1516,
      "जिक</w>": 1517,
      "पार्टीले</w>": 1518,
      "मेरो</w>": 1519,
      "कृत</w>": 1520,
      "बाहिर</w>": 1521,
      "न्व": 1522,
      "पारी</w>": 1523,
      "समयमा</w>": 1524,
      "कार्यालय": 1525,
      "चुनाव": 1526,
      "स्वास्थ": 1527,
      "बिहान</w>": 1528,
      "ओली": 1529,
      "बजे": 1530,
      "नारा": 1531,
      "दिव": 1532,
      "बिमा</w>": 1533,
      "नेताहरुले</w>": 1534,
      "पीएसज": 1535,
      "भनाइ</w>": 1536,
      "कमि": 1537,
      "ढि": 1538,
      "तालाई</w>": 1539,
      "तिहा": 1540,
      "साम": 1541,
      "त्त": 1542,
      "लिन</w>": 1543,
      "संख्य": 1544,
      "बन्द</w>": 1545,
      "दर्ता</w>": 1546,
      "शत": 1547,
      "ौं": 1548,
      "राष्ट्रपति</w>": 1549,
      "जाने</w>": 1550,
      "परिवर्त": 1551,
      "च्याम्पियन</w>": 1552,
      "सम्झौ": 1553,
      "कि</w>": 1554,
      "गति": 1555,
      "डी</w>": 1556,
      "धु": 1557,
      "ब्रा": 1558,
      "उनका</w>": 1559,
      "रित</w>": 1560,
      "एन्फा": 1561,
      "नगरपालि": 1562,
      "आग्रह</w>": 1563,
      "नेयमा": 1564,
      "नाको</w>": 1565,
      "शासन</w>": 1566,
      "फत</w>": 1567,
      "दिल्": 1568,
      "बताइएको</w>": 1569,
      "खेलाडीले</w>": 1570,
      "द्धा": 1571,
      "लगायतका</w>": 1572,
      "मध्ये</w>": 1573,
      "न्यायाधी": 1574,
      "झै</w>": 1575,
      "दलले</w>": 1576,
      "फल": 1577,
      "सय</w>": 1578,
      "ष्ट": 1579,
      "राष्ट्रपति": 1580,
      "कार्यक्रम</w>": 1581,
      "भएर</w>": 1582,
      "संघले</w>": 1583,
      "त्वपूर्ण</w>": 1584,
      "सिजनको</w>": 1585,
      "तत्काल</w>": 1586,
      "ठूलो</w>": 1587,
      "ओलीले</w>": 1588,
      "पर</w>": 1589,
      "३०</w>": 1590,
      "राम</w>": 1591,
      "जनताको</w>": 1592,
      "नेतृत्वको</w>": 1593,
      "ह्": 1594,
      "पोर्": 1595,
      "लक्ष्य</w>": 1596,
      "निकै</w>": 1597,
      "मिल्": 1598,
      "सभाका</w>": 1599,
      "विषय</w>": 1600,
      "विश्वास</w>": 1601,
      "द्धको</w>": 1602,
      "श्रेष्ठले</w>": 1603,
      "प्रस्ताव</w>": 1604,
      "उहाँ": 1605,
      "गौ": 1606,
      "तन्त्र</w>": 1607,
      "दलका</w>": 1608,
      "२४</w>": 1609,
      "समर्थ": 1610,
      "आरो": 1611,
      "कल्": 1612,
      "भ्र": 1613,
      "शपथ</w>": 1614,
      "न्द</w>": 1615,
      "पाण्ड": 1616,
      "सम्भावना</w>": 1617,
      "नेपालमा</w>": 1618,
      "देखा": 1619,
      "समूह": 1620,
      "प्रतिस्पर्धा</w>": 1621,
      "स्वर्ण</w>": 1622,
      "पको</w>": 1623,
      "काम": 1624,
      "लिएका</w>": 1625,
      "मुद्": 1626,
      "केन्द्रले</w>": 1627,
      "होइन</w>": 1628,
      "थापा</w>": 1629,
      "अधिकार": 1630,
      "बार्सिलोनाले</w>": 1631,
      "प्रचण्डले</w>": 1632,
      "भूमिका</w>": 1633,
      "आन्त": 1634,
      "कम्": 1635,
      "पले</w>": 1636,
      "फे": 1637,
      "न्ट</w>": 1638,
      "प्रया": 1639,
      "स्ता</w>": 1640,
      "पाएको</w>": 1641,
      "शर्माले</w>": 1642,
      "शुक्र": 1643,
      "पौडेल</w>": 1644,
      "राजीनामा</w>": 1645,
      "मण": 1646,
      "रीको</w>": 1647,
      "१८</w>": 1648,
      "काँ": 1649,
      "विधि</w>": 1650,
      "अवसर</w>": 1651,
      "प्रधानमन्त्र": 1652,
      "सिफारिस</w>": 1653,
      "आन्तरिक</w>": 1654,
      "उमे": 1655,
      "लाइ": 1656,
      "मान": 1657,
      "विज": 1658,
      "गर्नु</w>": 1659,
      "तिको</w>": 1660,
      "भागि": 1661,
      "पहिले</w>": 1662,
      "ल्यान्ड</w>": 1663,
      "बढी</w>": 1664,
      "सदस्यको</w>": 1665,
      "राईले</w>": 1666,
      "कम</w>": 1667,
      "पे</w>": 1668,
      "फ्रा": 1669,
      "वटा</w>": 1670,
      "न्टी</w>": 1671,
      "प्रजा": 1672,
      "प्रणा": 1673,
      "पारे</w>": 1674,
      "भारो": 1675,
      "सहभागि": 1676,
      "समितिले</w>": 1677,
      "स्टर</w>": 1678,
      "स्थापन</w>": 1679,
      "बलियो</w>": 1680,
      "छु": 1681,
      "सलाई</w>": 1682,
      "लाख</w>": 1683,
      "काका</w>": 1684,
      "भाइ": 1685,
      "्यान</w>": 1686,
      "धारा</w>": 1687,
      "गरिने</w>": 1688,
      "मतदा": 1689,
      "आफूलाई</w>": 1690,
      "व्यक्त</w>": 1691,
      "बराबरी</w>": 1692,
      "त्मक</w>": 1693,
      "खि": 1694,
      "भी": 1695,
      "निवास</w>": 1696,
      "उँदा</w>": 1697,
      "त्यसको</w>": 1698,
      "संघका</w>": 1699,
      "विषय": 1700,
      "पुगेको</w>": 1701,
      "नेतृत्वमा</w>": 1702,
      "देउवाले</w>": 1703,
      "विज्ञप्": 1704,
      "समानुपातिक": 1705,
      "नाराय": 1706,
      "ङले</w>": 1707,
      "या</w>": 1708,
      "यही</w>": 1709,
      "हरा": 1710,
      "र्या": 1711,
      "्रि": 1712,
      "वान्टी</w>": 1713,
      "विभाग": 1714,
      "सिल": 1715,
      "मुम्ब": 1716,
      "अनुबन्ध</w>": 1717,
      "जोड</w>": 1718,
      "सर्वा": 1719,
      "अझै</w>": 1720,
      "चो": 1721,
      "चन्द्र</w>": 1722,
      "बलि": 1723,
      "बन्द": 1724,
      "लियो": 1725,
      "वली</w>": 1726,
      "शनि": 1727,
      "न्टि": 1728,
      "निष्": 1729,
      "सात</w>": 1730,
      "गोल": 1731,
      "श्व": 1732,
      "मार्फत</w>": 1733,
      "निर्माण": 1734,
      "पुनः</w>": 1735,
      "गृह": 1736,
      "पाउने</w>": 1737,
      "पुग्": 1738,
      "कम्युनि": 1739,
      "देउवा</w>": 1740,
      "हरूले</w>": 1741,
      "जर्मन</w>": 1742,
      "योगदान</w>": 1743,
      "उनुपर्ने</w>": 1744,
      "निकाल्दै</w>": 1745,
      "जिम्मेवारी</w>": 1746,
      "परीक्षण</w>": 1747,
      "सर्वाधिक</w>": 1748,
      "केको</w>": 1749,
      "गे": 1750,
      "फर": 1751,
      "भु": 1752,
      "नियु": 1753,
      "क्षा</w>": 1754,
      "रीका</w>": 1755,
      "भनेको</w>": 1756,
      "मुख्यमन्त्र": 1757,
      "परिषद्": 1758,
      "भारत": 1759,
      "पदा": 1760,
      "तान्त्र": 1761,
      "त्तो": 1762,
      "प्रतिश": 1763,
      "खेलकुद": 1764,
      "पुगेका</w>": 1765,
      "बर्": 1766,
      "२५</w>": 1767,
      "न्य": 1768,
      "न्य</w>": 1769,
      "त्ता</w>": 1770,
      "ग्रह": 1771,
      "फुटबलमा</w>": 1772,
      "क्लबले</w>": 1773,
      "प्रतियोगितामा</w>": 1774,
      "विश्वकप</w>": 1775,
      "्यानले</w>": 1776,
      "सर्वोच्च</w>": 1777,
      "परिषद्</w>": 1778,
      "तु": 1779,
      "भन्</w>": 1780,
      "सन्": 1781,
      "बाल": 1782,
      "२०७": 1783,
      "अहिले": 1784,
      "वार्ता</w>": 1785,
      "एउटा</w>": 1786,
      "ीकरण</w>": 1787,
      "नेताहरु</w>": 1788,
      "सोही</w>": 1789,
      "सञ्चालन</w>": 1790,
      "थापाले</w>": 1791,
      "भारोत्तो": 1792,
      "कीय</w>": 1793,
      "यस्तै</w>": 1794,
      "कामा</w>": 1795,
      "सुरक्ष": 1796,
      "मेल": 1797,
      "युरो": 1798,
      "टेस्ट</w>": 1799,
      "क्लबका</w>": 1800,
      "सांसद": 1801,
      "विरुद्धको</w>": 1802,
      "आन्दोल": 1803,
      "काँग्र": 1804,
      "इन्ट": 1805,
      "नसकेको</w>": 1806,
      "बर</w>": 1807,
      "भर्": 1808,
      "है": 1809,
      "१७</w>": 1810,
      "लाको</w>": 1811,
      "समृद्": 1812,
      "लिभर": 1813,
      "दाय": 1814,
      "पुर": 1815,
      "पुरु": 1816,
      "धार</w>": 1817,
      "किएको</w>": 1818,
      "सीआ": 1819,
      "महाधि": 1820,
      "फाइनल</w>": 1821,
      "करि": 1822,
      "सिट</w>": 1823,
      "गरिरहेको</w>": 1824,
      "जनाको</w>": 1825,
      "कांग्रेसको</w>": 1826,
      "क्षेत्र</w>": 1827,
      "मन्त्रालय</w>": 1828,
      "प्रशिक्षणमा</w>": 1829,
      "गुरुङ</w>": 1830,
      "त्</w>": 1831,
      "यक</w>": 1832,
      "कानु": 1833,
      "विशे": 1834,
      "बार": 1835,
      "नेपालका</w>": 1836,
      "सामाजिक</w>": 1837,
      "ओभरमा</w>": 1838,
      "शुक्रबार</w>": 1839,
      "कट</w>": 1840,
      "घट": 1841,
      "थो</w>": 1842,
      "वले</w>": 1843,
      "सीको</w>": 1844,
      "कान": 1845,
      "प्रेस</w>": 1846,
      "त्य</w>": 1847,
      "दाहा": 1848,
      "सभामुख": 1849,
      "गठनको</w>": 1850,
      "सहभागिता</w>": 1851,
      "तान्त्रिक</w>": 1852,
      "टका</w>": 1853,
      "नति": 1854,
      "रलाई</w>": 1855,
      "लक": 1856,
      "विजे": 1857,
      "नामा": 1858,
      "पर्छ</w>": 1859,
      "जोड्": 1860,
      "गरेपछि</w>": 1861,
      "महामा": 1862,
      "आफूले</w>": 1863,
      "स्टार</w>": 1864,
      "स्वास्थ्य</w>": 1865,
      "भाइर": 1866,
      "सिलवा": 1867,
      "पदाधि": 1868,
      "प्रतिशत</w>": 1869,
      "लिभरपु": 1870,
      "खड्": 1871,
      "दृ": 1872,
      "दलित</w>": 1873,
      "सफल": 1874,
      "हले</w>": 1875,
      "हरी</w>": 1876,
      "निश्": 1877,
      "मित</w>": 1878,
      "गोवि": 1879,
      "टोलीको</w>": 1880,
      "पीसीआ": 1881,
      "निर्णय": 1882,
      "रासस": 1883,
      "छनोट</w>": 1884,
      "गौत": 1885,
      "आरोप</w>": 1886,
      "१९": 1887,
      "राई</w>": 1888,
      "सम्मान</w>": 1889,
      "अध्या": 1890,
      "गोलले</w>": 1891,
      "एकी</w>": 1892,
      "ियाले</w>": 1893,
      "मतदान</w>": 1894,
      "फर्का": 1895,
      "दिलाएका</w>": 1896,
      "पोखरे": 1897,
      "की": 1898,
      "क्</w>": 1899,
      "चा</w>": 1900,
      "जमै": 1901,
      "नसक्": 1902,
      "गर्नु": 1903,
      "लिने</w>": 1904,
      "रुप</w>": 1905,
      "भार</w>": 1906,
      "निर्धा": 1907,
      "खेलबाट</w>": 1908,
      "प्रदेशसभाको</w>": 1909,
      "काठमाडौँ</w>": 1910,
      "बुझ": 1911,
      "सचिवा": 1912,
      "वर्षको</w>": 1913,
      "पक्षमा</w>": 1914,
      "रूपमा</w>": 1915,
      "सिंह</w>": 1916,
      "रुपै": 1917,
      "सम्झौता</w>": 1918,
      "शनिबार</w>": 1919,
      "पीसीआर</w>": 1920,
      "ँड": 1921,
      "चला": 1922,
      "न्त</w>": 1923,
      "रात": 1924,
      "नागरि": 1925,
      "रोनाल्": 1926,
      "मोह": 1927,
      "पौडेलले</w>": 1928,
      "आउने</w>": 1929,
      "न्ति": 1930,
      "लाले</w>": 1931,
      "काय": 1932,
      "क्षा": 1933,
      "एकता": 1934,
      "सेमि": 1935,
      "पोर्ट": 1936,
      "बाँड": 1937,
      "वैधा": 1938,
      "पत्रकार</w>": 1939,
      "ओल": 1940,
      "नै": 1941,
      "स्या": 1942,
      "ेल": 1943,
      "१३": 1944,
      "विरा": 1945,
      "सात": 1946,
      "दुबै</w>": 1947,
      "कृष्": 1948,
      "जुन</w>": 1949,
      "खुला</w>": 1950,
      "आईपीएल</w>": 1951,
      "फ्रान्": 1952,
      "कै": 1953,
      "मध": 1954,
      "सहि": 1955,
      "सन्त": 1956,
      "नाले</w>": 1957,
      "निर्वाचन": 1958,
      "हेर्": 1959,
      "पाँच": 1960,
      "ब्याटि": 1961,
      "बाहिरि": 1962,
      "फोर": 1963,
      "करिब</w>": 1964,
      "गोविन्द</w>": 1965,
      "वैधानिक</w>": 1966,
      "ओलम्प": 1967,
      "इटा": 1968,
      "दर": 1969,
      "४५</w>": 1970,
      "विवाद</w>": 1971,
      "बाहे": 1972,
      "देवी</w>": 1973,
      "साझ": 1974,
      "सम्बो": 1975,
      "आफ्ना</w>": 1976,
      "कर्ष": 1977,
      "गते": 1978,
      "युनाइटेड": 1979,
      "तल": 1980,
      "नसक्ने</w>": 1981,
      "र्ता</w>": 1982,
      "प्रहर": 1983,
      "खेले</w>": 1984,
      "गर्ने": 1985,
      "गरिरहेका</w>": 1986,
      "ज्ञा": 1987,
      "यूए": 1988,
      "इङ्ल्यान्डले</w>": 1989,
      "कसै": 1990,
      "प्रयास</w>": 1991,
      "पुरुष</w>": 1992,
      "इन्": 1993,
      "जले</w>": 1994,
      "दबा": 1995,
      "महे": 1996,
      "कारा": 1997,
      "प्रदान</w>": 1998,
      "विरोध</w>": 1999,
      "संयुक्त</w>": 2000,
      "बताउँ": 2001,
      "राज्य": 2002,
      "आयोजित</w>": 2003,
      "सबैभन्दा</w>": 2004,
      "समूह</w>": 2005,
      "गण": 2006,
      "बमो": 2007,
      "शं": 2008,
      "सागमा</w>": 2009,
      "ष्ठ</w>": 2010,
      "जिम</w>": 2011,
      "मिड": 2012,
      "फागु": 2013,
      "बोर्": 2014,
      "राष्ट्रियसभाको</w>": 2015,
      "फिर्ता</w>": 2016,
      "चौथो</w>": 2017,
      "प्रक्रिया": 2018,
      "सन्दीप</w>": 2019,
      "संक्रमण": 2020,
      "विद्यार्थ": 2021,
      "पै": 2022,
      "बको</w>": 2023,
      "हस्ता": 2024,
      "ाइ": 2025,
      "क्ति": 2026,
      "लित": 2027,
      "जिकि": 2028,
      "क्षि": 2029,
      "निर्वाचनका</w>": 2030,
      "स्थापना</w>": 2031,
      "रीलाई</w>": 2032,
      "अर्ध": 2033,
      "फुटबलको</w>": 2034,
      "भेट": 2035,
      "सकेन</w>": 2036,
      "बहुमत</w>": 2037,
      "परिवर्तन</w>": 2038,
      "फरक</w>": 2039,
      "आलो": 2040,
      "गर्नेछ</w>": 2041,
      "संवैधानिक</w>": 2042,
      "सिद्धा": 2043,
      "जान</w>": 2044,
      "काठमाडौं": 2045,
      "वेदन</w>": 2046,
      "पेश</w>": 2047,
      "छलफ": 2048,
      "ड्ने</w>": 2049,
      "क्षेत्रमा</w>": 2050,
      "पीएसजी</w>": 2051,
      "सम्बन्धी</w>": 2052,
      "खर्च</w>": 2053,
      "द्यो": 2054,
      "एन्फाले</w>": 2055,
      "अहिलेसम्म</w>": 2056,
      "कलाई</w>": 2057,
      "हा</w>": 2058,
      "५०</w>": 2059,
      "न्छन्</w>": 2060,
      "वाताव": 2061,
      "हुनु": 2062,
      "उनु</w>": 2063,
      "सम्पूर्ण</w>": 2064,
      "सुझा": 2065,
      "चेस्टर</w>": 2066,
      "लिगा</w>": 2067,
      "दैछ</w>": 2068,
      "कार्यान्व": 2069,
      "बार्सिलोना</w>": 2070,
      "गराउन</w>": 2071,
      "भइसकेको</w>": 2072,
      "हरूको</w>": 2073,
      "सकिएको</w>": 2074,
      "समानुपातिक</w>": 2075,
      "संविधानको</w>": 2076,
      "तर्फबाट</w>": 2077,
      "निर्देशन</w>": 2078,
      "भारतीय</w>": 2079,
      "ग्रहण</w>": 2080,
      "बाँडफा": 2081,
      "ईमा</w>": 2082,
      "कका</w>": 2083,
      "भई</w>": 2084,
      "मना": 2085,
      "नाममा</w>": 2086,
      "साँ": 2087,
      "लिएर</w>": 2088,
      "सरकारी</w>": 2089,
      "रेर</w>": 2090,
      "क्रिकेट": 2091,
      "आर्सन": 2092,
      "एन्फा</w>": 2093,
      "बनेको</w>": 2094,
      "सिरिज</w>": 2095,
      "यादवले</w>": 2096,
      "अल्प": 2097,
      "सन्तु": 2098,
      "बमोजिम</w>": 2099,
      "छान": 2100,
      "नौं</w>": 2101,
      "प्या": 2102,
      "मल्": 2103,
      "व्या": 2104,
      "िएको</w>": 2105,
      "२२</w>": 2106,
      "हुनुपर्ने</w>": 2107,
      "ल्ड": 2108,
      "कुल</w>": 2109,
      "एको": 2110,
      "सहयोग": 2111,
      "महासमिति</w>": 2112,
      "दिलाउन</w>": 2113,
      "सकिने</w>": 2114,
      "इङ्ल्यान्ड</w>": 2115,
      "लगत्त": 2116,
      "प्रकाश</w>": 2117,
      "सिरिज": 2118,
      "विजयी</w>": 2119,
      "अर्धशत": 2120,
      "अपा": 2121,
      "आह्": 2122,
      "तन्त्र": 2123,
      "सङ्": 2124,
      "७०</w>": 2125,
      "बायर्": 2126,
      "संशो": 2127,
      "स्तु": 2128,
      "पूर्ण": 2129,
      "त्यसका</w>": 2130,
      "सेन्ट</w>": 2131,
      "सदस्यमा</w>": 2132,
      "हुँदैन</w>": 2133,
      "रियल</w>": 2134,
      "चरणमा</w>": 2135,
      "लगत्तै</w>": 2136,
      "ञ्</w>": 2137,
      "णी</w>": 2138,
      "नबाट</w>": 2139,
      "वरि": 2140,
      "२३</w>": 2141,
      "राकि": 2142,
      "पारि": 2143,
      "ल्ला</w>": 2144,
      "ण्डा</w>": 2145,
      "पेनाल्": 2146,
      "२००": 2147,
      "विश्व</w>": 2148,
      "डिभि": 2149,
      "बार्सिलोनाका</w>": 2150,
      "मैदान": 2151,
      "चौध": 2152,
      "वर्तमान</w>": 2153,
      "संक्रमण</w>": 2154,
      "न्यायाधीश</w>": 2155,
      "विराट": 2156,
      "जिकिर</w>": 2157,
      "आदेश</w>": 2158,
      "चमा</w>": 2159,
      "कार्यकर्": 2160,
      "समितिका</w>": 2161,
      "कमजो": 2162,
      "ज्ञवा": 2163,
      "बाहेक</w>": 2164,
      "ड्रि": 2165,
      "नौ": 2166,
      "म्</w>": 2167,
      "मर्": 2168,
      "राइ": 2169,
      "पार": 2170,
      "विकेट": 2171,
      "बताएको</w>": 2172,
      "लेटि": 2173,
      "बन्न</w>": 2174,
      "प्रदेशका</w>": 2175,
      "भित्र": 2176,
      "लुवा": 2177,
      "वर्षीय</w>": 2178,
      "चुनाव</w>": 2179,
      "मेस्सीले</w>": 2180,
      "नतिजा</w>": 2181,
      "विजेता</w>": 2182,
      "उच्च</w>": 2183,
      "केसीले</w>": 2184,
      "दिँदै</w>": 2185,
      "टोलीले</w>": 2186,
      "बनाएका</w>": 2187,
      "लीन</w>": 2188,
      "गराएका</w>": 2189,
      "टोलीमा</w>": 2190,
      "नीति</w>": 2191,
      "तोक्ने</w>": 2192,
      "साथै</w>": 2193,
      "जोडेको</w>": 2194,
      "संख्या</w>": 2195,
      "सम्बोधन</w>": 2196,
      "उठा": 2197,
      "ठो": 2198,
      "ब्र": 2199,
      "मौ": 2200,
      "शक्ति</w>": 2201,
      "ेक</w>": 2202,
      "स्टे": 2203,
      "नाका</w>": 2204,
      "चार": 2205,
      "ट्टै</w>": 2206,
      "मैत्र": 2207,
      "व्यवस्थापन</w>": 2208,
      "प्रतिनिधि</w>": 2209,
      "व्यक्ति</w>": 2210,
      "बराबरीमा</w>": 2211,
      "एसिया": 2212,
      "अन्तरले</w>": 2213,
      "थिएन</w>": 2214,
      "समाजवादी</w>": 2215,
      "लुवाटा": 2216,
      "अस्ट्र": 2217,
      "एएफ": 2218,
      "दी</w>": 2219,
      "तामा": 2220,
      "विदेश": 2221,
      "दिउँ": 2222,
      "जनताले</w>": 2223,
      "एकल</w>": 2224,
      "प्प": 2225,
      "ट्वान्टी</w>": 2226,
      "जितसँगै</w>": 2227,
      "टुङ्ग": 2228,
      "बाह्रखरीसँग</w>": 2229,
      "विशेष</w>": 2230,
      "कल</w>": 2231,
      "र्स</w>": 2232,
      "न्ट्": 2233,
      "प्रहरी</w>": 2234,
      "क्त": 2235,
      "पासमा</w>": 2236,
      "बालुवाटा": 2237,
      "सालमा</w>": 2238,
      "यात्र": 2239,
      "मुकाम</w>": 2240,
      "भित्रै</w>": 2241,
      "सदस्यीय</w>": 2242,
      "क्लबमा</w>": 2243,
      "वैचारिक</w>": 2244,
      "कुमारी</w>": 2245,
      "मेस्सी</w>": 2246,
      "स्ट्राइ": 2247,
      "भट्टराईले</w>": 2248,
      "कम्युनिष्ट</w>": 2249,
      "आह्वान</w>": 2250,
      "दिउँसो</w>": 2251,
      "उद्यो": 2252,
      "धनग": 2253,
      "नसि": 2254,
      "बह": 2255,
      "शा</w>": 2256,
      "प्रयोग</w>": 2257,
      "विक</w>": 2258,
      "दिनको</w>": 2259,
      "अन्त्य</w>": 2260,
      "बनाएर</w>": 2261,
      "महासचिव</w>": 2262,
      "जिल्ला": 2263,
      "नामावली</w>": 2264,
      "कायम</w>": 2265,
      "ब्याटिङ</w>": 2266,
      "वरिष्ठ</w>": 2267,
      "गो</w>": 2268,
      "धो": 2269,
      "फु": 2270,
      "म्यान": 2271,
      "शै": 2272,
      "मान्": 2273,
      "वायर्": 2274,
      "ल्ला": 2275,
      "शाह": 2276,
      "व्यहो": 2277,
      "मार्ग": 2278,
      "चौका</w>": 2279,
      "त्यसैगरी</w>": 2280,
      "भण्डारीले</w>": 2281,
      "पाण्डे": 2282,
      "महाधिवेश": 2283,
      "दाहालले</w>": 2284,
      "बताउँछन्</w>": 2285,
      "धनगढ": 2286,
      "अल": 2287,
      "अभि": 2288,
      "ज्य": 2289,
      "टको</w>": 2290,
      "थपे</w>": 2291,
      "फ्": 2292,
      "रच": 2293,
      "सिय": 2294,
      "ह्या": 2295,
      "२९</w>": 2296,
      "निर": 2297,
      "नाथ</w>": 2298,
      "प्रदेशसभामा</w>": 2299,
      "यसै": 2300,
      "महिना</w>": 2301,
      "ञ्च": 2302,
      "महत्वपूर्ण</w>": 2303,
      "हालसम्म</w>": 2304,
      "प्रणाली": 2305,
      "विद्यार्थी</w>": 2306,
      "अस्ट्रेल": 2307,
      "इने</w>": 2308,
      "उद्": 2309,
      "दो</w>": 2310,
      "दक्षि": 2311,
      "पादन</w>": 2312,
      "समक्ष</w>": 2313,
      "संस्": 2314,
      "मिति</w>": 2315,
      "सुना": 2316,
      "द्व": 2317,
      "हरुमा</w>": 2318,
      "परिवा": 2319,
      "सामान्य</w>": 2320,
      "पार्टीभित्र</w>": 2321,
      "चर्चा</w>": 2322,
      "युभेन्ट्": 2323,
      "कमिट": 2324,
      "इटालियन</w>": 2325,
      "आत्म": 2326,
      "गम्": 2327,
      "छौँ</w>": 2328,
      "ढंग": 2329,
      "२७</w>": 2330,
      "पाउ": 2331,
      "हात</w>": 2332,
      "साइ": 2333,
      "साग</w>": 2334,
      "दिनमा</w>": 2335,
      "रेन्टि": 2336,
      "केन्द्रको</w>": 2337,
      "कार्यक्रम": 2338,
      "कार्यदल</w>": 2339,
      "नेताले</w>": 2340,
      "सीपीए": 2341,
      "आयोगको</w>": 2342,
      "राखेप</w>": 2343,
      "उनीहरुले</w>": 2344,
      "स्थापित</w>": 2345,
      "ब्याट्": 2346,
      "भनाई</w>": 2347,
      "व्यक्तिगत</w>": 2348,
      "कसरी</w>": 2349,
      "लोकतान्त्रिक</w>": 2350,
      "सुरुवात</w>": 2351,
      "काँग्रेस": 2352,
      "वातावरण</w>": 2353,
      "टुङ्गो</w>": 2354,
      "एट": 2355,
      "कहि": 2356,
      "जत</w>": 2357,
      "धन": 2358,
      "बद": 2359,
      "हरे": 2360,
      "मानि": 2361,
      "नेले</w>": 2362,
      "विस्ता": 2363,
      "समी": 2364,
      "जनता</w>": 2365,
      "खेलाडीमा</w>": 2366,
      "कोल": 2367,
      "सेवा</w>": 2368,
      "अवसर": 2369,
      "लगाएको</w>": 2370,
      "संघको</w>": 2371,
      "उपस्थित</w>": 2372,
      "दलीय</w>": 2373,
      "सर्वसम्": 2374,
      "राख्ने</w>": 2375,
      "भण्डारी</w>": 2376,
      "करणको</w>": 2377,
      "पन्जा": 2378,
      "प्रमुखको</w>": 2379,
      "पोर्चु": 2380,
      "परिषद्को</w>": 2381,
      "सुझाव</w>": 2382,
      "आठ": 2383,
      "जम्": 2384,
      "दरा": 2385,
      "फेर": 2386,
      "फराकि": 2387,
      "वटै</w>": 2388,
      "नेवि": 2389,
      "विभा": 2390,
      "विधान</w>": 2391,
      "संगठन</w>": 2392,
      "रहँदा</w>": 2393,
      "त्यही</w>": 2394,
      "एकी": 2395,
      "एमालेको</w>": 2396,
      "सरकारलाई</w>": 2397,
      "सचिव": 2398,
      "जितेका</w>": 2399,
      "शुरु</w>": 2400,
      "समयअनुसार</w>": 2401,
      "तर्फको</w>": 2402,
      "सचिवालय": 2403,
      "अवि": 2404,
      "गएको</w>": 2405,
      "ढा": 2406,
      "मति</w>": 2407,
      "लबाट</w>": 2408,
      "हल</w>": 2409,
      "प्रे": 2410,
      "तिबेला</w>": 2411,
      "सुर्": 2412,
      "पुर्या": 2413,
      "चार्": 2414,
      "लोपटक</w>": 2415,
      "आफ्नै</w>": 2416,
      "सकेपछि</w>": 2417,
      "अदालतको</w>": 2418,
      "अदालतमा</w>": 2419,
      "यादव</w>": 2420,
      "कर्मचारी</w>": 2421,
      "युभेन्ट": 2422,
      "हैदरा": 2423,
      "समृद्धि": 2424,
      "फोरम</w>": 2425,
      "फराकिलो</w>": 2426,
      "अस्प": 2427,
      "अबको</w>": 2428,
      "एकाले</w>": 2429,
      "भै": 2430,
      "मन": 2431,
      "शी</w>": 2432,
      "ीय": 2433,
      "५६</w>": 2434,
      "लाल</w>": 2435,
      "पारेको</w>": 2436,
      "तार</w>": 2437,
      "विचार</w>": 2438,
      "पुरा": 2439,
      "ग्रा": 2440,
      "लेर</w>": 2441,
      "वेद": 2442,
      "वेस्ट</w>": 2443,
      "सदस्यका</w>": 2444,
      "न्याय": 2445,
      "सन्दीपले</w>": 2446,
      "मुद्दा": 2447,
      "नियुक्ति</w>": 2448,
      "युरोपा</w>": 2449,
      "राससकाठमाडौं</w>": 2450,
      "टीमा</w>": 2451,
      "तलाई</w>": 2452,
      "नरहेको</w>": 2453,
      "ल्दै</w>": 2454,
      "न्दो</w>": 2455,
      "नुभएको</w>": 2456,
      "दुई": 2457,
      "सुपर</w>": 2458,
      "यसै</w>": 2459,
      "अघि": 2460,
      "ियान</w>": 2461,
      "हरूलाई</w>": 2462,
      "भनिएको</w>": 2463,
      "रुपैयाँ</w>": 2464,
      "दबाब</w>": 2465,
      "अस्पता": 2466,
      "थमि": 2467,
      "यर": 2468,
      "प्रधान</w>": 2469,
      "स्टो": 2470,
      "क्का</w>": 2471,
      "केसीलाई</w>": 2472,
      "सिक</w>": 2473,
      "याँ": 2474,
      "मिन्ट": 2475,
      "दारी</w>": 2476,
      "मन्त्री": 2477,
      "माओवादी": 2478,
      "थाहा</w>": 2479,
      "टोलीलाई</w>": 2480,
      "गुमाउँदै</w>": 2481,
      "साथी": 2482,
      "कोइराला</w>": 2483,
      "नसक्दा</w>": 2484,
      "पैसा</w>": 2485,
      "ज्ञवालीले</w>": 2486,
      "ब्याट्सम": 2487,
      "आँ": 2488,
      "आउन</w>": 2489,
      "जरु": 2490,
      "थ्": 2491,
      "थिय": 2492,
      "दौ": 2493,
      "भर</w>": 2494,
      "मी": 2495,
      "मण्ड": 2496,
      "रू</w>": 2497,
      "रमे": 2498,
      "ललित": 2499,
      "वु": 2500,
      "प्रभा": 2501,
      "साता</w>": 2502,
      "रेन्द्र</w>": 2503,
      "प्रतिक्र": 2504,
      "टिप्प": 2505,
      "बढेको</w>": 2506,
      "देशको</w>": 2507,
      "प्राथमि": 2508,
      "व्यवस्था": 2509,
      "कार्यालयमा</w>": 2510,
      "जीवन</w>": 2511,
      "जित्ने</w>": 2512,
      "अभिय": 2513,
      "मनोन": 2514,
      "पीएसजीले</w>": 2515,
      "श्वर</w>": 2516,
      "पदाधिकार": 2517,
      "सहितको</w>": 2518,
      "दक्षिण</w>": 2519,
      "हरेक</w>": 2520,
      "पोर्चुग": 2521,
      "जरुरी</w>": 2522,
      "आउ": 2523,
      "खना": 2524,
      "गति</w>": 2525,
      "थ्यो</w>": 2526,
      "नह": 2527,
      "भव": 2528,
      "कास्य</w>": 2529,
      "राह": 2530,
      "संरच": 2531,
      "रिपोर्ट": 2532,
      "कोले</w>": 2533,
      "सीमा</w>": 2534,
      "उपल": 2535,
      "चेन्</w>": 2536,
      "पदको</w>": 2537,
      "भनेका</w>": 2538,
      "गठबन्धनको</w>": 2539,
      "जीव": 2540,
      "चुनावमा</w>": 2541,
      "१३औं</w>": 2542,
      "मैत्री": 2543,
      "एटला": 2544,
      "एम": 2545,
      "कडा</w>": 2546,
      "टन</w>": 2547,
      "थो": 2548,
      "पक</w>": 2549,
      "रबाट</w>": 2550,
      "लम्": 2551,
      "वृ": 2552,
      "ेन्": 2553,
      "२८</w>": 2554,
      "र्ड": 2555,
      "प्रस्तु": 2556,
      "बाटै</w>": 2557,
      "जिता": 2558,
      "रहरु": 2559,
      "खेलका</w>": 2560,
      "दाङ</w>": 2561,
      "मेल</w>": 2562,
      "एकताका</w>": 2563,
      "हामीलाई</w>": 2564,
      "नेताहरुको</w>": 2565,
      "पदमा</w>": 2566,
      "परेका</w>": 2567,
      "आईसी": 2568,
      "निकाल्ने</w>": 2569,
      "एफए</w>": 2570,
      "आन्दोलन</w>": 2571,
      "अधिकारीले</w>": 2572,
      "मणि</w>": 2573,
      "अध्यादेश</w>": 2574,
      "साझा</w>": 2575,
      "कारात्मक</w>": 2576,
      "फागुन</w>": 2577,
      "ऐन</w>": 2578,
      "घर</w>": 2579,
      "तस्": 2580,
      "स्वि": 2581,
      "राप्र": 2582,
      "वाम": 2583,
      "ल्ने</w>": 2584,
      "संगठ": 2585,
      "हरुसँग</w>": 2586,
      "जनाएका</w>": 2587,
      "नेताको</w>": 2588,
      "सकेनन्</w>": 2589,
      "अधिकार</w>": 2590,
      "फिल्ड": 2591,
      "राखेर</w>": 2592,
      "राखेको</w>": 2593,
      "च्याम्पियनसि": 2594,
      "महत्": 2595,
      "एवम्</w>": 2596,
      "तालिकाको</w>": 2597,
      "चितवन</w>": 2598,
      "प्रत्येक</w>": 2599,
      "गतिविधि</w>": 2600,
      "प्रजातन्त्र</w>": 2601,
      "मतदाता</w>": 2602,
      "कैला": 2603,
      "छलफलमा</w>": 2604,
      "मैत्रीपूर्ण</w>": 2605,
      "प्रस्तुत</w>": 2606,
      "खा</w>": 2607,
      "टि</w>": 2608,
      "डमिन्ट": 2609,
      "ढु": 2610,
      "पश्": 2611,
      "यले</w>": 2612,
      "श्</w>": 2613,
      "हर</w>": 2614,
      "१०": 2615,
      "निवा": 2616,
      "बाटो</w>": 2617,
      "हार्": 2618,
      "हुनु</w>": 2619,
      "निर्विरोध</w>": 2620,
      "सुदृ": 2621,
      "गोपा": 2622,
      "बनाए</w>": 2623,
      "टिन्": 2624,
      "निर्णा": 2625,
      "ड्न</w>": 2626,
      "सहमति": 2627,
      "चुनावी</w>": 2628,
      "ब्याडमिन्ट": 2629,
      "अभियान</w>": 2630,
      "पराजु": 2631,
      "नेयमारले</w>": 2632,
      "दिल्ली</w>": 2633,
      "स्ट्राइकर</w>": 2634,
      "गम्भी": 2635,
      "सुर्खे": 2636,
      "आप": 2637,
      "क्यानले</w>": 2638,
      "जस्तो</w>": 2639,
      "टस</w>": 2640,
      "णले</w>": 2641,
      "ते</w>": 2642,
      "पचारिक</w>": 2643,
      "रंग": 2644,
      "िन": 2645,
      "ौँ": 2646,
      "२६</w>": 2647,
      "प्रमा": 2648,
      "गर्नुपर्छ</w>": 2649,
      "ानले</w>": 2650,
      "दुर्": 2651,
      "पार्टीलाई</w>": 2652,
      "रोक्": 2653,
      "रेफ्र": 2654,
      "आयोगका</w>": 2655,
      "ठाउँ": 2656,
      "बार्सिलोनामा</w>": 2657,
      "अदालतले</w>": 2658,
      "चाहन्": 2659,
      "प्रदर्श": 2660,
      "सिंह": 2661,
      "फ्रेन्": 2662,
      "पठाएको</w>": 2663,
      "चितव": 2664,
      "कल्प</w>": 2665,
      "लकडा": 2666,
      "निश्चित</w>": 2667,
      "निर्धारित</w>": 2668,
      "अर्धशतकीय</w>": 2669,
      "टिप्पणी</w>": 2670,
      "उपलब्": 2671,
      "तस्बि": 2672,
      "इज": 2673,
      "इतिहा": 2674,
      "ओलीको</w>": 2675,
      "जस्तै</w>": 2676,
      "जसमा</w>": 2677,
      "नि</w>": 2678,
      "नसँग</w>": 2679,
      "भद": 2680,
      "भक्त": 2681,
      "मड्रि": 2682,
      "रजत</w>": 2683,
      "बाप्": 2684,
      "बिता": 2685,
      "पहिलोपटक</w>": 2686,
      "चिन्": 2687,
      "सेल्": 2688,
      "तीव": 2689,
      "ंग्": 2690,
      "सके</w>": 2691,
      "चुनौ": 2692,
      "जुरी</w>": 2693,
      "व्यवसा": 2694,
      "देखिन्छ</w>": 2695,
      "शुभ": 2696,
      "शील</w>": 2697,
      "सञ्चाल": 2698,
      "जित्न</w>": 2699,
      "दिनभित्र</w>": 2700,
      "एउटै</w>": 2701,
      "इन्डि": 2702,
      "गाउँपालिका</w>": 2703,
      "मुम्बई</w>": 2704,
      "कानू": 2705,
      "महेन्द्र": 2706,
      "अवसरमा</w>": 2707,
      "अग": 2708,
      "असन्तु": 2709,
      "एभ": 2710,
      "दि</w>": 2711,
      "भौ": 2712,
      "भव</w>": 2713,
      "३७</w>": 2714,
      "स्म": 2715,
      "विव": 2716,
      "संक": 2717,
      "संस्था": 2718,
      "राष्ट्": 2719,
      "बैं": 2720,
      "सभापति": 2721,
      "प्रदेशबाट</w>": 2722,
      "पूर्वा": 2723,
      "तीन": 2724,
      "ंगलो": 2725,
      "दोहो": 2726,
      "जितका</w>": 2727,
      "दीप</w>": 2728,
      "प्रशिक्षणका</w>": 2729,
      "आईपीएलमा</w>": 2730,
      "मुलुकको</w>": 2731,
      "प्रकाश": 2732,
      "तालिका</w>": 2733,
      "पोर्ट</w>": 2734,
      "मुद्दा</w>": 2735,
      "बलिङ": 2736,
      "भारोत्तोल": 2737,
      "भर्ख": 2738,
      "प्रहरीले</w>": 2739,
      "मिडफिल्ड": 2740,
      "बालुवाटारमा</w>": 2741,
      "सर्वसम्मत</w>": 2742,
      "जम्मा</w>": 2743,
      "एटलान्": 2744,
      "राष्ट्र</w>": 2745,
      "अप": 2746,
      "कन</w>": 2747,
      "दू": 2748,
      "फै": 2749,
      "३६</w>": 2750,
      "४०</w>": 2751,
      "राजे": 2752,
      "पाएका</w>": 2753,
      "नेस": 2754,
      "विधि": 2755,
      "साग": 2756,
      "रिपोर्ट</w>": 2757,
      "लेखे": 2758,
      "किन</w>": 2759,
      "वर्ग": 2760,
      "आयोग</w>": 2761,
      "पेरिस</w>": 2762,
      "सीका</w>": 2763,
      "होटे": 2764,
      "होस्</w>": 2765,
      "महामन्त्री</w>": 2766,
      "अहिलेको</w>": 2767,
      "अधिकारी</w>": 2768,
      "प्रतिनिधिसभाको</w>": 2769,
      "प्रतिनिधित्व</w>": 2770,
      "आजै</w>": 2771,
      "अंक": 2772,
      "पुनर्": 2773,
      "अभ्या": 2774,
      "सिफारि": 2775,
      "स्वीकार</w>": 2776,
      "खिल</w>": 2777,
      "मुम्बई": 2778,
      "इन्टर</w>": 2779,
      "सभामुखको</w>": 2780,
      "यूएईमा</w>": 2781,
      "अल्पसंख्य": 2782,
      "महत्त्वपूर्ण</w>": 2783,
      "अखिल</w>": 2784,
      "कति": 2785,
      "जो</w>": 2786,
      "नीले</w>": 2787,
      "वल</w>": 2788,
      "शक्ति": 2789,
      "३३</w>": 2790,
      "न्ति</w>": 2791,
      "प्रश्": 2792,
      "क्स</w>": 2793,
      "गरि</w>": 2794,
      "हुन्": 2795,
      "बैंगलो": 2796,
      "अनुमति</w>": 2797,
      "अर्थ": 2798,
      "द्धता</w>": 2799,
      "सबैलाई</w>": 2800,
      "युनाइटेडले</w>": 2801,
      "तहका</w>": 2802,
      "मूल": 2803,
      "भनिन्</w>": 2804,
      "स्रोतले</w>": 2805,
      "ओलीलाई</w>": 2806,
      "ब्राजि": 2807,
      "नारायण</w>": 2808,
      "सफलता</w>": 2809,
      "बाँडफाँ": 2810,
      "चौधरी</w>": 2811,
      "भदौ</w>": 2812,
      "तः</w>": 2813,
      "ध्या": 2814,
      "पक्रा": 2815,
      "सै": 2816,
      "सीय</w>": 2817,
      "्रा</w>": 2818,
      "न्तर</w>": 2819,
      "प्रहार</w>": 2820,
      "वित</w>": 2821,
      "तिर</w>": 2822,
      "हुनेछन्</w>": 2823,
      "ष्टि": 2824,
      "ल्न</w>": 2825,
      "दिइएको</w>": 2826,
      "सिरी</w>": 2827,
      "सम्पादन</w>": 2828,
      "क्रो": 2829,
      "सुधार</w>": 2830,
      "थिइन्</w>": 2831,
      "रोय": 2832,
      "आफै": 2833,
      "पीडि": 2834,
      "नेताका</w>": 2835,
      "सदस्यले</w>": 2836,
      "हेट": 2837,
      "खाँ": 2838,
      "न्यास</w>": 2839,
      "नुपर्नेमा</w>": 2840,
      "सन्दर्": 2841,
      "उम्मेदवार</w>": 2842,
      "कमिटी</w>": 2843,
      "पोखरेल</w>": 2844,
      "ओलम्पिक</w>": 2845,
      "एसियाली</w>": 2846,
      "बहस</w>": 2847,
      "फेरि</w>": 2848,
      "थियौं</w>": 2849,
      "गम्भीर</w>": 2850,
      "पक्राउ</w>": 2851,
      "एके": 2852,
      "एट्": 2853,
      "गा</w>": 2854,
      "ङको</w>": 2855,
      "ढका": 2856,
      "दश": 2857,
      "नगरेको</w>": 2858,
      "ब्य": 2859,
      "बलमा</w>": 2860,
      "बसे": 2861,
      "महर": 2862,
      "रम्": 2863,
      "रकम</w>": 2864,
      "लत</w>": 2865,
      "सकारात्मक</w>": 2866,
      "ीसँग</w>": 2867,
      "३५</w>": 2868,
      "र्स": 2869,
      "न्न": 2870,
      "विपरि": 2871,
      "लागेका</w>": 2872,
      "सिल</w>": 2873,
      "एकदिव": 2874,
      "द्वा": 2875,
      "कार्यदलले</w>": 2876,
      "वेशन</w>": 2877,
      "सेभ": 2878,
      "सेप्": 2879,
      "शास": 2880,
      "यसलाई</w>": 2881,
      "लगातार</w>": 2882,
      "बेलु": 2883,
      "चेत": 2884,
      "बस्नेत": 2885,
      "क्वारेन्टि": 2886,
      "इन्डियन</w>": 2887,
      "कामना</w>": 2888,
      "नारायण": 2889,
      "कीर्": 2890,
      "सिद्धान्त": 2891,
      "साँझ</w>": 2892,
      "उद्योग</w>": 2893,
      "समीक्षा</w>": 2894,
      "कोलका": 2895,
      "पन्जाब": 2896,
      "प्रतिक्रिया</w>": 2897,
      "भर्खरै</w>": 2898,
      "अपरा": 2899,
      "उठ": 2900,
      "करो": 2901,
      "टर</w>": 2902,
      "त्या": 2903,
      "पक्ष</w>": 2904,
      "भमा</w>": 2905,
      "भएको": 2906,
      "म्युनि": 2907,
      "मानी</w>": 2908,
      "राउ": 2909,
      "खेलि": 2910,
      "दिइ": 2911,
      "रहे</w>": 2912,
      "जनयु": 2913,
      "सम्बन्ध</w>": 2914,
      "सम्मेल": 2915,
      "माओवादीले</w>": 2916,
      "भएन</w>": 2917,
      "तोकेको</w>": 2918,
      "क्लबको</w>": 2919,
      "राजनीति</w>": 2920,
      "आफूहरु</w>": 2921,
      "राखेका</w>": 2922,
      "जिल्लामा</w>": 2923,
      "ब्बर</w>": 2924,
      "नाइट</w>": 2925,
      "विद्यु": 2926,
      "राख्दै</w>": 2927,
      "युनाइटेड</w>": 2928,
      "रहेकाले</w>": 2929,
      "लाग्ने</w>": 2930,
      "सामना</w>": 2931,
      "नगरपालिका</w>": 2932,
      "विज्ञप्तिमा</w>": 2933,
      "हराएको</w>": 2934,
      "बलिङ</w>": 2935,
      "सेमिफाइनलमा</w>": 2936,
      "कृष्ण": 2937,
      "राइड": 2938,
      "अविजित</w>": 2939,
      "फ्रेन्च</w>": 2940,
      "एट्लेटि": 2941,
      "सेप्टे": 2942,
      "आशा</w>": 2943,
      "आयर": 2944,
      "डो</w>": 2945,
      "भत्ता</w>": 2946,
      "यथा": 2947,
      "लना</w>": 2948,
      "सड": 2949,
      "सहा": 2950,
      "६०</w>": 2951,
      "लामि": 2952,
      "माग": 2953,
      "माध": 2954,
      "रान</w>": 2955,
      "विन</w>": 2956,
      "साता": 2957,
      "ल्ड</w>": 2958,
      "सम्मका</w>": 2959,
      "दार</w>": 2960,
      "बताइन्</w>": 2961,
      "चाँड": 2962,
      "कारवा": 2963,
      "द्द": 2964,
      "प्रशिक्षक": 2965,
      "न्डर</w>": 2966,
      "दोब्बर</w>": 2967,
      "खेल्नेछ</w>": 2968,
      "समितिमा</w>": 2969,
      "न्तरण</w>": 2970,
      "च्छ": 2971,
      "देखिएका</w>": 2972,
      "विकासका</w>": 2973,
      "घाइ": 2974,
      "बढ्न</w>": 2975,
      "पिट": 2976,
      "स्थिति</w>": 2977,
      "सूचना</w>": 2978,
      "समुदाय": 2979,
      "बालको": 2980,
      "२०७४</w>": 2981,
      "भारोत्तोलन</w>": 2982,
      "जोड्दै</w>": 2983,
      "रोनाल्डो": 2984,
      "धनगढी</w>": 2985,
      "एभर्ट": 2986,
      "विवरण</w>": 2987,
      "कतिप": 2988,
      "लामिछा": 2989,
      "ंग</w>": 2990,
      "कौ": 2991,
      "जवा": 2992,
      "नभए</w>": 2993,
      "यको</w>": 2994,
      "रता</w>": 2995,
      "३८</w>": 2996,
      "कालाई</w>": 2997,
      "स्क": 2998,
      "ताल": 2999,
      "नुभयो</w>": 3000,
      "म्वा": 3001,
      "धामा</w>": 3002,
      "केन्द्रबीच</w>": 3003,
      "त्यसलाई</w>": 3004,
      "बैठकको</w>": 3005,
      "२०१९</w>": 3006,
      "कर्ष</w>": 3007,
      "चेताव": 3008,
      "मोर": 3009,
      "आयोगमा</w>": 3010,
      "खास्त</w>": 3011,
      "गराएको</w>": 3012,
      "मार्ग</w>": 3013,
      "पुष्टि</w>": 3014,
      "छिटो</w>": 3015,
      "बढ्ने</w>": 3016,
      "सम्बन्धित</w>": 3017,
      "पन्थ": 3018,
      "मन्त्रिपरिषद्को</w>": 3019,
      "नेयमार</w>": 3020,
      "हस्ताक्ष": 3021,
      "आलोच": 3022,
      "विस्तार</w>": 3023,
      "पश्चि": 3024,
      "प्रमाण": 3025,
      "बलिङतर्फ</w>": 3026,
      "एकेडे": 3027,
      "विपरित</w>": 3028,
      "असर</w>": 3029,
      "करात": 3030,
      "ख्": 3031,
      "छक्": 3032,
      "डर्ट": 3033,
      "तपा": 3034,
      "ध्यान</w>": 3035,
      "नभई</w>": 3036,
      "पृ": 3037,
      "बा</w>": 3038,
      "यौं</w>": 3039,
      "वि</w>": 3040,
      "३४</w>": 3041,
      "काजी</w>": 3042,
      "रेकर्": 3043,
      "प्रदेशसभाका</w>": 3044,
      "संसद्": 3045,
      "वार्ड</w>": 3046,
      "गठबन्धन</w>": 3047,
      "चाहेको</w>": 3048,
      "खोज": 3049,
      "खोज्": 3050,
      "एसियन</w>": 3051,
      "थिएँ</w>": 3052,
      "सुरुवाती</w>": 3053,
      "गौतमले</w>": 3054,
      "निर्णायक</w>": 3055,
      "ठाउँमा</w>": 3056,
      "तस्बिर</w>": 3057,
      "शुभकामना</w>": 3058,
      "मिडफिल्डर</w>": 3059,
      "बस्नेतले</w>": 3060,
      "आएपछि</w>": 3061,
      "ईएफए</w>": 3062,
      "उता</w>": 3063,
      "गलत</w>": 3064,
      "घण्": 3065,
      "छन</w>": 3066,
      "टी": 3067,
      "डिय": 3068,
      "तौ": 3069,
      "थु": 3070,
      "दान": 3071,
      "मं": 3072,
      "यहाँ</w>": 3073,
      "ेकी</w>": 3074,
      "लाइ</w>": 3075,
      "पाइ": 3076,
      "नेम्वा": 3077,
      "केसी</w>": 3078,
      "सिर</w>": 3079,
      "दाहाल": 3080,
      "जाँ": 3081,
      "तर्क</w>": 3082,
      "जनाइएको</w>": 3083,
      "शाही</w>": 3084,
      "ल्याए</w>": 3085,
      "डेर</w>": 3086,
      "जानु": 3087,
      "उपचा": 3088,
      "उपधारा</w>": 3089,
      "तयारीमा</w>": 3090,
      "डामा</w>": 3091,
      "बसेका</w>": 3092,
      "उमेदवारी</w>": 3093,
      "नियम</w>": 3094,
      "तत्कालीन</w>": 3095,
      "तहमा</w>": 3096,
      "इङ्ल्यान्डका</w>": 3097,
      "मन्त्रालयले</w>": 3098,
      "समूहमा</w>": 3099,
      "उमेर</w>": 3100,
      "समानुपातिकतर्फ</w>": 3101,
      "यात्रा</w>": 3102,
      "म्यानचेस्टर</w>": 3103,
      "ब्याडमिन्टन</w>": 3104,
      "रंगशा": 3105,
      "तीव्र</w>": 3106,
      "नेसन्स</w>": 3107,
      "सन्दर्भमा</w>": 3108,
      "एकदिवसीय</w>": 3109,
      "द्वारा</w>": 3110,
      "अनि": 3111,
      "एपीए": 3112,
      "गन</w>": 3113,
      "जमा</w>": 3114,
      "ज्या": 3115,
      "जस्ता</w>": 3116,
      "तरि": 3117,
      "लै": 3118,
      "लिय": 3119,
      "लक्ष": 3120,
      "षा": 3121,
      "प्रदीप</w>": 3122,
      "पाका</w>": 3123,
      "गर्द": 3124,
      "देव</w>": 3125,
      "सान्": 3126,
      "साक्षा": 3127,
      "सम्हा": 3128,
      "गाह": 3129,
      "लेन्": 3130,
      "केन्द्रित</w>": 3131,
      "टोट": 3132,
      "टिम</w>": 3133,
      "लीका</w>": 3134,
      "यसको</w>": 3135,
      "नेतामा</w>": 3136,
      "संघमा</w>": 3137,
      "फुटबल": 3138,
      "संसद्</w>": 3139,
      "बस्न</w>": 3140,
      "आवश्यकता</w>": 3141,
      "सम्बन्धमा</w>": 3142,
      "बनेका</w>": 3143,
      "कुराका": 3144,
      "कुराकान": 3145,
      "उम्मेदवारी</w>": 3146,
      "चेल्सी</w>": 3147,
      "प्रधानमन्त्रीको</w>": 3148,
      "मुख्यमन्त्रीको</w>": 3149,
      "जमैका</w>": 3150,
      "कार्यान्वयन</w>": 3151,
      "सहयोगमा</w>": 3152,
      "डिभिजन</w>": 3153,
      "सीपीएल</w>": 3154,
      "एटलान्टा": 3155,
      "साक्षात्": 3156,
      "आचार्": 3157,
      "कपको</w>": 3158,
      "ख्या": 3159,
      "गमन</w>": 3160,
      "णमा</w>": 3161,
      "नपा": 3162,
      "यर</w>": 3163,
      "लै</w>": 3164,
      "सवा": 3165,
      "ित्व</w>": 3166,
      "ौपा": 3167,
      "१६": 3168,
      "विधान": 3169,
      "विधिक</w>": 3170,
      "देशि": 3171,
      "साउ": 3172,
      "हिसा": 3173,
      "कुन</w>": 3174,
      "अनुसन्": 3175,
      "प्ले": 3176,
      "गठनका</w>": 3177,
      "लगाउन</w>": 3178,
      "महिना": 3179,
      "प्राविधिक</w>": 3180,
      "मतपरिणाम</w>": 3181,
      "कोरोनाको</w>": 3182,
      "मिनेट</w>": 3183,
      "सांगठ": 3184,
      "जर्स</w>": 3185,
      "सिटीले</w>": 3186,
      "स्थितिमा</w>": 3187,
      "तोक्न</w>": 3188,
      "वेशी</w>": 3189,
      "मन्त्रालयको</w>": 3190,
      "निष्कर्ष</w>": 3191,
      "न्यौपा": 3192,
      "मधेस": 3193,
      "तलब</w>": 3194,
      "संशोधन</w>": 3195,
      "कमजोर</w>": 3196,
      "स्टेडिय": 3197,
      "हैदरावाद": 3198,
      "रोनाल्डोले</w>": 3199,
      "चेतावनी</w>": 3200,
      "गाह्रो</w>": 3201,
      "कति</w>": 3202,
      "गै": 3203,
      "ची": 3204,
      "चले</w>": 3205,
      "टु</w>": 3206,
      "ट्</w>": 3207,
      "नगर्ने</w>": 3208,
      "बधा": 3209,
      "भ्": 3210,
      "मण</w>": 3211,
      "हन</w>": 3212,
      "४८</w>": 3213,
      "प्रो": 3214,
      "्यमा</w>": 3215,
      "पालो</w>": 3216,
      "निजी</w>": 3217,
      "वित": 3218,
      "तिका</w>": 3219,
      "त्ति</w>": 3220,
      "सिर्": 3221,
      "सम्मको</w>": 3222,
      "चाहि": 3223,
      "रोकिएको</w>": 3224,
      "किपर</w>": 3225,
      "प्रतिवेदन</w>": 3226,
      "बित्": 3227,
      "गुना": 3228,
      "यसले</w>": 3229,
      "यसमा</w>": 3230,
      "उपप्रमुख</w>": 3231,
      "सकेकाले</w>": 3232,
      "अधिकृ": 3233,
      "ेष्ठ</w>": 3234,
      "न्याय</w>": 3235,
      "दलहरुले</w>": 3236,
      "मेस्सीलाई</w>": 3237,
      "भारत</w>": 3238,
      "आधार</w>": 3239,
      "तहको</w>": 3240,
      "पाकिस्तान</w>": 3241,
      "सूचीमा</w>": 3242,
      "पराजय</w>": 3243,
      "भ्रमण": 3244,
      "निष्कर्ष": 3245,
      "गृहकार्य</w>": 3246,
      "सुरक्षा": 3247,
      "काठमाडौंमा</w>": 3248,
      "विदेशी</w>": 3249,
      "पाण्डेले</w>": 3250,
      "ज्येष्ठ</w>": 3251,
      "कहिले</w>": 3252,
      "टिन्हो": 3253,
      "सुर्खेत</w>": 3254,
      "कीर्ति": 3255,
      "करोड</w>": 3256,
      "आयरल्यान्ड": 3257,
      "कतिपय</w>": 3258,
      "तपाई": 3259,
      "ँदैन</w>": 3260,
      "अपे": 3261,
      "आकां": 3262,
      "कू": 3263,
      "खरा": 3264,
      "नगर्न</w>": 3265,
      "नहुँदा</w>": 3266,
      "भलि": 3267,
      "यदि</w>": 3268,
      "रनमा</w>": 3269,
      "वर</w>": 3270,
      "सनले</w>": 3271,
      "सपना</w>": 3272,
      "३१</w>": 3273,
      "काे</w>": 3274,
      "प्रभाव": 3275,
      "माको</w>": 3276,
      "केर</w>": 3277,
      "संरक्ष": 3278,
      "दुवै": 3279,
      "पुरको</w>": 3280,
      "पर्य": 3281,
      "लेगमा</w>": 3282,
      "प्रतिब": 3283,
      "शिक्षा</w>": 3284,
      "बुबा": 3285,
      "शान्ति</w>": 3286,
      "भएपनि</w>": 3287,
      "लगाउने</w>": 3288,
      "भागमा</w>": 3289,
      "हीन</w>": 3290,
      "पक्षी</w>": 3291,
      "पत्रमा</w>": 3292,
      "क्षेत्रीय</w>": 3293,
      "छिट्टै</w>": 3294,
      "सञ्चार": 3295,
      "त्वमा</w>": 3296,
      "पाकिस्तानले</w>": 3297,
      "मन्त्रिपरिषद्</w>": 3298,
      "नगरपालिकाका</w>": 3299,
      "समर्थन</w>": 3300,
      "पाण्डे</w>": 3301,
      "भाइरसको</w>": 3302,
      "पेनाल्टीमा</w>": 3303,
      "विराटनगर</w>": 3304,
      "एकीकृत</w>": 3305,
      "चुनौती</w>": 3306,
      "भौतिक</w>": 3307,
      "कुराकानी</w>": 3308,
      "सांगठनिक</w>": 3309,
      "एनन्</w>": 3310,
      "औपचारिक</w>": 3311,
      "कद": 3312,
      "घि": 3313,
      "घरमा</w>": 3314,
      "टर": 3315,
      "डमा</w>": 3316,
      "रनले</w>": 3317,
      "रहित</w>": 3318,
      "सपथ</w>": 3319,
      "ेश": 3320,
      "न्यु": 3321,
      "मालाई</w>": 3322,
      "माध्य": 3323,
      "माया</w>": 3324,
      "क्य</w>": 3325,
      "रामा</w>": 3326,
      "विगत": 3327,
      "समझ": 3328,
      "गर्छौं</w>": 3329,
      "हाफ</w>": 3330,
      "केका</w>": 3331,
      "त्ता": 3332,
      "ल्स</w>": 3333,
      "दिएर</w>": 3334,
      "ानी</w>": 3335,
      "त्यति</w>": 3336,
      "पार्टीमा</w>": 3337,
      "सुवि": 3338,
      "पुन</w>": 3339,
      "एकै</w>": 3340,
      "किन": 3341,
      "द्धि": 3342,
      "बिन</w>": 3343,
      "जेन्टि": 3344,
      "बनाउ": 3345,
      "लीलाई</w>": 3346,
      "ट्न</w>": 3347,
      "तीमा</w>": 3348,
      "गुट": 3349,
      "यसका</w>": 3350,
      "अर्जेन्टि": 3351,
      "देशका</w>": 3352,
      "प्रारम्": 3353,
      "श्रे": 3354,
      "आर्च": 3355,
      "टोलीबीचको</w>": 3356,
      "आफूहरुले</w>": 3357,
      "राखिएको</w>": 3358,
      "खुसी</w>": 3359,
      "छाड्ने</w>": 3360,
      "मिलानले</w>": 3361,
      "सिजनमा</w>": 3362,
      "क्यापिट": 3363,
      "चरणको</w>": 3364,
      "क्रान्ति": 3365,
      "विभागीय</w>": 3366,
      "निर्माणको</w>": 3367,
      "खेलकुदमा</w>": 3368,
      "पुर्</w>": 3369,
      "सिलवालले</w>": 3370,
      "खड्का</w>": 3371,
      "पूर्णता</w>": 3372,
      "पारेका</w>": 3373,
      "विकेटले</w>": 3374,
      "गोपाल</w>": 3375,
      "घाइते</w>": 3376,
      "छक्काको</w>": 3377,
      "तौल</w>": 3378,
      "गुनासो</w>": 3379,
      "जन्": 3380,
      "जसले</w>": 3381,
      "नल</w>": 3382,
      "मद्द": 3383,
      "लि</w>": 3384,
      "सरी</w>": 3385,
      "हलमा</w>": 3386,
      "ृद्ध</w>": 3387,
      "ेश</w>": 3388,
      "ेपछि</w>": 3389,
      "क्सि": 3390,
      "निकट</w>": 3391,
      "समन्व": 3392,
      "हासिल</w>": 3393,
      "ष्ठ": 3394,
      "मिला</w>": 3395,
      "रोज": 3396,
      "लेले</w>": 3397,
      "अनुरुप</w>": 3398,
      "गरिसकेको</w>": 3399,
      "स्तर": 3400,
      "टिमका</w>": 3401,
      "त्यसमा</w>": 3402,
      "टेलि": 3403,
      "अवधि": 3404,
      "उपसभामुख</w>": 3405,
      "सक्छ</w>": 3406,
      "बोल्दै</w>": 3407,
      "कांग्रेसलाई</w>": 3408,
      "राखे</w>": 3409,
      "स्थानको</w>": 3410,
      "अदालत</w>": 3411,
      "पोखरा</w>": 3412,
      "बुझाएको</w>": 3413,
      "पार्ने</w>": 3414,
      "भोलि": 3415,
      "न्यायाधीश": 3416,
      "सुरक्षा</w>": 3417,
      "लिभरपुलले</w>": 3418,
      "पोखरेलले</w>": 3419,
      "कसैले</w>": 3420,
      "शंका</w>": 3421,
      "एएफसी</w>": 3422,
      "निवासमा</w>": 3423,
      "उपलब्ध</w>": 3424,
      "चिन्ता</w>": 3425,
      "भएकोले</w>": 3426,
      "कुराकानीमा</w>": 3427,
      "उमा</w>": 3428,
      "पहल</w>": 3429,
      "भ्या": 3430,
      "मद</w>": 3431,
      "८३</w>": 3432,
      "न्चेस्टर</w>": 3433,
      "विष्": 3434,
      "हुने": 3435,
      "सार": 3436,
      "सानो</w>": 3437,
      "केसीको</w>": 3438,
      "सिल्": 3439,
      "मिक</w>": 3440,
      "नेपाललाई</w>": 3441,
      "रोध": 3442,
      "कोट</w>": 3443,
      "अनुशासन</w>": 3444,
      "समावेशी</w>": 3445,
      "थालेको</w>": 3446,
      "कृष": 3447,
      "मोर्": 3448,
      "रामबहादुर</w>": 3449,
      "नियमित</w>": 3450,
      "चाहना</w>": 3451,
      "देउवालाई</w>": 3452,
      "राख्न</w>": 3453,
      "बढाउने</w>": 3454,
      "कोइरालाले</w>": 3455,
      "प्रत्यक्ष": 3456,
      "कार्यालयका</w>": 3457,
      "कम्तिमा</w>": 3458,
      "विषयलाई</w>": 3459,
      "समानुपातिकतर्फको</w>": 3460,
      "मुख्यमन्त्रीमा</w>": 3461,
      "कानुन</w>": 3462,
      "कृष्ण</w>": 3463,
      "अपाङ्ग": 3464,
      "रिपोर्टर्स</w>": 3465,
      "एमबाप्": 3466,
      "इजला": 3467,
      "बसेर</w>": 3468,
      "आउँ": 3469,
      "एन": 3470,
      "एन</w>": 3471,
      "ङमा</w>": 3472,
      "ङका</w>": 3473,
      "जको</w>": 3474,
      "थे</w>": 3475,
      "दले</w>": 3476,
      "नर": 3477,
      "परे": 3478,
      "मल</w>": 3479,
      "यस्ता</w>": 3480,
      "रिया</w>": 3481,
      "सश": 3482,
      "५१</w>": 3483,
      "५२</w>": 3484,
      "५३</w>": 3485,
      "र्ष": 3486,
      "प्रशासन</w>": 3487,
      "मापद": 3488,
      "पाले</w>": 3489,
      "गर्छ</w>": 3490,
      "लिगा": 3491,
      "सिटी</w>": 3492,
      "रिम</w>": 3493,
      "पुस</w>": 3494,
      "पुर्": 3495,
      "कारमा</w>": 3496,
      "किंग्": 3497,
      "कोही</w>": 3498,
      "गरिएका</w>": 3499,
      "केन्द्रमा</w>": 3500,
      "भिड</w>": 3501,
      "बनाउँदा</w>": 3502,
      "प्रशिक्षकको</w>": 3503,
      "बीचमा</w>": 3504,
      "ल्याउने</w>": 3505,
      "२०६": 3506,
      "होला</w>": 3507,
      "क्रिस्ट": 3508,
      "विश्वप्रकाश</w>": 3509,
      "सञ्चार</w>": 3510,
      "गठबन्धनले</w>": 3511,
      "दीपक</w>": 3512,
      "सिंहले</w>": 3513,
      "यूईएफए</w>": 3514,
      "छनोटका</w>": 3515,
      "तेक्</w>": 3516,
      "अनि</w>": 3517,
      "ढिलाइ</w>": 3518,
      "पदाधिकारी</w>": 3519,
      "निर्धारण</w>": 3520,
      "संक्रमणीय</w>": 3521,
      "कार्यान्वय": 3522,
      "बायर्न</w>": 3523,
      "तामाङ</w>": 3524,
      "सुनाए</w>": 3525,
      "प्राथमिकता</w>": 3526,
      "दोहोरो</w>": 3527,
      "अंकसहित</w>": 3528,
      "बाँडफाँड</w>": 3529,
      "ध्याना": 3530,
      "स्टेडियममा</w>": 3531,
      "सिर्जना</w>": 3532,
      "घिमि": 3533,
      "उँ</w>": 3534,
      "छौ</w>": 3535,
      "जुट": 3536,
      "धै": 3537,
      "धन्य": 3538,
      "फी</w>": 3539,
      "भवन</w>": 3540,
      "मन्ड": 3541,
      "सक्र": 3542,
      "४९</w>": 3543,
      "७५</w>": 3544,
      "लाय": 3545,
      "प्रथ": 3546,
      "वार्ट": 3547,
      "बाध": 3548,
      "समस्या": 3549,
      "समृद्ध</w>": 3550,
      "त्यतिबेला</w>": 3551,
      "सुरेन्द्र</w>": 3552,
      "निर्वाह</w>": 3553,
      "आफु": 3554,
      "सहकार्य</w>": 3555,
      "जनाले</w>": 3556,
      "शाक्य</w>": 3557,
      "जोगा": 3558,
      "यसरी</w>": 3559,
      "अर्का</w>": 3560,
      "देशमा</w>": 3561,
      "हुँदै": 3562,
      "भागव": 3563,
      "तोकि": 3564,
      "खास": 3565,
      "गराउने</w>": 3566,
      "स्वरुप</w>": 3567,
      "वार्ष": 3568,
      "प्रतियोगिताको</w>": 3569,
      "सबैको</w>": 3570,
      "सबैले</w>": 3571,
      "उनुपर्छ</w>": 3572,
      "देउवाको</w>": 3573,
      "मुलुक</w>": 3574,
      "फर्किन</w>": 3575,
      "विद्यादेवी</w>": 3576,
      "ठूला</w>": 3577,
      "म्यान्चेस्टर</w>": 3578,
      "राष्ट्रपतिले</w>": 3579,
      "मिल्ने</w>": 3580,
      "प्रणाली</w>": 3581,
      "पुग्ने</w>": 3582,
      "भुसा": 3583,
      "समृद्धि</w>": 3584,
      "रातो</w>": 3585,
      "छानविन</w>": 3586,
      "धोनीले</w>": 3587,
      "कमिटीको</w>": 3588,
      "सिंहदर": 3589,
      "प्रश्न</w>": 3590,
      "नारायणकाजी</w>": 3591,
      "चाँडै</w>": 3592,
      "कराते</w>": 3593,
      "बधाई</w>": 3594,
      "अति": 3595,
      "अञ्</w>": 3596,
      "इला": 3597,
      "उत्रि": 3598,
      "क्य": 3599,
      "खण्ड": 3600,
      "गएका</w>": 3601,
      "चलेको</w>": 3602,
      "डी": 3603,
      "णि": 3604,
      "तृ": 3605,
      "पथ": 3606,
      "बजा": 3607,
      "वरी": 3608,
      "वडा</w>": 3609,
      "वृद्": 3610,
      "से</w>": 3611,
      "ससँग</w>": 3612,
      "सच्या": 3613,
      "सल्ला": 3614,
      "न्यू": 3615,
      "विहीन</w>": 3616,
      "केत</w>": 3617,
      "संस्थापन</w>": 3618,
      "संन्यास</w>": 3619,
      "लागि": 3620,
      "मिलेर</w>": 3621,
      "दावी</w>": 3622,
      "त्यहाँ</w>": 3623,
      "सुधा": 3624,
      "सुब्": 3625,
      "कारबा": 3626,
      "रोकि": 3627,
      "लेस": 3628,
      "टिभ</w>": 3629,
      "उपयुक्त</w>": 3630,
      "सोध": 3631,
      "समेटि": 3632,
      "देशलाई</w>": 3633,
      "प्राव": 3634,
      "भेन</w>": 3635,
      "भागब": 3636,
      "लुका": 3637,
      "तोकिएको</w>": 3638,
      "क्लबलाई</w>": 3639,
      "फर्क": 3640,
      "स्पिन": 3641,
      "सकिन्छ</w>": 3642,
      "बस्</w>": 3643,
      "उनीहरुको</w>": 3644,
      "प्रचण्डलाई</w>": 3645,
      "निकाल्न</w>": 3646,
      "मुलुकमा</w>": 3647,
      "लाग्छ</w>": 3648,
      "लोकतन्त्र": 3649,
      "तेक्वा": 3650,
      "ओभर</w>": 3651,
      "गाउँपालिकाका</w>": 3652,
      "बजेसम्म</w>": 3653,
      "तिहासिक</w>": 3654,
      "काँग्रेस</w>": 3655,
      "फर्काए</w>": 3656,
      "सिद्धान्त</w>": 3657,
      "डिभिजन": 3658,
      "विराटनगर": 3659,
      "मान्छ": 3660,
      "ढंगले</w>": 3661,
      "समृद्धिको</w>": 3662,
      "मनोनयन</w>": 3663,
      "खनाल</w>": 3664,
      "सेल्फ</w>": 3665,
      "म्युनिख": 3666,
      "सेप्टेम्बर</w>": 3667,
      "हस्ताक्षर</w>": 3668,
      "रेकर्ड</w>": 3669,
      "मंसिर</w>": 3670,
      "एपीएफ": 3671,
      "तरिकाले</w>": 3672,
      "टोटनह": 3673,
      "साक्षात्कारमा</w>": 3674,
      "अनुसन्धान</w>": 3675,
      "निष्कर्षमा</w>": 3676,
      "ध्यानाकर्ष": 3677,
      "धन्यवाद</w>": 3678,
      "प्रथम</w>": 3679,
      "अक्": 3680,
      "अफि": 3681,
      "आदि": 3682,
      "आयुक्त</w>": 3683,
      "एक्": 3684,
      "ऐतिहासिक</w>": 3685,
      "चलि": 3686,
      "टले</w>": 3687,
      "ढे</w>": 3688,
      "तृ</w>": 3689,
      "पक्का</w>": 3690,
      "मबाट</w>": 3691,
      "रै": 3692,
      "३२</w>": 3693,
      "र्न</w>": 3694,
      "पाद": 3695,
      "नेत</w>": 3696,
      "ताया": 3697,
      "विकल्प</w>": 3698,
      "देव": 3699,
      "दिनुपर्ने</w>": 3700,
      "संख्या": 3701,
      "जिग": 3702,
      "याताया": 3703,
      "सुमार्ग": 3704,
      "चामा</w>": 3705,
      "सरो": 3706,
      "कारको</w>": 3707,
      "रोह": 3708,
      "खेलाडीका</w>": 3709,
      "किङ्": 3710,
      "कोह": 3711,
      "वादको</w>": 3712,
      "परिक्ष": 3713,
      "गठन": 3714,
      "टाउने</w>": 3715,
      "शाह</w>": 3716,
      "गुट</w>": 3717,
      "पेले</w>": 3718,
      "न्डो": 3719,
      "नेताहरु": 3720,
      "छैट": 3721,
      "छैनौं</w>": 3722,
      "बढि": 3723,
      "गरेकी</w>": 3724,
      "बेन्": 3725,
      "ियार</w>": 3726,
      "महिला": 3727,
      "व्यवस्थाप": 3728,
      "एमालेलाई</w>": 3729,
      "मन्त्रालयमा</w>": 3730,
      "पत्रका": 3731,
      "नियर</w>": 3732,
      "पूर्वप्रधानमन्त्री</w>": 3733,
      "फोन</w>": 3734,
      "गुमाएको</w>": 3735,
      "अध्यक्षबीच</w>": 3736,
      "फर्किएका</w>": 3737,
      "प्रस्ताव": 3738,
      "सूची</w>": 3739,
      "सामग्र": 3740,
      "दिल्लीले</w>": 3741,
      "बुझ्": 3742,
      "बोर्ड</w>": 3743,
      "संशोध": 3744,
      "संस्करणको</w>": 3745,
      "द्वय</w>": 3746,
      "विभाग</w>": 3747,
      "रमेश</w>": 3748,
      "पूर्वाधार</w>": 3749,
      "बालकोटमा</w>": 3750,
      "आलोचना</w>": 3751,
      "अमे": 3752,
      "आमा</w>": 3753,
      "कन्": 3754,
      "क्यान": 3755,
      "जग्": 3756,
      "डेको</w>": 3757,
      "बले</w>": 3758,
      "भ्रा": 3759,
      "मक": 3760,
      "सत्ता": 3761,
      "हरि": 3762,
      "हौं</w>": 3763,
      "र्थ</w>": 3764,
      "र्ने</w>": 3765,
      "राव": 3766,
      "वान्दो</w>": 3767,
      "गर्</w>": 3768,
      "विवे": 3769,
      "गर्नेछन्</w>": 3770,
      "केटमा</w>": 3771,
      "ल्य</w>": 3772,
      "सिँ": 3773,
      "मिश्र": 3774,
      "जनजा": 3775,
      "दुः": 3776,
      "कार्ड</w>": 3777,
      "धारण</w>": 3778,
      "राजस्थान</w>": 3779,
      "समावेश</w>": 3780,
      "नेताहरुलाई</w>": 3781,
      "ल्याउन</w>": 3782,
      "२०१८</w>": 3783,
      "उपचार</w>": 3784,
      "जितेर</w>": 3785,
      "उपाधि": 3786,
      "खाले</w>": 3787,
      "प्रतियोगिताका</w>": 3788,
      "स्पद</w>": 3789,
      "एमालेसँग</w>": 3790,
      "रामचन्द्र</w>": 3791,
      "पछिको</w>": 3792,
      "पछिल्ला</w>": 3793,
      "नुपर्नेछ</w>": 3794,
      "आईपीएलको</w>": 3795,
      "उपाध्या": 3796,
      "बढाउन</w>": 3797,
      "गुरुङले</w>": 3798,
      "अन्तरिम</w>": 3799,
      "बजेट</w>": 3800,
      "उहाँले</w>": 3801,
      "लाइसे": 3802,
      "छुट्टै</w>": 3803,
      "निर्माणका</w>": 3804,
      "खेलकुदको</w>": 3805,
      "फ्रान्से": 3806,
      "पेनाल्टी</w>": 3807,
      "वायर्न</w>": 3808,
      "ढंगबाट</w>": 3809,
      "ीयताको</w>": 3810,
      "मुद्दामा</w>": 3811,
      "वृद्ध": 3812,
      "संकलन</w>": 3813,
      "अल्पसंख्यक</w>": 3814,
      "ब्राजिलियन</w>": 3815,
      "कारवाही</w>": 3816,
      "मोरङ</w>": 3817,
      "पश्चिम</w>": 3818,
      "अपेक्षा</w>": 3819,
      "ध्यानाकर्षण</w>": 3820,
      "उचित</w>": 3821,
      "चय": 3822,
      "चन</w>": 3823,
      "जमि": 3824,
      "तो</w>": 3825,
      "नभए": 3826,
      "पि</w>": 3827,
      "पन</w>": 3828,
      "बडी</w>": 3829,
      "लं": 3830,
      "वहन</w>": 3831,
      "सं</w>": 3832,
      "िन</w>": 3833,
      "पाए</w>": 3834,
      "निरा": 3835,
      "बारको</w>": 3836,
      "हुँ</w>": 3837,
      "केश": 3838,
      "ष्ट्र": 3839,
      "लिट": 3840,
      "ल्भ्": 3841,
      "क्षी</w>": 3842,
      "सम्भव</w>": 3843,
      "सुनि": 3844,
      "सुशासन</w>": 3845,
      "चासो</w>": 3846,
      "एकतामा</w>": 3847,
      "जाँदा</w>": 3848,
      "कोमा</w>": 3849,
      "स्थाय": 3850,
      "कार्यसम्पादन</w>": 3851,
      "जनालाई</w>": 3852,
      "बुँ": 3853,
      "शाल</w>": 3854,
      "टेक्": 3855,
      "चेन्न": 3856,
      "महिनाको</w>": 3857,
      "विश्वा": 3858,
      "देश्य": 3859,
      "जित्</w>": 3860,
      "क्रिस</w>": 3861,
      "क्रिकेटमा</w>": 3862,
      "अधिकृत</w>": 3863,
      "फिफा</w>": 3864,
      "राखेपले</w>": 3865,
      "धेरै": 3866,
      "डोर": 3867,
      "गुमाएर</w>": 3868,
      "क्यान</w>": 3869,
      "सुरुआ": 3870,
      "बलर</w>": 3871,
      "व्यक्तिलाई</w>": 3872,
      "बनेपछि</w>": 3873,
      "फर्किने</w>": 3874,
      "संयोजक": 3875,
      "रहेर</w>": 3876,
      "पाकिस्तान": 3877,
      "भरत": 3878,
      "बहुमत": 3879,
      "विभिन्</w>": 3880,
      "जिम्मेवार</w>": 3881,
      "समुह": 3882,
      "कार्यालयले</w>": 3883,
      "मेलमिला": 3884,
      "महामारीका</w>": 3885,
      "गौतम</w>": 3886,
      "सेमिफाइनल</w>": 3887,
      "ओलम्पि": 3888,
      "युनाइटेडलाई</w>": 3889,
      "हस्तान्तरण</w>": 3890,
      "आलोपालो</w>": 3891,
      "शाहीले</w>": 3892,
      "व्यहोरेको</w>": 3893,
      "ब्याट्सम्यान</w>": 3894,
      "वुल्भ्": 3895,
      "राप्रपा</w>": 3896,
      "भक्तपुर</w>": 3897,
      "क्वारेन्टिनमा</w>": 3898,
      "कौटिन्हो": 3899,
      "डर्टमन्ड": 3900,
      "दाहालबीच</w>": 3901,
      "उपचारका</w>": 3902,
      "अधिकृतको</w>": 3903,
      "भलिबल</w>": 3904,
      "क्यापिटल्": 3905,
      "स्तरीय</w>": 3906,
      "फ्रान्सेली</w>": 3907,
      "आए": 3908,
      "आठ</w>": 3909,
      "आधि": 3910,
      "आश्": 3911,
      "उक्": 3912,
      "उचा": 3913,
      "कञ्च": 3914,
      "खित</w>": 3915,
      "जर": 3916,
      "जति</w>": 3917,
      "झनै</w>": 3918,
      "डका</w>": 3919,
      "दे</w>": 3920,
      "नीमा</w>": 3921,
      "नपुर</w>": 3922,
      "मीले</w>": 3923,
      "यिक</w>": 3924,
      "षे": 3925,
      "षा</w>": 3926,
      "षण</w>": 3927,
      "सधै": 3928,
      "ीबाट</w>": 3929,
      "४७</w>": 3930,
      "४१</w>": 3931,
      "४६</w>": 3932,
      "५८</w>": 3933,
      "५९</w>": 3934,
      "्री</w>": 3935,
      "नेको</w>": 3936,
      "विसं</w>": 3937,
      "गर्यो</w>": 3938,
      "ानो</w>": 3939,
      "संगठनको</w>": 3940,
      "रुपा": 3941,
      "भाविक</w>": 3942,
      "रिक्त</w>": 3943,
      "नुवा": 3944,
      "कुँ": 3945,
      "मुक्त</w>": 3946,
      "ट्रा": 3947,
      "त्यस</w>": 3948,
      "सुख": 3949,
      "सुवास</w>": 3950,
      "सुरू</w>": 3951,
      "चालन</w>": 3952,
      "लेख": 3953,
      "कोटा": 3954,
      "रेल</w>": 3955,
      "माओवादीका</w>": 3956,
      "बिदा": 3957,
      "कार्यदलको</w>": 3958,
      "गठनमा</w>": 3959,
      "वेन्द्र</w>": 3960,
      "समाधान</w>": 3961,
      "ट्टा": 3962,
      "२०२०</w>": 3963,
      "खेल्दा</w>": 3964,
      "भन्ने": 3965,
      "भेट</w>": 3966,
      "मोद": 3967,
      "ग्य</w>": 3968,
      "डिफे": 3969,
      "दर्श": 3970,
      "राजनीति": 3971,
      "राष्ट्रियसभामा</w>": 3972,
      "टुचे": 3973,
      "पक्षले</w>": 3974,
      "उनीहरु</w>": 3975,
      "समयको</w>": 3976,
      "नवराज</w>": 3977,
      "प्रतिस्पर्धामा</w>": 3978,
      "कुरामा</w>": 3979,
      "चेल्सीले</w>": 3980,
      "मन्त्रालयका</w>": 3981,
      "बाह्रखरीसँगको</w>": 3982,
      "प्रत्यक्ष</w>": 3983,
      "ह्न</w>": 3984,
      "इन्जुरी</w>": 3985,
      "भेटवार्ता</w>": 3986,
      "छानबिन</w>": 3987,
      "सङ्ख्य": 3988,
      "जिल्लाका</w>": 3989,
      "यसैगरी</w>": 3990,
      "यसैबीच</w>": 3991,
      "सचिवालयले</w>": 3992,
      "राहत</w>": 3993,
      "इन्डिज": 3994,
      "राजेन्द्र</w>": 3995,
      "सिद्धान्तको</w>": 3996,
      "तालमेल</w>": 3997,
      "पृथ्": 3998,
      "खराब</w>": 3999,
      "प्रतिबद्धता</w>": 4000,
      "विगतमा</w>": 4001,
      "रोजगा": 4002,
      "कृषि</w>": 4003,
      "कारबाही</w>": 4004,
      "अफ": 4005,
      "अफ</w>": 4006,
      "अरु</w>": 4007,
      "आर": 4008,
      "आम</w>": 4009,
      "आए</w>": 4010,
      "उन्": 4011,
      "कीले</w>": 4012,
      "घर": 4013,
      "चो</w>": 4014,
      "च्</w>": 4015,
      "जटि": 4016,
      "णका</w>": 4017,
      "तम</w>": 4018,
      "नमि": 4019,
      "बसि": 4020,
      "मृ": 4021,
      "रबहादुर</w>": 4022,
      "४३</w>": 4023,
      "मान्द": 4024,
      "वाग्": 4025,
      "देवेन्द्र</w>": 4026,
      "लिक</w>": 4027,
      "संकेत</w>": 4028,
      "क्षम": 4029,
      "म्स</w>": 4030,
      "मिति": 4031,
      "जनक": 4032,
      "जनक</w>": 4033,
      "क्रिया": 4034,
      "सुस</w>": 4035,
      "नेपाल": 4036,
      "एकताले</w>": 4037,
      "रेज</w>": 4038,
      "अनुप": 4039,
      "गरिन्</w>": 4040,
      "बन्छ</w>": 4041,
      "कार्यविधि</w>": 4042,
      "जनाउँदै</w>": 4043,
      "जनादेश</w>": 4044,
      "सरकारका</w>": 4045,
      "सरकारसँग</w>": 4046,
      "आयोज": 4047,
      "समाचार</w>": 4048,
      "शान्ति": 4049,
      "लगाएका</w>": 4050,
      "तयारीका</w>": 4051,
      "हुँदैछ</w>": 4052,
      "डान</w>": 4053,
      "स्वतन्त्र</w>": 4054,
      "टोलीबाट</w>": 4055,
      "उत्सा": 4056,
      "वार्तामा</w>": 4057,
      "पुगेर</w>": 4058,
      "खुला": 4059,
      "पक्षको</w>": 4060,
      "महसुस</w>": 4061,
      "सञ्जा": 4062,
      "मेस्सीको</w>": 4063,
      "गठबन्धनलाई</w>": 4064,
      "मिलानलाई</w>": 4065,
      "शेर्": 4066,
      "नवनियुक्त</w>": 4067,
      "प्रकाशन</w>": 4068,
      "मूल्य</w>": 4069,
      "भोलि</w>": 4070,
      "गृह</w>": 4071,
      "जोडे</w>": 4072,
      "सर्वोच्": 4073,
      "इन्डिय": 4074,
      "स्वीकृत</w>": 4075,
      "कल्प": 4076,
      "देखाएको</w>": 4077,
      "प्रजातान्त्रिक</w>": 4078,
      "विज्ञप्ति</w>": 4079,
      "गोलकिपर</w>": 4080,
      "कानुनी</w>": 4081,
      "सिलवाल</w>": 4082,
      "एकतापछि</w>": 4083,
      "साझे": 4084,
      "बोर्डले</w>": 4085,
      "बाँडफाँड": 4086,
      "मल्लले</w>": 4087,
      "सिरिजको</w>": 4088,
      "सिरिजमा</w>": 4089,
      "भित्रको</w>": 4090,
      "उद्देश्य": 4091,
      "द्वन्द": 4092,
      "धनकु": 4093,
      "प्रभाव</w>": 4094,
      "हेटौँ": 4095,
      "समन्वय</w>": 4096,
      "अपाङ्गता</w>": 4097,
      "मापदण्ड</w>": 4098,
      "खासै</w>": 4099,
      "वरीय": 4100,
      "तेक्वान्दो</w>": 4101,
      "मेलमिलाप</w>": 4102,
      "अने": 4103,
      "कतामा</w>": 4104,
      "गी</w>": 4105,
      "जय": 4106,
      "तह</w>": 4107,
      "दियो</w>": 4108,
      "यद्य": 4109,
      "यतिबेला</w>": 4110,
      "ल्य": 4111,
      "३९</w>": 4112,
      "५७</w>": 4113,
      "८४</w>": 4114,
      "८६</w>": 4115,
      "कालीन</w>": 4116,
      "प्रश": 4117,
      "स्वार्": 4118,
      "पास</w>": 4119,
      "विशाल</w>": 4120,
      "बालि": 4121,
      "तिकै</w>": 4122,
      "हुन्छन्</w>": 4123,
      "साउन</w>": 4124,
      "रिता</w>": 4125,
      "रहन</w>": 4126,
      "म्बि": 4127,
      "त्यस्तो</w>": 4128,
      "कार्की</w>": 4129,
      "मेरा</w>": 4130,
      "मेडि": 4131,
      "एकतालाई</w>": 4132,
      "एकीकरण</w>": 4133,
      "लेग</w>": 4134,
      "किरण</w>": 4135,
      "कोष": 4136,
      "युवा": 4137,
      "कार्यका": 4138,
      "बनायो</w>": 4139,
      "टिमलाई</w>": 4140,
      "जनाए</w>": 4141,
      "वेस्ट": 4142,
      "लीमा</w>": 4143,
      "हाम्रा</w>": 4144,
      "पेस</w>": 4145,
      "ङ्ग</w>": 4146,
      "सोसि": 4147,
      "ियामा</w>": 4148,
      "महिलाको</w>": 4149,
      "सक्यो</w>": 4150,
      "मतको</w>": 4151,
      "च्यालेन्": 4152,
      "भेला</w>": 4153,
      "जिते</w>": 4154,
      "श्री": 4155,
      "गराए</w>": 4156,
      "प्रतिनिधिसभामा</w>": 4157,
      "नीति": 4158,
      "पूर्वक</w>": 4159,
      "टुंग्या": 4160,
      "लक्ष्मी</w>": 4161,
      "बोलाएको</w>": 4162,
      "थिएनन्</w>": 4163,
      "अनश": 4164,
      "बाह्रखरीलाई</w>": 4165,
      "भ्रमण</w>": 4166,
      "लियोनल</w>": 4167,
      "महाधिवेशन</w>": 4168,
      "चलाउ</w>": 4169,
      "मोहन</w>": 4170,
      "एकताबारे</w>": 4171,
      "निर्वाचनपछि</w>": 4172,
      "आर्सनलले</w>": 4173,
      "कार्यकर्ता</w>": 4174,
      "मौका</w>": 4175,
      "निरन्त": 4176,
      "प्रभावित</w>": 4177,
      "व्यवस्थापन": 4178,
      "भवनमा</w>": 4179,
      "अगस्त</w>": 4180,
      "अपना": 4181,
      "चेतन</w>": 4182,
      "सम्मेलनमा</w>": 4183,
      "विद्युत्</w>": 4184,
      "घण्टा</w>": 4185,
      "संरक्षण</w>": 4186,
      "समझदारी</w>": 4187,
      "प्रावधान</w>": 4188,
      "यातायात</w>": 4189,
      "अमेरि": 4190,
      "द्वन्द्": 4191,
      "अवार्ड</w>": 4192,
      "इनि": 4193,
      "इरहेका</w>": 4194,
      "करा": 4195,
      "कले": 4196,
      "खिम": 4197,
      "जियो</w>": 4198,
      "झि": 4199,
      "ढा</w>": 4200,
      "नरले</w>": 4201,
      "बन्</w>": 4202,
      "भएकी</w>": 4203,
      "मसँग</w>": 4204,
      "रवी": 4205,
      "लसँग</w>": 4206,
      "वृत्": 4207,
      "वराज</w>": 4208,
      "सबाट</w>": 4209,
      "सत्ता</w>": 4210,
      "िका</w>": 4211,
      "ीक</w>": 4212,
      "७९</w>": 4213,
      "८०</w>": 4214,
      "न्दे": 4215,
      "न्सले</w>": 4216,
      "कारिक</w>": 4217,
      "प्रशास": 4218,
      "मामिला</w>": 4219,
      "राणा": 4220,
      "पारित</w>": 4221,
      "पारेर</w>": 4222,
      "खेर</w>": 4223,
      "नालाई</w>": 4224,
      "तिनै</w>": 4225,
      "साधारण</w>": 4226,
      "लिखित</w>": 4227,
      "रुण</w>": 4228,
      "रुढ</w>": 4229,
      "रिङ</w>": 4230,
      "स्थल</w>": 4231,
      "र्टि": 4232,
      "योग्य</w>": 4233,
      "पुरका</w>": 4234,
      "कारणले</w>": 4235,
      "रोमा": 4236,
      "रेग्": 4237,
      "केन्द्रबीचको</w>": 4238,
      "माओवादीको</w>": 4239,
      "बनाइ": 4240,
      "त्यसो</w>": 4241,
      "सेवा": 4242,
      "अर्ब</w>": 4243,
      "पोलिट": 4244,
      "समितिलाई</w>": 4245,
      "लिगका</w>": 4246,
      "कांग्रेसमा</w>": 4247,
      "मतभार</w>": 4248,
      "डिङ</w>": 4249,
      "दैनिक</w>": 4250,
      "न्तरण": 4251,
      "वर्षका</w>": 4252,
      "ठाकु": 4253,
      "राखेपको</w>": 4254,
      "फाइल</w>": 4255,
      "ध्यानमा</w>": 4256,
      "दललाई</w>": 4257,
      "नेतृत्वले</w>": 4258,
      "विश्वकर्": 4259,
      "पुनः": 4260,
      "अगावै</w>": 4261,
      "संविधानले</w>": 4262,
      "रहेछ</w>": 4263,
      "बोलाउने</w>": 4264,
      "बोलाइएको</w>": 4265,
      "कर्मचारीको</w>": 4266,
      "करणका</w>": 4267,
      "चेल्सीका</w>": 4268,
      "स्रोत</w>": 4269,
      "दिवसको</w>": 4270,
      "समूहको</w>": 4271,
      "गोलरहित</w>": 4272,
      "बर्खास्त</w>": 4273,
      "हैसिय": 4274,
      "भाइरसका</w>": 4275,
      "नागरिक</w>": 4276,
      "हेर्न</w>": 4277,
      "ठोस</w>": 4278,
      "आठौं</w>": 4279,
      "पुरानो</w>": 4280,
      "अघिल्लो</w>": 4281,
      "अस्पतालमा</w>": 4282,
      "आउट</w>": 4283,
      "संरचना</w>": 4284,
      "वामपन्थ": 4285,
      "सुदृढ": 4286,
      "पराजुलीले</w>": 4287,
      "रोक्न</w>": 4288,
      "चाहन्छु</w>": 4289,
      "ढकालले</w>": 4290,
      "वितरण</w>": 4291,
      "सुविधा</w>": 4292,
      "परिक्षण</w>": 4293,
      "जमिन</w>": 4294,
      "टुचेलले</w>": 4295,
      "उक्ल": 4296,
      "खमा</w>": 4297,
      "खान": 4298,
      "गगन</w>": 4299,
      "घटा": 4300,
      "चन्द्र": 4301,
      "जहाँ</w>": 4302,
      "ठा</w>": 4303,
      "तीले</w>": 4304,
      "दफा</w>": 4305,
      "नौ</w>": 4306,
      "नजिक</w>": 4307,
      "पु</w>": 4308,
      "पन्न</w>": 4309,
      "बृ": 4310,
      "मज": 4311,
      "मल": 4312,
      "मला</w>": 4313,
      "व्य</w>": 4314,
      "शकुमार</w>": 4315,
      "ौला</w>": 4316,
      "७२</w>": 4317,
      "७३</w>": 4318,
      "७६</w>": 4319,
      "र्ड</w>": 4320,
      "क्सले</w>": 4321,
      "पाठ": 4322,
      "पाहु": 4323,
      "वाह": 4324,
      "निक": 4325,
      "गरण</w>": 4326,
      "ताबाट</w>": 4327,
      "विश्</w>": 4328,
      "विरोध": 4329,
      "बाबु": 4330,
      "गर्नका</w>": 4331,
      "साढे</w>": 4332,
      "संस्था</w>": 4333,
      "रुकु": 4334,
      "क्षिक</w>": 4335,
      "रहरू": 4336,
      "रहँदै</w>": 4337,
      "सम्मे": 4338,
      "क्रे": 4339,
      "सुन": 4340,
      "सदर": 4341,
      "मेन</w>": 4342,
      "सहमत</w>": 4343,
      "अनुबन्ध": 4344,
      "अनुमान</w>": 4345,
      "प्रतिबन्ध</w>": 4346,
      "बिल्": 4347,
      "कार्यतालिका</w>": 4348,
      "पहिला</w>": 4349,
      "समाप्त</w>": 4350,
      "शाक्य": 4351,
      "म्बरमा</w>": 4352,
      "डेन": 4353,
      "डेब्य": 4354,
      "प्रधानन्यायाधीश</w>": 4355,
      "मतगण": 4356,
      "भन्छन्</w>": 4357,
      "निकाय": 4358,
      "डिएको</w>": 4359,
      "खाका</w>": 4360,
      "राजनीतिमा</w>": 4361,
      "विकासमा</w>": 4362,
      "ज्ञा</w>": 4363,
      "स्पष्टि": 4364,
      "बार्सिलोनालाई</w>": 4365,
      "एमालेबाट</w>": 4366,
      "सहमतिको</w>": 4367,
      "उमेदवारको</w>": 4368,
      "पौडेललाई</w>": 4369,
      "क्षेत्रको</w>": 4370,
      "मिलान</w>": 4371,
      "चाहन्छ</w>": 4372,
      "घात</w>": 4373,
      "खेलाडीहरुको</w>": 4374,
      "रियलले</w>": 4375,
      "रुपन्दे": 4376,
      "कार्यालयको</w>": 4377,
      "ओलीका</w>": 4378,
      "ढिलाई</w>": 4379,
      "उमेरमा</w>": 4380,
      "बालबालि": 4381,
      "सभामुखमा</w>": 4382,
      "खड्काले</w>": 4383,
      "मोहन": 4384,
      "मोहम्": 4385,
      "हेर्दा</w>": 4386,
      "गतेसम्म</w>": 4387,
      "कसैलाई</w>": 4388,
      "भेटघा": 4389,
      "अल्पसङ्ख्य": 4390,
      "शैक्षिक</w>": 4391,
      "निरन्तर</w>": 4392,
      "वेदनमा</w>": 4393,
      "मनोनय": 4394,
      "पदाधिकारी": 4395,
      "जिताउन</w>": 4396,
      "बेलुका</w>": 4397,
      "सडक</w>": 4398,
      "थुप्र": 4399,
      "सक्रिय</w>": 4400,
      "बाध्य</w>": 4401,
      "इलाभेन</w>": 4402,
      "सत्तारुढ</w>": 4403,
      "विवेक": 4404,
      "मेडिकल</w>": 4405,
      "पाहुना</w>": 4406,
      "सम्मेलन</w>": 4407,
      "अल्पसङ्ख्यक</w>": 4408,
      "एक्ल": 4409,
      "कस्तो</w>": 4410,
      "गर</w>": 4411,
      "ज्यान</w>": 4412,
      "ठहर</w>": 4413,
      "णको</w>": 4414,
      "तर": 4415,
      "धम्": 4416,
      "नई</w>": 4417,
      "नपाउने</w>": 4418,
      "नसके</w>": 4419,
      "बने</w>": 4420,
      "बक्सि": 4421,
      "लर</w>": 4422,
      "लम्ब": 4423,
      "वकुमार</w>": 4424,
      "हमा": 4425,
      "हेर": 4426,
      "ामा</w>": 4427,
      "४२</w>": 4428,
      "न्छौं</w>": 4429,
      "लार्": 4430,
      "लालाई</w>": 4431,
      "माथि": 4432,
      "मातृ": 4433,
      "स्टमा</w>": 4434,
      "राले</w>": 4435,
      "वाणि": 4436,
      "नेसन": 4437,
      "निवेदन</w>": 4438,
      "निषे": 4439,
      "बाब": 4440,
      "नान्ड": 4441,
      "साधारण": 4442,
      "दिशा": 4443,
      "न्दा</w>": 4444,
      "हिजो</w>": 4445,
      "भाव</w>": 4446,
      "सित</w>": 4447,
      "रिएको</w>": 4448,
      "म्बा": 4449,
      "त्यहाँ": 4450,
      "सुकै</w>": 4451,
      "पुरमा</w>": 4452,
      "पछ्या": 4453,
      "अनुमो": 4454,
      "केन्द्रलाई</w>": 4455,
      "टिमको</w>": 4456,
      "शाहले</w>": 4457,
      "अवधि</w>": 4458,
      "अवहे": 4459,
      "यससँगै</w>": 4460,
      "छैन्</w>": 4461,
      "संघर्ष": 4462,
      "२०२१</w>": 4463,
      "बेहो": 4464,
      "ियाका</w>": 4465,
      "लिगअन्तर्गत</w>": 4466,
      "हुँदा": 4467,
      "जुन": 4468,
      "डाले</w>": 4469,
      "भइरहेका</w>": 4470,
      "राखेपमा</w>": 4471,
      "पुनरा": 4472,
      "स्वागत</w>": 4473,
      "संविधानमा</w>": 4474,
      "क्याम्": 4475,
      "क्यारे": 4476,
      "अध्यक्षतामा</w>": 4477,
      "तर्फका</w>": 4478,
      "भट्ट</w>": 4479,
      "पाकिस्तानका</w>": 4480,
      "फ्रि": 4481,
      "बहुदलीय</w>": 4482,
      "करणमा</w>": 4483,
      "चुनावको</w>": 4484,
      "ब्राइ": 4485,
      "द्धान्": 4486,
      "ष्टि</w>": 4487,
      "तुल": 4488,
      "महामारी": 4489,
      "प्रक्रियामा</w>": 4490,
      "ब्रु": 4491,
      "महाधिवेशनमा</w>": 4492,
      "दौरान</w>": 4493,
      "वामदेव</w>": 4494,
      "लकडाउन</w>": 4495,
      "कानून</w>": 4496,
      "असन्तुष्टि</w>": 4497,
      "स्मरण</w>": 4498,
      "बैंक": 4499,
      "लेखेको</w>": 4500,
      "वर्गीकरण</w>": 4501,
      "समुदायबाट</w>": 4502,
      "किनभने</w>": 4503,
      "चलिरहेको</w>": 4504,
      "भ्रातृ</w>": 4505,
      "सुरुआत</w>": 4506,
      "संयोजकत्वमा</w>": 4507,
      "आधिकारिक</w>": 4508,
      "च्यालेन्जर्स</w>": 4509,
      "निरन्तरता</w>": 4510,
      "बाबुराम</w>": 4511,
      "स्पष्टिकरण</w>": 4512,
      "अस्": 4513,
      "असो": 4514,
      "आयो</w>": 4515,
      "आधु": 4516,
      "कला": 4517,
      "कला</w>": 4518,
      "जल": 4519,
      "डु": 4520,
      "तियार</w>": 4521,
      "नगरी</w>": 4522,
      "नभएर</w>": 4523,
      "पका</w>": 4524,
      "भनी</w>": 4525,
      "मञ्": 4526,
      "यू</w>": 4527,
      "रत</w>": 4528,
      "वो": 4529,
      "सजि": 4530,
      "सिया</w>": 4531,
      "४४</w>": 4532,
      "६९</w>": 4533,
      "६६</w>": 4534,
      "प्रि": 4535,
      "स्को": 4536,
      "निया": 4537,
      "निम्": 4538,
      "विदेश</w>": 4539,
      "विपरी": 4540,
      "विलिय": 4541,
      "बाटो": 4542,
      "नान्तर</w>": 4543,
      "हारेर</w>": 4544,
      "नुको</w>": 4545,
      "रहनेछ</w>": 4546,
      "मिलित</w>": 4547,
      "सम्मिलित</w>": 4548,
      "ट्रे": 4549,
      "सुम": 4550,
      "सुनिश्चित</w>": 4551,
      "पर्नेमा</w>": 4552,
      "जागि": 4553,
      "कोलक": 4554,
      "स्तरको</w>": 4555,
      "प्रदेशसभा": 4556,
      "कार्यकारी</w>": 4557,
      "श्य</w>": 4558,
      "जनामा</w>": 4559,
      "समाज</w>": 4560,
      "समानान्तर</w>": 4561,
      "ट्वी": 4562,
      "शाली</w>": 4563,
      "तीनव": 4564,
      "संघर्ष</w>": 4565,
      "२०१७</w>": 4566,
      "गरेकाले</w>": 4567,
      "उपत्य": 4568,
      "सक्दैन</w>": 4569,
      "अर्था": 4570,
      "सदस्यहरुलाई</w>": 4571,
      "छलफल": 4572,
      "भन्न</w>": 4573,
      "भन्नेमा</w>": 4574,
      "जितेकी</w>": 4575,
      "ग्न</w>": 4576,
      "पदबाट</w>": 4577,
      "डाँ": 4578,
      "वर्षपछि</w>": 4579,
      "स्ववि": 4580,
      "भइसकेका</w>": 4581,
      "आफूहरुको</w>": 4582,
      "उत्पन्न</w>": 4583,
      "परराष्ट्र</w>": 4584,
      "पटकको</w>": 4585,
      "बस्नेत</w>": 4586,
      "खुवा": 4587,
      "पक्षीय</w>": 4588,
      "नियन्त्र": 4589,
      "गठबन्धनका</w>": 4590,
      "खोजी</w>": 4591,
      "सिजनका</w>": 4592,
      "बढ्दै</w>": 4593,
      "जिम्मा</w>": 4594,
      "छनोटको</w>": 4595,
      "चर्चामा</w>": 4596,
      "छोड्": 4597,
      "उम्मेदवारको</w>": 4598,
      "भट्टराई</w>": 4599,
      "पीएसजीलाई</w>": 4600,
      "ढिलो</w>": 4601,
      "कम्पन": 4602,
      "विभागले</w>": 4603,
      "आन्दोलनमा</w>": 4604,
      "बारदेखि</w>": 4605,
      "घटना</w>": 4606,
      "नागरिक": 4607,
      "पाँचौं</w>": 4608,
      "बाहिरिएका</w>": 4609,
      "ठोरी</w>": 4610,
      "आँकडा</w>": 4611,
      "अभियान": 4612,
      "आईसीसी</w>": 4613,
      "इतिहासमा</w>": 4614,
      "फैलिएको</w>": 4615,
      "सिफारिश</w>": 4616,
      "मुम्बईले</w>": 4617,
      "देशिक</w>": 4618,
      "हिसाबले</w>": 4619,
      "मधेसवादी</w>": 4620,
      "कूल</w>": 4621,
      "किंग्स</w>": 4622,
      "स्पिनर</w>": 4623,
      "अक्टो": 4624,
      "अफिसिय": 4625,
      "छैटौं</w>": 4626,
      "जग्गा</w>": 4627,
      "मकवा": 4628,
      "डोरमणि</w>": 4629,
      "थुप्रै</w>": 4630,
      "ंगा": 4631,
      "अस्वीकार</w>": 4632,
      "अष्ट्र": 4633,
      "आदेश": 4634,
      "ईले</w>": 4635,
      "उजुरी</w>": 4636,
      "एल</w>": 4637,
      "एका": 4638,
      "कल": 4639,
      "कमा": 4640,
      "ङलाई</w>": 4641,
      "चल्": 4642,
      "ठप्": 4643,
      "दलित": 4644,
      "धी</w>": 4645,
      "धर्": 4646,
      "नपर्ने</w>": 4647,
      "नदिने</w>": 4648,
      "नसकेपछि</w>": 4649,
      "बद्ध</w>": 4650,
      "ब्रो": 4651,
      "म्यानले</w>": 4652,
      "षड": 4653,
      "५४</w>": 4654,
      "लाइन</w>": 4655,
      "पाय": 4656,
      "पार</w>": 4657,
      "पानी</w>": 4658,
      "पारीमा</w>": 4659,
      "पालना</w>": 4660,
      "वासी</w>": 4661,
      "नात्मक</w>": 4662,
      "गर्दै": 4663,
      "हुनुपर्छ</w>": 4664,
      "केजी</w>": 4665,
      "दिइन्</w>": 4666,
      "भाग</w>": 4667,
      "पनीयताको</w>": 4668,
      "रिजा": 4669,
      "नुपरेको</w>": 4670,
      "सम्ममा</w>": 4671,
      "पछा": 4672,
      "गोपनीयताको</w>": 4673,
      "पर्न</w>": 4674,
      "पर्नेछ</w>": 4675,
      "लेस्टर</w>": 4676,
      "सही</w>": 4677,
      "केन्द्रबाट</w>": 4678,
      "प्रतिव": 4679,
      "सेन्ट": 4680,
      "टेर</w>": 4681,
      "भएसँगै</w>": 4682,
      "पेन्द्र</w>": 4683,
      "नेताबीच</w>": 4684,
      "बैठकपछि</w>": 4685,
      "२०१५</w>": 4686,
      "२०२२</w>": 4687,
      "कृतिक</w>": 4688,
      "अर्थ</w>": 4689,
      "विश्ले": 4690,
      "सदस्यलाई</w>": 4691,
      "ज्य</w>": 4692,
      "व्यवहा": 4693,
      "व्यवस्थित</w>": 4694,
      "वर्षमा</w>": 4695,
      "फिलि": 4696,
      "शुल्": 4697,
      "सहमतिमा</w>": 4698,
      "महर्": 4699,
      "जर्म": 4700,
      "जर्मेन</w>": 4701,
      "खोजि": 4702,
      "खेलाडीहरू</w>": 4703,
      "प्रशिक्षणको</w>": 4704,
      "जित्दा</w>": 4705,
      "अध्यक्षको</w>": 4706,
      "मुलुकलाई</w>": 4707,
      "सिटीका</w>": 4708,
      "लाग्न</w>": 4709,
      "पार्न</w>": 4710,
      "विद्यालय</w>": 4711,
      "हाफको</w>": 4712,
      "कर्मचारी": 4713,
      "कर्मचारीलाई</w>": 4714,
      "चेल्सीलाई</w>": 4715,
      "भट्टराई": 4716,
      "राष्ट्रपतिसमक्ष</w>": 4717,
      "समर्थक": 4718,
      "विषयले</w>": 4719,
      "चोट</w>": 4720,
      "निर्माणमा</w>": 4721,
      "नियुक्ति": 4722,
      "आन्दोलन": 4723,
      "निश्चित": 4724,
      "रुपैयाँ": 4725,
      "स्याङ्": 4726,
      "शंकर</w>": 4727,
      "प्याकु": 4728,
      "मान्यता</w>": 4729,
      "परिवार</w>": 4730,
      "विभाजन</w>": 4731,
      "सचिवालयका</w>": 4732,
      "न्यायिक</w>": 4733,
      "च्याम्पियनसिपमा</w>": 4734,
      "आपत्ति</w>": 4735,
      "व्यवसायी</w>": 4736,
      "अभ्यास</w>": 4737,
      "जवाफ</w>": 4738,
      "बित्दै</w>": 4739,
      "वार्टर": 4740,
      "वार्षिक</w>": 4741,
      "वृद्धि</w>": 4742,
      "सुब्बा</w>": 4743,
      "फर्कने</w>": 4744,
      "सामग्री</w>": 4745,
      "केशव</w>": 4746,
      "स्थायित्व</w>": 4747,
      "द्धान्तिक</w>": 4748,
      "विपरीत</w>": 4749,
      "ठप्प</w>": 4750,
      "ंक</w>": 4751,
      "अग्": 4752,
      "अशो": 4753,
      "अख्": 4754,
      "इमा</w>": 4755,
      "कबाट</w>": 4756,
      "खटा": 4757,
      "घु": 4758,
      "जब": 4759,
      "डेका</w>": 4760,
      "डियो</w>": 4761,
      "डित</w>": 4762,
      "तल</w>": 4763,
      "नबित्दै</w>": 4764,
      "पढ": 4765,
      "बियन</w>": 4766,
      "लज्": 4767,
      "शही": 4768,
      "शपथ": 4769,
      "५५</w>": 4770,
      "६७</w>": 4771,
      "७७</w>": 4772,
      "७४</w>": 4773,
      "र्य": 4774,
      "लाल": 4775,
      "प्रस्थान</w>": 4776,
      "माइ": 4777,
      "रास्ववि": 4778,
      "नेलाई</w>": 4779,
      "निस्": 4780,
      "तापूर्वक</w>": 4781,
      "विष्ट</w>": 4782,
      "विपक्षी</w>": 4783,
      "बादल</w>": 4784,
      "सान</w>": 4785,
      "केलियन</w>": 4786,
      "यान</w>": 4787,
      "रहरु</w>": 4788,
      "रहनेछन्</w>": 4789,
      "र्टमा</w>": 4790,
      "जनले</w>": 4791,
      "चान</w>": 4792,
      "राष्ट्रका</w>": 4793,
      "एकजना</w>": 4794,
      "जास्पद</w>": 4795,
      "जागरण</w>": 4796,
      "रेलले</w>": 4797,
      "युवराज</w>": 4798,
      "सहज": 4799,
      "पहिचान</w>": 4800,
      "राजस्थान": 4801,
      "त्यसै</w>": 4802,
      "प्रशिक्षकका</w>": 4803,
      "हामी": 4804,
      "सेभि": 4805,
      "पीडित</w>": 4806,
      "तीनै</w>": 4807,
      "भएमा</w>": 4808,
      "ल्याएको</w>": 4809,
      "दोष</w>": 4810,
      "लगाइ": 4811,
      "महानगरपालिका</w>": 4812,
      "थाले</w>": 4813,
      "चेर</w>": 4814,
      "प्राय": 4815,
      "चुनि": 4816,
      "जितको</w>": 4817,
      "नोभे": 4818,
      "पदका</w>": 4819,
      "राष्ट्रियसभाका</w>": 4820,
      "अधिवक्ता</w>": 4821,
      "स्वराज": 4822,
      "देखिएपछि</w>": 4823,
      "जिल्लाको</w>": 4824,
      "हरूमा</w>": 4825,
      "पक्षका</w>": 4826,
      "भावी</w>": 4827,
      "परिषद</w>": 4828,
      "सम्पन्</w>": 4829,
      "प्रचण्डको</w>": 4830,
      "समयदेखि</w>": 4831,
      "हालै</w>": 4832,
      "पार्टीबीच</w>": 4833,
      "गाउँपालिकाको</w>": 4834,
      "स्रोतको</w>": 4835,
      "पीएसजीका</w>": 4836,
      "शतकीय</w>": 4837,
      "परिवर्तनको</w>": 4838,
      "कामचलाउ</w>": 4839,
      "प्रधानमन्त्रीमा</w>": 4840,
      "लाइप": 4841,
      "बन्दी</w>": 4842,
      "सुरक्षित</w>": 4843,
      "बारबाट</w>": 4844,
      "प्रक्रियालाई</w>": 4845,
      "पारिएको</w>": 4846,
      "एएफसीले</w>": 4847,
      "अस्ट्रेलिया</w>": 4848,
      "खनालले</w>": 4849,
      "च्याम्पियनसिप</w>": 4850,
      "असन्तुष्ट</w>": 4851,
      "स्मृ": 4852,
      "सागका</w>": 4853,
      "हुन्थ्यो</w>": 4854,
      "महरले</w>": 4855,
      "कृष्णप्रसाद</w>": 4856,
      "माधवकुमार</w>": 4857,
      "लामिछानेले</w>": 4858,
      "रंगशालामा</w>": 4859,
      "अनिवार्": 4860,
      "सवारी</w>": 4861,
      "प्रभावकारी</w>": 4862,
      "पर्यट": 4863,
      "प्रारम्भ</w>": 4864,
      "क्रान्तिकारी</w>": 4865,
      "लेसनमा</w>": 4866,
      "बुँदे</w>": 4867,
      "सधैं</w>": 4868,
      "अनेरास्ववि": 4869,
      "प्रशस्त</w>": 4870,
      "मोहम्मद</w>": 4871,
      "अनुमोदन</w>": 4872,
      "असोज</w>": 4873,
      "पछाडि</w>": 4874,
      "ंले</w>": 4875,
      "अल</w>": 4876,
      "उहाँ</w>": 4877,
      "कम्प": 4878,
      "कहाँ</w>": 4879,
      "घन</w>": 4880,
      "ङ्</w>": 4881,
      "चै": 4882,
      "चरण</w>": 4883,
      "जलाई</w>": 4884,
      "जीले</w>": 4885,
      "जसो</w>": 4886,
      "डको</w>": 4887,
      "डडे": 4888,
      "ढी</w>": 4889,
      "थे": 4890,
      "धै</w>": 4891,
      "पम्": 4892,
      "बलको</w>": 4893,
      "यति</w>": 4894,
      "रग": 4895,
      "रौ": 4896,
      "रहि": 4897,
      "सञ्</w>": 4898,
      "६३</w>": 4899,
      "८७</w>": 4900,
      "न्तिको</w>": 4901,
      "काममा</w>": 4902,
      "कामको</w>": 4903,
      "कान्ति": 4904,
      "प्रष्ट</w>": 4905,
      "स्थ</w>": 4906,
      "स्त्र</w>": 4907,
      "स्पोर्ट": 4908,
      "क्ता": 4909,
      "रामे": 4910,
      "विवाद": 4911,
      "नाम": 4912,
      "त्स": 4913,
      "त्त</w>": 4914,
      "लिस</w>": 4915,
      "लिड्": 4916,
      "दिने": 4917,
      "संकल्प</w>": 4918,
      "सिनियर</w>": 4919,
      "याउने</w>": 4920,
      "रिट</w>": 4921,
      "क्षमा</w>": 4922,
      "योजन</w>": 4923,
      "मित": 4924,
      "दुब": 4925,
      "नेपालग": 4926,
      "पर्या": 4927,
      "लेवा": 4928,
      "किसि": 4929,
      "गरिनेछ</w>": 4930,
      "प्रतिष्ठ": 4931,
      "कार्यमा</w>": 4932,
      "कार्यसमिति</w>": 4933,
      "जेम्स</w>": 4934,
      "ेसन</w>": 4935,
      "टिममा</w>": 4936,
      "टिकट</w>": 4937,
      "समारोह": 4938,
      "बुन्ड": 4939,
      "बुढा": 4940,
      "अवका": 4941,
      "न्डर": 4942,
      "ल्याएका</w>": 4943,
      "महानगर": 4944,
      "सोच": 4945,
      "सोलेसनमा</w>": 4946,
      "थारु</w>": 4947,
      "मती</w>": 4948,
      "जुम्": 4949,
      "लुइ": 4950,
      "खारेज</w>": 4951,
      "गराउँदै</w>": 4952,
      "वर्षमान</w>": 4953,
      "अधिवेशन</w>": 4954,
      "भइन्</w>": 4955,
      "भइसकेकाले</w>": 4956,
      "आर्य</w>": 4957,
      "दलहरु": 4958,
      "दलहरुलाई</w>": 4959,
      "नियमा": 4960,
      "गठबन्धन": 4961,
      "अध्ययन</w>": 4962,
      "सहभागि</w>": 4963,
      "दीर्": 4964,
      "कप्तानीमा</w>": 4965,
      "आईपीएलका</w>": 4966,
      "समयमै</w>": 4967,
      "गुमाउने</w>": 4968,
      "क्याम्प": 4969,
      "नवनिर्वाचित</w>": 4970,
      "पार्दै</w>": 4971,
      "मूल</w>": 4972,
      "पठाउने</w>": 4973,
      "परिषदको</w>": 4974,
      "स्रोतका</w>": 4975,
      "फ्रान्स</w>": 4976,
      "छुट्टा": 4977,
      "मतदाताले</w>": 4978,
      "हराउँदै</w>": 4979,
      "सांसदको</w>": 4980,
      "विशेष": 4981,
      "जमैकाले</w>": 4982,
      "रोनाल्ड</w>": 4983,
      "रोनाल्डो</w>": 4984,
      "फ्रान्सले</w>": 4985,
      "बाहिरिएको</w>": 4986,
      "मैदानको</w>": 4987,
      "अलग</w>": 4988,
      "अस्ट्रेलियाले</w>": 4989,
      "अस्पताल</w>": 4990,
      "माओवादीबीच</w>": 4991,
      "ब्याट्सम्यानले</w>": 4992,
      "जीवनको</w>": 4993,
      "आईसीसीले</w>": 4994,
      "रेफ्रीले</w>": 4995,
      "दूर": 4996,
      "सैद्धान्तिक</w>": 4997,
      "लामिछाने</w>": 4998,
      "एकेडेमी</w>": 4999,
      "आचार्य</w>": 5000,
      "प्रोटो": 5001,
      "कीर्तिमानी</w>": 5002,
      "कदम</w>": 5003,
      "भागवण्डा</w>": 5004,
      "समेटिएको</w>": 5005,
      "भागबण्डा</w>": 5006,
      "जनजाति</w>": 5007,
      "उपाध्यायले</w>": 5008,
      "डिफेन्डर</w>": 5009,
      "पृथ्वी": 5010,
      "जटिल": 5011,
      "द्वन्द्व": 5012,
      "वाणिज्य</w>": 5013,
      "शुल्क</w>": 5014,
      "प्रायः</w>": 5015,
      "अप्": 5016,
      "आक्रम": 5017,
      "उर्": 5018,
      "एसँगै</w>": 5019,
      "कता": 5020,
      "ग्र</w>": 5021,
      "घर्": 5022,
      "घ्र</w>": 5023,
      "जसरी</w>": 5024,
      "डर</w>": 5025,
      "णु</w>": 5026,
      "थप": 5027,
      "थप्": 5028,
      "दलमा</w>": 5029,
      "नर</w>": 5030,
      "नजि": 5031,
      "नीको</w>": 5032,
      "नभएका</w>": 5033,
      "नपाएको</w>": 5034,
      "पण्ड": 5035,
      "फेस": 5036,
      "बनि": 5037,
      "बलाय": 5038,
      "भत्": 5039,
      "लगि": 5040,
      "ल्यो</w>": 5041,
      "शमा</w>": 5042,
      "सल": 5043,
      "ाका</w>": 5044,
      "८८</w>": 5045,
      "८५</w>": 5046,
      "९५</w>": 5047,
      "९०</w>": 5048,
      "न्स": 5049,
      "प्रिय": 5050,
      "प्रकट</w>": 5051,
      "्यौं</w>": 5052,
      "पाल्": 5053,
      "नेदर": 5054,
      "निवर्तमान</w>": 5055,
      "तारि": 5056,
      "विक्रम</w>": 5057,
      "बाजी</w>": 5058,
      "गर्छु</w>": 5059,
      "गर्दैछ</w>": 5060,
      "साल": 5061,
      "सावि": 5062,
      "त्ति": 5063,
      "लिज</w>": 5064,
      "दिएपछि</w>": 5065,
      "सिटमा</w>": 5066,
      "योजन": 5067,
      "जनमत</w>": 5068,
      "जनतालाई</w>": 5069,
      "कुर्": 5070,
      "ट्रिन": 5071,
      "सुरे": 5072,
      "गोमा</w>": 5073,
      "किय</w>": 5074,
      "आफु</w>": 5075,
      "हरुका</w>": 5076,
      "अनुसा": 5077,
      "अनुरोध</w>": 5078,
      "टोटे": 5079,
      "कार्यदलका</w>": 5080,
      "बनाउनुपर्ने</w>": 5081,
      "लोनमा</w>": 5082,
      "सरकारबाट</w>": 5083,
      "राजपा</w>": 5084,
      "प्रशिक्षकमा</w>": 5085,
      "कांश</w>": 5086,
      "टाउन</w>": 5087,
      "जोश": 5088,
      "लगाए</w>": 5089,
      "डेन</w>": 5090,
      "व्यस्त</w>": 5091,
      "कर्मी</w>": 5092,
      "नेतृ</w>": 5093,
      "सकै</w>": 5094,
      "कांग्रेसबाट</w>": 5095,
      "निकाय</w>": 5096,
      "जुडो": 5097,
      "लुम्बि": 5098,
      "अन्तर्घात</w>": 5099,
      "अधिकांश</w>": 5100,
      "विकासको</w>": 5101,
      "बार्सिलोनाको</w>": 5102,
      "पुगे</w>": 5103,
      "पालिस</w>": 5104,
      "भूकम्प": 5105,
      "पत्रकार": 5106,
      "क्षेत्रका</w>": 5107,
      "खेलाडीहरूको</w>": 5108,
      "फोर्ड": 5109,
      "छिमे": 5110,
      "वीच</w>": 5111,
      "बढ्दो</w>": 5112,
      "भण्डारीको</w>": 5113,
      "अध्यक्षले</w>": 5114,
      "नवल": 5115,
      "सिटौला</w>": 5116,
      "बुझाइ": 5117,
      "स्थिरता</w>": 5118,
      "स्वर्ण": 5119,
      "अनौ": 5120,
      "समुहले</w>": 5121,
      "दिवस</w>": 5122,
      "राष्ट्रपतिलाई</w>": 5123,
      "मिल्न</w>": 5124,
      "कम्तीमा</w>": 5125,
      "पुग्न</w>": 5126,
      "पुरस्": 5127,
      "महामारीको</w>": 5128,
      "दृष्टि": 5129,
      "पाँचौ</w>": 5130,
      "गतेदेखि</w>": 5131,
      "यूएई</w>": 5132,
      "गणेश</w>": 5133,
      "मनाङ</w>": 5134,
      "कमजोरी</w>": 5135,
      "ब्रे": 5136,
      "युभेन्ट्स</w>": 5137,
      "धनराज</w>": 5138,
      "ढाँ": 5139,
      "ग्राना": 5140,
      "माओवादीबीचको</w>": 5141,
      "हार्दि": 5142,
      "मड्रिडले</w>": 5143,
      "प्रकाशित</w>": 5144,
      "लेखेका</w>": 5145,
      "होटेलमा</w>": 5146,
      "रोयल्": 5147,
      "सेभियाले</w>": 5148,
      "माधव</w>": 5149,
      "एकेडेम": 5150,
      "नेम्वाङ</w>": 5151,
      "साउथ": 5152,
      "श्रेण": 5153,
      "आर्चरले</w>": 5154,
      "अवधिमा</w>": 5155,
      "सिल्भा</w>": 5156,
      "आदिवासी</w>": 5157,
      "लाइसेन्स</w>": 5158,
      "उक्लिएको</w>": 5159,
      "कल्पिक</w>": 5160,
      "रवीन्द्र</w>": 5161,
      "बृह": 5162,
      "डेब्यु</w>": 5163,
      "विवेकशील</w>": 5164,
      "बक्सिङ</w>": 5165,
      "अष्ट्रेल": 5166,
      "लज्जास्पद</w>": 5167,
      "पम्फा</w>": 5168,
      "लेवान्डो": 5169,
      "अह": 5170,
      "अयो": 5171,
      "अड्": 5172,
      "अष्ट": 5173,
      "अडान</w>": 5174,
      "आएर</w>": 5175,
      "आउनु": 5176,
      "एँ</w>": 5177,
      "एरिक</w>": 5178,
      "कसले</w>": 5179,
      "गको</w>": 5180,
      "गल्": 5181,
      "चक्र": 5182,
      "जर</w>": 5183,
      "झा</w>": 5184,
      "ड्या": 5185,
      "तै</w>": 5186,
      "तरुण</w>": 5187,
      "द्र": 5188,
      "नअनुसार</w>": 5189,
      "नसकिने</w>": 5190,
      "पल्": 5191,
      "पद्ध": 5192,
      "बहि": 5193,
      "लौ": 5194,
      "सल</w>": 5195,
      "सत्य": 5196,
      "हि</w>": 5197,
      "ैमा</w>": 5198,
      "००</w>": 5199,
      "८२</w>": 5200,
      "र्लि": 5201,
      "्रे": 5202,
      "न्ह</w>": 5203,
      "लाभ": 5204,
      "काली": 5205,
      "कासहित</w>": 5206,
      "काफ्": 5207,
      "मार": 5208,
      "माल</w>": 5209,
      "रायमा": 5210,
      "वाला</w>": 5211,
      "वाट्": 5212,
      "बाध्य": 5213,
      "बागो</w>": 5214,
      "हाला": 5215,
      "साल</w>": 5216,
      "ष्टा": 5217,
      "म्भ</w>": 5218,
      "मिलियन</w>": 5219,
      "सम्पर्": 5220,
      "सुन्द": 5221,
      "पुरा</w>": 5222,
      "कार्कीले</w>": 5223,
      "सद्": 5224,
      "एकपटक</w>": 5225,
      "लेन</w>": 5226,
      "अनुभव</w>": 5227,
      "गरिसकेका</w>": 5228,
      "स्तरमा</w>": 5229,
      "बन्यो</w>": 5230,
      "कार्यसमितिको</w>": 5231,
      "कार्यशै": 5232,
      "जेल": 5233,
      "बनाइएको</w>": 5234,
      "देखियो</w>": 5235,
      "गठित</w>": 5236,
      "त्यसअघि</w>": 5237,
      "ट्ने</w>": 5238,
      "शार": 5239,
      "जोर्": 5240,
      "जोडेर</w>": 5241,
      "ंगला": 5242,
      "बैठकबाट</w>": 5243,
      "लगाएर</w>": 5244,
      "कृति</w>": 5245,
      "रणनीति</w>": 5246,
      "पोग्": 5247,
      "एजेण्डा</w>": 5248,
      "फुटबलका</w>": 5249,
      "परामर्": 5250,
      "अन्तर्गत": 5251,
      "झाले</w>": 5252,
      "पुग्</w>": 5253,
      "आइसोलेसनमा</w>": 5254,
      "वैठ": 5255,
      "राजधानीमा</w>": 5256,
      "एन्ड</w>": 5257,
      "स्वाभाविक</w>": 5258,
      "क्षेत्रबाट</w>": 5259,
      "भारतमा</w>": 5260,
      "मिलाउन</w>": 5261,
      "घाती</w>": 5262,
      "छिन्</w>": 5263,
      "छिटै</w>": 5264,
      "वीर</w>": 5265,
      "पोखरामा</w>": 5266,
      "सुरुमा</w>": 5267,
      "अध्यक्षता</w>": 5268,
      "बुझाउन</w>": 5269,
      "मूल्या": 5270,
      "छोड्ने</w>": 5271,
      "प्रमुखले</w>": 5272,
      "स्वास्थ्य": 5273,
      "बजेदेखि</w>": 5274,
      "उहाँहरुले</w>": 5275,
      "कम्युनिष्ट": 5276,
      "नियुक्": 5277,
      "दायर</w>": 5278,
      "दायित्व</w>": 5279,
      "हेर्ने</w>": 5280,
      "हुनुहुन्छ</w>": 5281,
      "क्रिकेटअन्तर्गत</w>": 5282,
      "मल्ल</w>": 5283,
      "व्यहोर्": 5284,
      "रमेशकुमार</w>": 5285,
      "पोर्चुगलले</w>": 5286,
      "लम्ब</w>": 5287,
      "संगठन": 5288,
      "सुदृढ</w>": 5289,
      "सञ्चालनमा</w>": 5290,
      "संस्थागत</w>": 5291,
      "फैस": 5292,
      "खाँणले</w>": 5293,
      "कोलकाता</w>": 5294,
      "उठ्": 5295,
      "राइडर्": 5296,
      "एभर्टनले</w>": 5297,
      "प्रमाणपत्र</w>": 5298,
      "न्यौपानेले</w>": 5299,
      "आकांक्षी</w>": 5300,
      "प्रत्यक्षतर्फ</w>": 5301,
      "एमबाप्पेले</w>": 5302,
      "सशस्त्र</w>": 5303,
      "कार्यान्वयनमा</w>": 5304,
      "भुसालले</w>": 5305,
      "संशोधनको</w>": 5306,
      "शान्तिपूर्ण</w>": 5307,
      "शेर्पाले</w>": 5308,
      "वरीयतामा</w>": 5309,
      "ठाकुर</w>": 5310,
      "क्यारेबियन</w>": 5311,
      "अर्थात्</w>": 5312,
      "मकवानपुर</w>": 5313,
      "अनिवार्य</w>": 5314,
      "पर्याप्त</w>": 5315,
      "नियमावली</w>": 5316,
      "अप्ठ": 5317,
      "फेसबु": 5318,
      "टोटेनह": 5319,
      "दृष्टिको": 5320,
      "रायमाझ": 5321,
      "असि": 5322,
      "अभाव": 5323,
      "अफ्रि": 5324,
      "इच्": 5325,
      "एम्": 5326,
      "ऐनले</w>": 5327,
      "कपमा</w>": 5328,
      "खस": 5329,
      "खति": 5330,
      "गी": 5331,
      "गज</w>": 5332,
      "गएर</w>": 5333,
      "चन्द": 5334,
      "जग": 5335,
      "जरि": 5336,
      "जंग</w>": 5337,
      "झण्ड": 5338,
      "ठमेल</w>": 5339,
      "ठीक</w>": 5340,
      "डलाई</w>": 5341,
      "तला": 5342,
      "तीय</w>": 5343,
      "धनु": 5344,
      "ध्यक्ष</w>": 5345,
      "नीय</w>": 5346,
      "नवी": 5347,
      "पण</w>": 5348,
      "पञ्": 5349,
      "बसाइ": 5350,
      "बंगला": 5351,
      "भविष": 5352,
      "यद</w>": 5353,
      "यहाँ": 5354,
      "रञ्": 5355,
      "वत</w>": 5356,
      "सस्तो</w>": 5357,
      "ितले</w>": 5358,
      "६५</w>": 5359,
      "६२</w>": 5360,
      "लाका</w>": 5361,
      "कामका</w>": 5362,
      "प्रचार</w>": 5363,
      "प्रवक्": 5364,
      "माने": 5365,
      "क्न</w>": 5366,
      "राहु": 5367,
      "पाउन</w>": 5368,
      "पाउनुपर्ने</w>": 5369,
      "निको</w>": 5370,
      "गरियो</w>": 5371,
      "विचा": 5372,
      "विष्ट": 5373,
      "विमान": 5374,
      "गर्छन्</w>": 5375,
      "साप": 5376,
      "साह": 5377,
      "सालको</w>": 5378,
      "दिइने</w>": 5379,
      "दिपाय": 5380,
      "संल": 5381,
      "हिँ": 5382,
      "भाँ": 5383,
      "भालाड": 5384,
      "भाषा": 5385,
      "लाग्यो</w>": 5386,
      "रहन्छ</w>": 5387,
      "त्यति": 5388,
      "दुरुप": 5389,
      "सुवा": 5390,
      "गोल्": 5391,
      "रोल्": 5392,
      "रोहित</w>": 5393,
      "लेखि": 5394,
      "कोट": 5395,
      "कोम्यानले</w>": 5396,
      "रेले</w>": 5397,
      "सहकारी</w>": 5398,
      "हरि</w>": 5399,
      "अन्यो": 5400,
      "अन्त्य": 5401,
      "बिक्र": 5402,
      "काठमाडौँ": 5403,
      "उँछ</w>": 5404,
      "पूर्ति</w>": 5405,
      "रीसँगै</w>": 5406,
      "ट्टे": 5407,
      "बुट": 5408,
      "जोस</w>": 5409,
      "जोफ्र": 5410,
      "जोशी</w>": 5411,
      "जोर्ड": 5412,
      "टेस्ट": 5413,
      "अवरोध</w>": 5414,
      "यसअघि": 5415,
      "डेभिड</w>": 5416,
      "२०१६</w>": 5417,
      "बेग्": 5418,
      "बेच्</w>": 5419,
      "ियालाई</w>": 5420,
      "अर्या": 5421,
      "मतलाई</w>": 5422,
      "निकालेका</w>": 5423,
      "क्लबसँग</w>": 5424,
      "शर्मालाई</w>": 5425,
      "वर्षदेखि</w>": 5426,
      "स्वय": 5427,
      "ठाउँ</w>": 5428,
      "उत्पादन</w>": 5429,
      "पर्</w>": 5430,
      "हरूसँग</w>": 5431,
      "महर</w>": 5432,
      "विश्वस्त</w>": 5433,
      "उनीहरूको</w>": 5434,
      "सर्वदलीय</w>": 5435,
      "छाड्": 5436,
      "भारतका</w>": 5437,
      "प्रचण्डबीच</w>": 5438,
      "खोटा": 5439,
      "खेलाडीहरु</w>": 5440,
      "खेलाडीहरुलाई</w>": 5441,
      "पूर्वमन्त्री</w>": 5442,
      "रूप</w>": 5443,
      "टुंगि": 5444,
      "रुपमै</w>": 5445,
      "दिनभित्रै</w>": 5446,
      "ख्या</w>": 5447,
      "पार्टीभित्रको</w>": 5448,
      "श्रेष्ठको</w>": 5449,
      "जोडेका</w>": 5450,
      "खर्चेर</w>": 5451,
      "त्रिवि</w>": 5452,
      "क्रान्तिको</w>": 5453,
      "गतिविधि": 5454,
      "समर्थनमा</w>": 5455,
      "देखाएका</w>": 5456,
      "खिम</w>": 5457,
      "बन्दै</w>": 5458,
      "लियोनले</w>": 5459,
      "श्वर": 5460,
      "पुग्दा</w>": 5461,
      "गेटा": 5462,
      "आन्दोलनको</w>": 5463,
      "इन्टरले</w>": 5464,
      "भाइरस</w>": 5465,
      "फर्काउन</w>": 5466,
      "सचिवालय</w>": 5467,
      "सातै</w>": 5468,
      "युनाइटेडको</w>": 5469,
      "राज्यको</w>": 5470,
      "क्रिकेटर</w>": 5471,
      "आर्सनल</w>": 5472,
      "विकेटको</w>": 5473,
      "पाण्डेय</w>": 5474,
      "आत्मघाती</w>": 5475,
      "कार्यक्रमलाई</w>": 5476,
      "काँग्रेसले</w>": 5477,
      "आठमा</w>": 5478,
      "युभेन्टसले</w>": 5479,
      "पुरानै</w>": 5480,
      "मीना</w>": 5481,
      "ललितपुर</w>": 5482,
      "प्राथमिकतामा</w>": 5483,
      "अभियानमा</w>": 5484,
      "कैलाली</w>": 5485,
      "आपसी</w>": 5486,
      "रेफ्री</w>": 5487,
      "बिताएका</w>": 5488,
      "सञ्चालनका</w>": 5489,
      "इन्डिज</w>": 5490,
      "महेन्द्रनगर</w>": 5491,
      "हेटौं": 5492,
      "जनयुद्ध</w>": 5493,
      "राइडर्स": 5494,
      "जवाफ": 5495,
      "चीन</w>": 5496,
      "मद्दतमा</w>": 5497,
      "जुटेका</w>": 5498,
      "जोगाउन</w>": 5499,
      "अतिरिक्त</w>": 5500,
      "डिभिजनमा</w>": 5501,
      "व्यवस्थापक</w>": 5502,
      "पत्रकारहरु": 5503,
      "नभएसम्म</w>": 5504,
      "ओलम्पिकमा</w>": 5505,
      "कौटिन्होले</w>": 5506,
      "सुखद</w>": 5507,
      "क्षमता</w>": 5508,
      "अनुपस्थित</w>": 5509,
      "सोसिडा": 5510,
      "अनशनमा</w>": 5511,
      "बाबु</w>": 5512,
      "पछ्याएको</w>": 5513,
      "अवहेलना</w>": 5514,
      "पुनरागमन</w>": 5515,
      "आधुनिक</w>": 5516,
      "सजिलो</w>": 5517,
      "कोलकक्": 5518,
      "अफिसियल</w>": 5519,
      "प्रतिवद्धता</w>": 5520,
      "छुट्टाछुट्टै</w>": 5521,
      "हार्दिक</w>": 5522,
      "जोफ्रा</w>": 5523,
      "ः४५</w>": 5524,
      "अलि": 5525,
      "अत्य": 5526,
      "अंग": 5527,
      "असफल</w>": 5528,
      "आन्द्र": 5529,
      "आवेदन</w>": 5530,
      "इसकेका</w>": 5531,
      "ईको</w>": 5532,
      "ईका</w>": 5533,
      "ईश्वर</w>": 5534,
      "उच्": 5535,
      "कठ": 5536,
      "कल्या": 5537,
      "ग्या": 5538,
      "गएपछि</w>": 5539,
      "जसको</w>": 5540,
      "ठु": 5541,
      "थ्री</w>": 5542,
      "नर्": 5543,
      "पलाई</w>": 5544,
      "बमा</w>": 5545,
      "बचा": 5546,
      "बच्": 5547,
      "मि</w>": 5548,
      "रसँग</w>": 5549,
      "रकम": 5550,
      "वको</w>": 5551,
      "वडा": 5552,
      "सवै</w>": 5553,
      "सघा": 5554,
      "हस्त": 5555,
      "ीम": 5556,
      "११०</w>": 5557,
      "७८</w>": 5558,
      "८९</w>": 5559,
      "माउ": 5560,
      "माझ": 5561,
      "विवि": 5562,
      "विना": 5563,
      "विना</w>": 5564,
      "विशि": 5565,
      "बाइ": 5566,
      "गर्नुपर्नेमा</w>": 5567,
      "हारको</w>": 5568,
      "हुनेमा</w>": 5569,
      "सामा</w>": 5570,
      "लिँदै</w>": 5571,
      "लिँदा</w>": 5572,
      "ल्ज": 5573,
      "हिक</w>": 5574,
      "भान</w>": 5575,
      "लागी</w>": 5576,
      "लागु</w>": 5577,
      "लागेपछि</w>": 5578,
      "सिमो": 5579,
      "याउन</w>": 5580,
      "जनवाद</w>": 5581,
      "सम्मान": 5582,
      "ट्रि": 5583,
      "त्यही": 5584,
      "चाहे": 5585,
      "गोप्": 5586,
      "लेपछि</w>": 5587,
      "कोभिड</w>": 5588,
      "रेलिग": 5589,
      "युक्रे": 5590,
      "प्रतिष्": 5591,
      "प्रतिपक्षी</w>": 5592,
      "टोलि": 5593,
      "माओवादीलाई</w>": 5594,
      "जेटिभ</w>": 5595,
      "उँछौं</w>": 5596,
      "ण्डे": 5597,
      "प्रशिक्षकले</w>": 5598,
      "जोखिम</w>": 5599,
      "ंगा</w>": 5600,
      "नेताहरूले</w>": 5601,
      "दोष": 5602,
      "डेढ</w>": 5603,
      "म्पट": 5604,
      "सीमित</w>": 5605,
      "२०१३</w>": 5606,
      "२०२३</w>": 5607,
      "होस्टे": 5608,
      "सोच्": 5609,
      "सक्नेछ</w>": 5610,
      "सक्नु</w>": 5611,
      "अर्काे</w>": 5612,
      "सदस्यहरु</w>": 5613,
      "सदस्यहरुको</w>": 5614,
      "प्रादेशिक</w>": 5615,
      "मतदान": 5616,
      "भेटमा</w>": 5617,
      "दैनन्</w>": 5618,
      "आयोगलाई</w>": 5619,
      "खान</w>": 5620,
      "खाली</w>": 5621,
      "खाँदै</w>": 5622,
      "डाक्": 5623,
      "स्वदेश</w>": 5624,
      "फिट": 5625,
      "प्रतिनिधिसभा": 5626,
      "उत्पाद": 5627,
      "शुद्ध": 5628,
      "शीघ्र</w>": 5629,
      "बार्सिलोनाबाट</w>": 5630,
      "राखि": 5631,
      "राम्रा</w>": 5632,
      "खुमल": 5633,
      "पक्षलाई</w>": 5634,
      "महराले</w>": 5635,
      "उमेदवारहरु": 5636,
      "उनीहरू</w>": 5637,
      "भूकम्": 5638,
      "भूमि</w>": 5639,
      "नियमित": 5640,
      "आधार": 5641,
      "घाटन</w>": 5642,
      "स्पेनले</w>": 5643,
      "दिनअघि</w>": 5644,
      "व्यक्तिको</w>": 5645,
      "व्यक्तिले</w>": 5646,
      "फर्किएपछि</w>": 5647,
      "सिटीसँग</w>": 5648,
      "रहेकी</w>": 5649,
      "बुझाइ</w>": 5650,
      "बुझाउने</w>": 5651,
      "लगानी</w>": 5652,
      "हालतमा</w>": 5653,
      "अन्तर": 5654,
      "म्याण्डे": 5655,
      "छोड्न</w>": 5656,
      "विज्ञा": 5657,
      "क्वाटर</w>": 5658,
      "मन्त्रिपरिषद्": 5659,
      "निर्देशक</w>": 5660,
      "तिहाई</w>": 5661,
      "सामयिक</w>": 5662,
      "मिल्दैन</w>": 5663,
      "मानहा": 5664,
      "प्रजातन्त्र": 5665,
      "गृहमा</w>": 5666,
      "आन्दोलनका</w>": 5667,
      "बारसम्म</w>": 5668,
      "घटना": 5669,
      "नागरिकता</w>": 5670,
      "नैन": 5671,
      "सातौं</w>": 5672,
      "सातवटै</w>": 5673,
      "मधेश": 5674,
      "युनाइटेडका</w>": 5675,
      "ज्ञान</w>": 5676,
      "राज्यले</w>": 5677,
      "सङ्घ": 5678,
      "२००७</w>": 5679,
      "मैदानबाट</w>": 5680,
      "युभेन्ट्सले</w>": 5681,
      "कार्यक्रमको</w>": 5682,
      "काँग्रेसका</w>": 5683,
      "मानित</w>": 5684,
      "मण्डल</w>": 5685,
      "सहमतिअनुसार</w>": 5686,
      "भारोत्तोलनको</w>": 5687,
      "अभ्यासमा</w>": 5688,
      "एट्लेटिकोले</w>": 5689,
      "नेम्वाङले</w>": 5690,
      "गर्दछु</w>": 5691,
      "फुटबलअन्तर्गत</w>": 5692,
      "न्यौपाने</w>": 5693,
      "गैर": 5694,
      "सुरक्षाको</w>": 5695,
      "पर्यटन</w>": 5696,
      "इजलासले</w>": 5697,
      "घिमिरे</w>": 5698,
      "हुँदैन्</w>": 5699,
      "एपीएफका</w>": 5700,
      "रावलले</w>": 5701,
      "दुःख</w>": 5702,
      "बहुमतीय</w>": 5703,
      "आश्वा": 5704,
      "रुपान्तरण": 5705,
      "मितिले</w>": 5706,
      "साझेदारी</w>": 5707,
      "धनकुटा": 5708,
      "खाना</w>": 5709,
      "बिल्डिङ</w>": 5710,
      "मतगणना</w>": 5711,
      "रुपन्देही</w>": 5712,
      "धम्की</w>": 5713,
      "मातृका</w>": 5714,
      "क्याम्प</w>": 5715,
      "डाँडामा</w>": 5716,
      "दलिततर्फ</w>": 5717,
      "स्मृति</w>": 5718,
      "बुन्डेस": 5719,
      "दीर्घ": 5720,
      "बलायरले</w>": 5721,
      "अनुसारको</w>": 5722,
      "नवलपरा": 5723,
      "साउथह्या": 5724,
      "अष्टलक्ष्मी</w>": 5725,
      "काफ्ले</w>": 5726,
      "असिस्ट</w>": 5727,
      "झण्डै</w>": 5728,
      "गोल्डेन</w>": 5729,
      "गोप्य</w>": 5730,
      "खुमलटा": 5731,
      "भूकम्प</w>": 5732,
      "असहज</w>": 5733,
      "अनियमित": 5734,
      "आम": 5735,
      "आएकाले</w>": 5736,
      "आशंका</w>": 5737,
      "ईन</w>": 5738,
      "उदा": 5739,
      "एथ्": 5740,
      "कप": 5741,
      "कर": 5742,
      "खर</w>": 5743,
      "खत्र": 5744,
      "खरि": 5745,
      "ड्र": 5746,
      "तराई</w>": 5747,
      "थपि": 5748,
      "नसम्म</w>": 5749,
      "नमिल्ने</w>": 5750,
      "पशु": 5751,
      "भई": 5752,
      "मर": 5753,
      "मस</w>": 5754,
      "मता": 5755,
      "लरले</w>": 5756,
      "वन्": 5757,
      "सफा</w>": 5758,
      "ीहरुको</w>": 5759,
      "कान्त</w>": 5760,
      "माक्": 5761,
      "मान्न</w>": 5762,
      "स्टु": 5763,
      "पाको</w>": 5764,
      "वास्त": 5765,
      "विनो": 5766,
      "खेला": 5767,
      "बारमा</w>": 5768,
      "बाबर</w>": 5769,
      "समध्य": 5770,
      "ियानो</w>": 5771,
      "देखे": 5772,
      "तिसक्": 5773,
      "हार": 5774,
      "केरु": 5775,
      "लिस्": 5776,
      "दिँदा</w>": 5777,
      "संस्थाप": 5778,
      "संवाद</w>": 5779,
      "संसद</w>": 5780,
      "हिन</w>": 5781,
      "हितमा</w>": 5782,
      "लागू</w>": 5783,
      "लागिएको</w>": 5784,
      "स्थलमा</w>": 5785,
      "कुट": 5786,
      "सुमन</w>": 5787,
      "कारो": 5788,
      "ग्रे": 5789,
      "धाको</w>": 5790,
      "पर्खा": 5791,
      "कोठा</w>": 5792,
      "टोरे": 5793,
      "बिना": 5794,
      "भिक</w>": 5795,
      "चिनि": 5796,
      "टिम": 5797,
      "टिङ</w>": 5798,
      "टिमले</w>": 5799,
      "फाती</w>": 5800,
      "राज्य</w>": 5801,
      "तथ्य</w>": 5802,
      "सेलले</w>": 5803,
      "पेरि": 5804,
      "नेताहरुसँग</w>": 5805,
      "बैठकका</w>": 5806,
      "महासंघ</w>": 5807,
      "उपस्थिति</w>": 5808,
      "सोही": 5809,
      "सक्नुपर्ने</w>": 5810,
      "बेला": 5811,
      "बेल्ज": 5812,
      "पोजेटिभ</w>": 5813,
      "सदस्यहरू</w>": 5814,
      "प्राधि": 5815,
      "भन्यो</w>": 5816,
      "हेरेर</w>": 5817,
      "जुत्ता</w>": 5818,
      "सकेसम्म</w>": 5819,
      "टुङ्": 5820,
      "झापा</w>": 5821,
      "राख्</w>": 5822,
      "पुग्यो</w>": 5823,
      "एमालेमा</w>": 5824,
      "खुलेको</w>": 5825,
      "सकिएपछि</w>": 5826,
      "वैकल्पिक</w>": 5827,
      "उनीसँग</w>": 5828,
      "उनीहरुलाई</w>": 5829,
      "उनीहरूले</w>": 5830,
      "छाडेको</w>": 5831,
      "अदालत": 5832,
      "जर्मन": 5833,
      "भारतले</w>": 5834,
      "देउवाका</w>": 5835,
      "डोटी</w>": 5836,
      "उल्लं": 5837,
      "समयसम्म</w>": 5838,
      "मुलुकले</w>": 5839,
      "मध्येका</w>": 5840,
      "सूर्य": 5841,
      "बोलाएका</w>": 5842,
      "बोलाउन</w>": 5843,
      "श्रेष्ठलाई</w>": 5844,
      "समाजवाद</w>": 5845,
      "लोकप्रिय": 5846,
      "सनराइ": 5847,
      "थापालाई</w>": 5848,
      "क्वार्ट": 5849,
      "समानुपातिकमा</w>": 5850,
      "मनोमानी</w>": 5851,
      "पराजयको</w>": 5852,
      "भ्रष्टा": 5853,
      "प्रधानमन्त्रीले</w>": 5854,
      "छुक</w>": 5855,
      "सन्देश</w>": 5856,
      "पुरस्थित</w>": 5857,
      "जोड्न</w>": 5858,
      "जोड्दा</w>": 5859,
      "मिडिया</w>": 5860,
      "व्याव": 5861,
      "एकोमा</w>": 5862,
      "अपाङ्ग</w>": 5863,
      "बायर्नलाई</w>": 5864,
      "पारिश्र": 5865,
      "कार्यकर्ता": 5866,
      "फुयाँ": 5867,
      "अलराउ": 5868,
      "ज्यू": 5869,
      "प्रणालीमा</w>": 5870,
      "पुर्याउने</w>": 5871,
      "युभेन्टस</w>": 5872,
      "समृद्धिका</w>": 5873,
      "वेदन": 5874,
      "दौडमा</w>": 5875,
      "ललितपुरको</w>": 5876,
      "स्विडेन": 5877,
      "चाहन्छौं</w>": 5878,
      "महेन्द्रबहादुर</w>": 5879,
      "तीनजना</w>": 5880,
      "प्रकाशमान</w>": 5881,
      "मूल्य": 5882,
      "क्रोएसिया": 5883,
      "रोयल</w>": 5884,
      "आफैं</w>": 5885,
      "अपराह्न</w>": 5886,
      "एट्लेटिको</w>": 5887,
      "सहायक</w>": 5888,
      "च्छा</w>": 5889,
      "स्कीले</w>": 5890,
      "खोजीमा</w>": 5891,
      "लैजाने</w>": 5892,
      "हैदरावादले</w>": 5893,
      "प्रभावशाली</w>": 5894,
      "बनाउनेछ</w>": 5895,
      "सशक्त</w>": 5896,
      "क्रिस्टियानो</w>": 5897,
      "रोकिने</w>": 5898,
      "विराटनगरमा</w>": 5899,
      "म्युनिखसँग</w>": 5900,
      "वृद्धभत्ता</w>": 5901,
      "कञ्चन": 5902,
      "मोदीले</w>": 5903,
      "उद्देश्यले</w>": 5904,
      "यद्यपि</w>": 5905,
      "ल्यै</w>": 5906,
      "अमेरिकी</w>": 5907,
      "हमालले</w>": 5908,
      "सेन्टर</w>": 5909,
      "जर्मनी</w>": 5910,
      "नियुक्तिका</w>": 5911,
      "लाइपजिग": 5912,
      "समारोहमा</w>": 5913,
      "अनौपचारिक</w>": 5914,
      "सुन्दर</w>": 5915,
      "एम्बाप्": 5916,
      "धनुषा</w>": 5917,
      "आन्द्रे</w>": 5918,
      "होस्टेल</w>": 5919,
      "आश्वासन</w>": 5920,
      "एथ्लेटि": 5921,
      "बेल्जिय": 5922,
      "सनराइजर्स</w>": 5923,
      "आक्रो": 5924,
      "इरहेको</w>": 5925,
      "इंग्": 5926,
      "उले</w>": 5927,
      "उमा": 5928,
      "उसले</w>": 5929,
      "ओसा": 5930,
      "ओल्ड</w>": 5931,
      "कँ": 5932,
      "करिय": 5933,
      "खटि": 5934,
      "गए</w>": 5935,
      "चल्ने</w>": 5936,
      "जब</w>": 5937,
      "झग": 5938,
      "झल": 5939,
      "था</w>": 5940,
      "नरे": 5941,
      "नगरे</w>": 5942,
      "पक्": 5943,
      "पचा": 5944,
      "बयान</w>": 5945,
      "भत्का": 5946,
      "मस्य": 5947,
      "रथ</w>": 5948,
      "लगत</w>": 5949,
      "वका</w>": 5950,
      "वती</w>": 5951,
      "शब्": 5952,
      "सदु": 5953,
      "सचे": 5954,
      "हटा": 5955,
      "हतियार</w>": 5956,
      "१२": 5957,
      "काउ": 5958,
      "काअनुसार</w>": 5959,
      "प्रवेश": 5960,
      "प्रगति</w>": 5961,
      "प्रीम": 5962,
      "्यता</w>": 5963,
      "माहो": 5964,
      "राना</w>": 5965,
      "पार्व": 5966,
      "नित</w>": 5967,
      "निधन</w>": 5968,
      "तापछि</w>": 5969,
      "तारे": 5970,
      "तासमेत</w>": 5971,
      "समग्र": 5972,
      "समग्र</w>": 5973,
      "समसामयिक</w>": 5974,
      "नाथ": 5975,
      "नाभा": 5976,
      "हान</w>": 5977,
      "हुनसक्ने</w>": 5978,
      "सार्": 5979,
      "सामू": 5980,
      "दिग्": 5981,
      "संहि": 5982,
      "निर्देशि": 5983,
      "जिति": 5984,
      "लागे": 5985,
      "सिर": 5986,
      "सिका": 5987,
      "नुहुन्छ</w>": 5988,
      "नुस्</w>": 5989,
      "क्षति</w>": 5990,
      "जनता": 5991,
      "जनताका</w>": 5992,
      "दाबे": 5993,
      "कुल": 5994,
      "ट्रफी</w>": 5995,
      "चाय": 5996,
      "लेन्द्र</w>": 5997,
      "लेस्ट": 5998,
      "जाँदै</w>": 5999,
      "सहजी": 6000,
      "बिष": 6001,
      "भिल्ला": 6002,
      "कार्यरत</w>": 6003,
      "लोन</w>": 6004,
      "परिमार्": 6005,
      "ट्स</w>": 6006,
      "जोखिम": 6007,
      "अवे</w>": 6008,
      "बीबी": 6009,
      "नेतालाई</w>": 6010,
      "डेल</w>": 6011,
      "संघलाई</w>": 6012,
      "२०१४</w>": 6013,
      "गरेपनि</w>": 6014,
      "उपप्रधानमन्त्री</w>": 6015,
      "थालेका</w>": 6016,
      "रणीय</w>": 6017,
      "महिलामा</w>": 6018,
      "एजेण्डा": 6019,
      "ज्ञ</w>": 6020,
      "हेड</w>": 6021,
      "उपाध्य": 6022,
      "क्लबबाट</w>": 6023,
      "कोरोनाका</w>": 6024,
      "वर्षभित्र</w>": 6025,
      "भनेपछि</w>": 6026,
      "फिल्ड</w>": 6027,
      "प्रतिनिधिसभाका</w>": 6028,
      "वार्नरले</w>": 6029,
      "अंकमा</w>": 6030,
      "लगायतको</w>": 6031,
      "लगायतले</w>": 6032,
      "उमेदवारले</w>": 6033,
      "राजधानीको</w>": 6034,
      "पत्रा": 6035,
      "पत्रको</w>": 6036,
      "पत्रिका</w>": 6037,
      "छाड्न</w>": 6038,
      "नियम": 6039,
      "जर्सी</w>": 6040,
      "भारतको</w>": 6041,
      "मिलानको</w>": 6042,
      "निकाल्दा</w>": 6043,
      "आधारित</w>": 6044,
      "बराबरीसँगै</w>": 6045,
      "छिरिङ</w>": 6046,
      "वीरग": 6047,
      "जित्दै</w>": 6048,
      "भण्डारीलाई</w>": 6049,
      "रक्षा": 6050,
      "दिनसम्म</w>": 6051,
      "छनोट": 6052,
      "सिटीको</w>": 6053,
      "सन्दीपको</w>": 6054,
      "लाग्दा</w>": 6055,
      "बोलाएर</w>": 6056,
      "विद्यालय": 6057,
      "स्थिर</w>": 6058,
      "भोज": 6059,
      "भोग्": 6060,
      "छोरा": 6061,
      "अनशन</w>": 6062,
      "क्वाटर": 6063,
      "मन्त्रिपरिषदको</w>": 6064,
      "कोइरालालाई</w>": 6065,
      "तिहाइ</w>": 6066,
      "दिल्लीका</w>": 6067,
      "राष्ट्रपतिबाट</w>": 6068,
      "उहाँहरु</w>": 6069,
      "कल्पना</w>": 6070,
      "समूहले</w>": 6071,
      "विजय</w>": 6072,
      "चोट": 6073,
      "श्वरी</w>": 6074,
      "तुर</w>": 6075,
      "घटनामा</w>": 6076,
      "दाहालको</w>": 6077,
      "लिभरपुलका</w>": 6078,
      "गर्नुभएको</w>": 6079,
      "नैति": 6080,
      "गतेबाट</w>": 6081,
      "प्रहरीको</w>": 6082,
      "संक्रमणको</w>": 6083,
      "क्षिप्त</w>": 6084,
      "क्रिकेटबाट</w>": 6085,
      "प्याले": 6086,
      "सङ्क्रम": 6087,
      "बायर्नले</w>": 6088,
      "प्रणालीतर्फ</w>": 6089,
      "उद्घाटन</w>": 6090,
      "बदर</w>": 6091,
      "नेविसंघको</w>": 6092,
      "सचिवका</w>": 6093,
      "प्रेरित</w>": 6094,
      "चार्ज</w>": 6095,
      "स्टोन</w>": 6096,
      "थोमस</w>": 6097,
      "लम्बि": 6098,
      "पीडित": 6099,
      "अपरान्ह</w>": 6100,
      "लक्ष्य": 6101,
      "सान्चो": 6102,
      "सुरक्षाका</w>": 6103,
      "दुवैले</w>": 6104,
      "माध्यमबाट</w>": 6105,
      "द्धिकरण</w>": 6106,
      "बनाउने": 6107,
      "टेलिभि": 6108,
      "विष्णु</w>": 6109,
      "एमबाप्पे</w>": 6110,
      "समस्यामा</w>": 6111,
      "खण्डमा</w>": 6112,
      "बजार</w>": 6113,
      "सल्लाह": 6114,
      "सल्लाह</w>": 6115,
      "लुकाकु": 6116,
      "मान्छे": 6117,
      "रैनाले</w>": 6118,
      "कोहलीले</w>": 6119,
      "नेताहरुबीच</w>": 6120,
      "चेन्नई</w>": 6121,
      "भरतपुर</w>": 6122,
      "कुँवर</w>": 6123,
      "बिदाइ</w>": 6124,
      "आरबी</w>": 6125,
      "बसिरहेको</w>": 6126,
      "आयोजकले</w>": 6127,
      "सर्वोच्चको</w>": 6128,
      "विश्वकर्माले</w>": 6129,
      "सदरमु": 6130,
      "शाक्यले</w>": 6131,
      "मनोनयन": 6132,
      "नेसनस</w>": 6133,
      "निषेधा": 6134,
      "नान्डे": 6135,
      "जुनसुकै</w>": 6136,
      "तीनवटै</w>": 6137,
      "विश्लेष": 6138,
      "थपल": 6139,
      "पञ्चाय": 6140,
      "संलग्न</w>": 6141,
      "भालाडो": 6142,
      "दुरुपयोग</w>": 6143,
      "अन्योल</w>": 6144,
      "बिक्री</w>": 6145,
      "बुटवल</w>": 6146,
      "फिटने": 6147,
      "संस्थापक</w>": 6148,
      "उल्लंघन</w>": 6149,
      "अलराउन्डर</w>": 6150,
      "मस्यौ": 6151,
      "प्रीमियर</w>": 6152,
      "समग्रमा</w>": 6153,
      "अरु": 6154,
      "अली</w>": 6155,
      "अडि": 6156,
      "अमित</w>": 6157,
      "अनिश्चित": 6158,
      "आल": 6159,
      "आश": 6160,
      "आस": 6161,
      "आवा": 6162,
      "आउँदा</w>": 6163,
      "इन": 6164,
      "इच्छा</w>": 6165,
      "ईएको</w>": 6166,
      "उद": 6167,
      "उल</w>": 6168,
      "उत्र": 6169,
      "ऊर्": 6170,
      "एले": 6171,
      "एस्टोन</w>": 6172,
      "ओम": 6173,
      "ओपन": 6174,
      "औँ": 6175,
      "करन</w>": 6176,
      "खत": 6177,
      "गले</w>": 6178,
      "च्य": 6179,
      "चन्द</w>": 6180,
      "छक्का</w>": 6181,
      "जियो": 6182,
      "झु": 6183,
      "ठक्": 6184,
      "डे</w>": 6185,
      "तव्य": 6186,
      "तराई": 6187,
      "थि</w>": 6188,
      "दछ</w>": 6189,
      "दानमा</w>": 6190,
      "दरले</w>": 6191,
      "दम्भ</w>": 6192,
      "नसमेत</w>": 6193,
      "नसके": 6194,
      "नदिन</w>": 6195,
      "नआएको</w>": 6196,
      "नभएकाले</w>": 6197,
      "नभएपछि</w>": 6198,
      "नसकेका</w>": 6199,
      "नतम</w>": 6200,
      "नरोकिने</w>": 6201,
      "पियन</w>": 6202,
      "बरु</w>": 6203,
      "मबहादुर</w>": 6204,
      "मधु": 6205,
      "यकुमार</w>": 6206,
      "रसेलले</w>": 6207,
      "शता": 6208,
      "सफा": 6209,
      "ाले</w>": 6210,
      "िको": 6211,
      "ीहरु</w>": 6212,
      "ूरो</w>": 6213,
      "११": 6214,
      "७१</w>": 6215,
      "८१</w>": 6216,
      "काल</w>": 6217,
      "प्रकृ": 6218,
      "प्रकारको</w>": 6219,
      "मामा</w>": 6220,
      "मानव": 6221,
      "मान्य": 6222,
      "मासिक</w>": 6223,
      "माफी</w>": 6224,
      "स्की</w>": 6225,
      "स्कुल</w>": 6226,
      "राजि": 6227,
      "रासि": 6228,
      "पाटन</w>": 6229,
      "पाएनन्</w>": 6230,
      "नेका</w>": 6231,
      "विनि": 6232,
      "बाम</w>": 6233,
      "बाल</w>": 6234,
      "नाय": 6235,
      "तिमल्": 6236,
      "साव": 6237,
      "साताको</w>": 6238,
      "साधन</w>": 6239,
      "ल्धु": 6240,
      "दिनुभयो</w>": 6241,
      "न्दु": 6242,
      "संक्षिप्त</w>": 6243,
      "भाइ</w>": 6244,
      "जिज्ञा": 6245,
      "लाग्</w>": 6246,
      "सिन्": 6247,
      "्याम</w>": 6248,
      "रिएका</w>": 6249,
      "र्टो": 6250,
      "मित्र": 6251,
      "जनमोर्": 6252,
      "सम्मानित</w>": 6253,
      "दायी</w>": 6254,
      "दुख": 6255,
      "क्रु": 6256,
      "चारमा</w>": 6257,
      "नेपालबाट</w>": 6258,
      "मन्त्रीको</w>": 6259,
      "मेन्ट</w>": 6260,
      "मेउले</w>": 6261,
      "पर्दा</w>": 6262,
      "गाँ": 6263,
      "किशो": 6264,
      "कोटी</w>": 6265,
      "कोमल</w>": 6266,
      "हरुबाट</w>": 6267,
      "अनुगमन</w>": 6268,
      "गरिए</w>": 6269,
      "केन्द्री": 6270,
      "केन्द्रिय</w>": 6271,
      "केन्द्रकी</w>": 6272,
      "शिल</w>": 6273,
      "बिना</w>": 6274,
      "भिन</w>": 6275,
      "देख्": 6276,
      "टिका": 6277,
      "जनार्": 6278,
      "हामीसँग</w>": 6279,
      "सेफिल्ड</w>": 6280,
      "ट्जर": 6281,
      "शालि": 6282,
      "शांक</w>": 6283,
      "टेस्टमा</w>": 6284,
      "गुए": 6285,
      "बीसी": 6286,
      "पेभि": 6287,
      "बढु": 6288,
      "महासे": 6289,
      "रणमा</w>": 6290,
      "बेर": 6291,
      "सदस्यहरुले</w>": 6292,
      "देशले</w>": 6293,
      "मतदानमा</w>": 6294,
      "भन्नु</w>": 6295,
      "भन्नुभएको</w>": 6296,
      "चुअल</w>": 6297,
      "जुडो</w>": 6298,
      "न्तव्य</w>": 6299,
      "पदभार</w>": 6300,
      "वर्षे</w>": 6301,
      "वर्षसम्म</w>": 6302,
      "फर्कन</w>": 6303,
      "फिफा": 6304,
      "परम्प": 6305,
      "प्रतियोगिताबाट</w>": 6306,
      "द्धमा</w>": 6307,
      "दलहरु</w>": 6308,
      "महतले</w>": 6309,
      "सकिन</w>": 6310,
      "विश्वभर</w>": 6311,
      "वैद्य": 6312,
      "स्थानीय": 6313,
      "पुनम</w>": 6314,
      "पुनर्व": 6315,
      "ल्यान्डले</w>": 6316,
      "आवश्</w>": 6317,
      "ब्ल": 6318,
      "अन्तिम": 6319,
      "योगेश</w>": 6320,
      "दीप": 6321,
      "रियलका</w>": 6322,
      "समयपछि</w>": 6323,
      "भण्डारी": 6324,
      "मध्ये": 6325,
      "बुझाएका</w>": 6326,
      "सर्जियो</w>": 6327,
      "एसिया</w>": 6328,
      "कुराको</w>": 6329,
      "बोलाउनुपर्ने</w>": 6330,
      "बढाएको</w>": 6331,
      "चर्चित</w>": 6332,
      "शेरधन</w>": 6333,
      "समाजवादको</w>": 6334,
      "पठाउन</w>": 6335,
      "म्यान</w>": 6336,
      "कोइरालाको</w>": 6337,
      "समुदा": 6338,
      "स्वास्थ्यमा</w>": 6339,
      "दिवसका</w>": 6340,
      "नगरपालिकाले</w>": 6341,
      "समर्थक</w>": 6342,
      "उमेरको</w>": 6343,
      "चोटका</w>": 6344,
      "गोलरक्ष": 6345,
      "युरोपियन</w>": 6346,
      "सांसदहरुको</w>": 6347,
      "कानुन": 6348,
      "सिलवाललाई</w>": 6349,
      "निर्णयहरु</w>": 6350,
      "बुझेको</w>": 6351,
      "एकताबाट</w>": 6352,
      "कसैको</w>": 6353,
      "महेन्द्र</w>": 6354,
      "क्रिकेटको</w>": 6355,
      "अर्धशतकिय</w>": 6356,
      "चौधरीले</w>": 6357,
      "विदेशमन्त्री</w>": 6358,
      "यात्रामा</w>": 6359,
      "जिल्लाबाट</w>": 6360,
      "शाहीको</w>": 6361,
      "मार्गप्रशस्त</w>": 6362,
      "सीपीएलमा</w>": 6363,
      "समीक्षा": 6364,
      "पुर्याउन</w>": 6365,
      "भैरहेको</w>": 6366,
      "मनसा": 6367,
      "पुराना</w>": 6368,
      "स्टोक्स</w>": 6369,
      "जिताएका</w>": 6370,
      "गोपाल": 6371,
      "सहमतिका</w>": 6372,
      "प्रदर्शन": 6373,
      "व्यवसाय": 6374,
      "कानूनी</w>": 6375,
      "सभापतिहरुको</w>": 6376,
      "भारोत्तोलनले</w>": 6377,
      "वर्गी": 6378,
      "मुम्बईका</w>": 6379,
      "बाँडफाँट</w>": 6380,
      "आफैं": 6381,
      "पन्जाबलाई</w>": 6382,
      "उठेको</w>": 6383,
      "म्युनिख</w>": 6384,
      "सहाय": 6385,
      "साताभित्र</w>": 6386,
      "संसद्को</w>": 6387,
      "संसद्मा</w>": 6388,
      "खोजेको</w>": 6389,
      "रंगशाला</w>": 6390,
      "ज्यायद</w>": 6391,
      "साउथ</w>": 6392,
      "कीर्तिमान</w>": 6393,
      "गुटगत</w>": 6394,
      "प्रारम्भिक</w>": 6395,
      "टेलिफोन</w>": 6396,
      "भोलिपल्": 6397,
      "आउँछ</w>": 6398,
      "परेपछि</w>": 6399,
      "क्रिस्टल</w>": 6400,
      "खण्डन</w>": 6401,
      "सोधेको</w>": 6402,
      "किङ्स</w>": 6403,
      "बढिरहेको</w>": 6404,
      "सिँचा": 6405,
      "चयनका</w>": 6406,
      "निराश</w>": 6407,
      "टेक्निक</w>": 6408,
      "वुल्भ्सले</w>": 6409,
      "कुँव": 6410,
      "कोटाले</w>": 6411,
      "क्रियाकला": 6412,
      "आयोजक</w>": 6413,
      "स्वार्थ": 6414,
      "राणाले</w>": 6415,
      "वामपन्थी</w>": 6416,
      "सुदृढीकरण</w>": 6417,
      "सुनसरी</w>": 6418,
      "बालबालिका</w>": 6419,
      "भेटघाट</w>": 6420,
      "दिशामा</w>": 6421,
      "बेहोर्": 6422,
      "ब्राइट": 6423,
      "अक्टोबर</w>": 6424,
      "प्याकुरेलले</w>": 6425,
      "अशोक</w>": 6426,
      "जबज</w>": 6427,
      "स्वराजको</w>": 6428,
      "डडेल्धु": 6429,
      "रामेश्वर</w>": 6430,
      "अवकाश</w>": 6431,
      "पण्डितले</w>": 6432,
      "परामर्श</w>": 6433,
      "चन्दले</w>": 6434,
      "बेग्लै</w>": 6435,
      "पत्रकारहरुसँग</w>": 6436,
      "ठुलो</w>": 6437,
      "शुद्धीकरण</w>": 6438,
      "सङ्घीय</w>": 6439,
      "केरुङ</w>": 6440,
      "पर्खाइमा</w>": 6441,
      "सदुप": 6442,
      "सचेत</w>": 6443,
      "दिग्गज</w>": 6444,
      "भालाडोलि": 6445,
      "शताब्": 6446,
      "तिमल्सि": 6447,
      "ंकन</w>": 6448,
      "अा": 6449,
      "अलीले</w>": 6450,
      "आग": 6451,
      "आया": 6452,
      "इले</w>": 6453,
      "उनेछ</w>": 6454,
      "एफ</w>": 6455,
      "औचि": 6456,
      "कक्षमा</w>": 6457,
      "खडा</w>": 6458,
      "गीले</w>": 6459,
      "जु</w>": 6460,
      "जीको</w>": 6461,
      "ठो</w>": 6462,
      "डीले</w>": 6463,
      "णत</w>": 6464,
      "धके": 6465,
      "नस्थित</w>": 6466,
      "पत्ता</w>": 6467,
      "यन्त्र</w>": 6468,
      "लव": 6469,
      "लियो</w>": 6470,
      "शरण</w>": 6471,
      "सु</w>": 6472,
      "ससु": 6473,
      "सचेत": 6474,
      "ाम</w>": 6475,
      "६१</w>": 6476,
      "न्सका</w>": 6477,
      "काइ": 6478,
      "कालि": 6479,
      "कालका</w>": 6480,
      "काउन्": 6481,
      "प्रचार": 6482,
      "मातह": 6483,
      "मान्य</w>": 6484,
      "स्कि": 6485,
      "स्वे": 6486,
      "राजा": 6487,
      "राणा</w>": 6488,
      "राधा</w>": 6489,
      "पाउँ": 6490,
      "पाउँदा</w>": 6491,
      "वाना</w>": 6492,
      "वास्ता</w>": 6493,
      "निभा": 6494,
      "निलम्ब": 6495,
      "तारा": 6496,
      "विक": 6497,
      "विवा": 6498,
      "विगत</w>": 6499,
      "विकल्": 6500,
      "समै</w>": 6501,
      "नारा</w>": 6502,
      "नानाथ</w>": 6503,
      "हारेको</w>": 6504,
      "केसी": 6505,
      "त्सा": 6506,
      "लिएपछि</w>": 6507,
      "दिनु</w>": 6508,
      "संक्र": 6509,
      "रुद्ध</w>": 6510,
      "सिवा": 6511,
      "रिसो": 6512,
      "रिहा</w>": 6513,
      "रहर</w>": 6514,
      "रहरू</w>": 6515,
      "खेलहरु</w>": 6516,
      "जनमतको</w>": 6517,
      "कुश": 6518,
      "कुलो</w>": 6519,
      "मुनि</w>": 6520,
      "सुवर्": 6521,
      "सुनुवा": 6522,
      "पुगि": 6523,
      "चाँ": 6524,
      "चाल": 6525,
      "निर्वाचक</w>": 6526,
      "धार्": 6527,
      "धाका</w>": 6528,
      "धादि": 6529,
      "पर्दैन</w>": 6530,
      "जातीय</w>": 6531,
      "कोठा": 6532,
      "हरा</w>": 6533,
      "अन्य": 6534,
      "अनुभू": 6535,
      "गरिदिएको</w>": 6536,
      "शिव</w>": 6537,
      "प्रतिवेदनमा</w>": 6538,
      "प्जिग": 6539,
      "भिड": 6540,
      "भिन्न</w>": 6541,
      "बनाउनु": 6542,
      "लोरे": 6543,
      "ेसले</w>": 6544,
      "चिकि": 6545,
      "जनाउने</w>": 6546,
      "परिसर": 6547,
      "परिस्थि": 6548,
      "परिस्थिति</w>": 6549,
      "राजा</w>": 6550,
      "वेल्स</w>": 6551,
      "त्यसले</w>": 6552,
      "बुद्धि": 6553,
      "जोडिएको</w>": 6554,
      "नेताहरू</w>": 6555,
      "बढीमा</w>": 6556,
      "गरेरै</w>": 6557,
      "बेने": 6558,
      "तयारी": 6559,
      "पीएल</w>": 6560,
      "प्राकृतिक</w>": 6561,
      "एजेन्ड": 6562,
      "मतले</w>": 6563,
      "ियोस्</w>": 6564,
      "भेद": 6565,
      "भेन्": 6566,
      "भेट्न</w>": 6567,
      "मोबाइ": 6568,
      "ग्वे": 6569,
      "व्यवहार</w>": 6570,
      "दर्शन</w>": 6571,
      "खाने</w>": 6572,
      "शर्माको</w>": 6573,
      "संसदमा</w>": 6574,
      "मार्ने</w>": 6575,
      "बस्छ</w>": 6576,
      "बस्नेछ</w>": 6577,
      "राखी</w>": 6578,
      "खुकुलो</w>": 6579,
      "दलसँग</w>": 6580,
      "पुनमलाई</w>": 6581,
      "पुनमले</w>": 6582,
      "स्टर्लि": 6583,
      "उमेदवारहरू": 6584,
      "भावना": 6585,
      "पौडेलको</w>": 6586,
      "श्यक</w>": 6587,
      "मिलाएर</w>": 6588,
      "चाहन्छन्</w>": 6589,
      "घाटा</w>": 6590,
      "रियललाई</w>": 6591,
      "पोख्रे": 6592,
      "शेर</w>": 6593,
      "रक्षा</w>": 6594,
      "दिनपछि</w>": 6595,
      "दिनमै</w>": 6596,
      "मुलुक": 6597,
      "छनोटमा</w>": 6598,
      "फर्किएको</w>": 6599,
      "नवौं</w>": 6600,
      "एसपी</w>": 6601,
      "धीप्रसाद</w>": 6602,
      "भूमिमा</w>": 6603,
      "पार्क</w>": 6604,
      "पार्टीबाट</w>": 6605,
      "गुरुराज</w>": 6606,
      "समाजवाद": 6607,
      "भोट</w>": 6608,
      "परीक्षणमा</w>": 6609,
      "परीक्षणका</w>": 6610,
      "छोरा</w>": 6611,
      "स्वीकार्": 6612,
      "कार्यालयबाट</w>": 6613,
      "पीएसजीमा</w>": 6614,
      "गतिका</w>": 6615,
      "धुलो</w>": 6616,
      "राष्ट्रपतिको</w>": 6617,
      "फेलि": 6618,
      "प्रधानमन्त्रीका</w>": 6619,
      "उमेर": 6620,
      "भीम</w>": 6621,
      "समानुपातिकबाट</w>": 6622,
      "समानुपातिकतर्फका</w>": 6623,
      "लियोन</w>": 6624,
      "लियोनलाई</w>": 6625,
      "कम्युनिस्ट</w>": 6626,
      "बर्ष": 6627,
      "सन्ता": 6628,
      "सांसद्</w>": 6629,
      "सांसदले</w>": 6630,
      "भर्चुअल</w>": 6631,
      "लिभरपुललाई</w>": 6632,
      "निर्णयको</w>": 6633,
      "निर्णयलाई</w>": 6634,
      "अध्यादेश": 6635,
      "फर्काउने</w>": 6636,
      "जमैकाका</w>": 6637,
      "फ्रान्सको</w>": 6638,
      "सहिद</w>": 6639,
      "गर्नेछौं</w>": 6640,
      "ज्ञाने": 6641,
      "फागुनको</w>": 6642,
      "पैसा": 6643,
      "काठमाडौंका</w>": 6644,
      "व्यापक</w>": 6645,
      "राकिटि": 6646,
      "मैत्री</w>": 6647,
      "तामाङले</w>": 6648,
      "बालुवाटार</w>": 6649,
      "ह्यारी</w>": 6650,
      "कमिटीले</w>": 6651,
      "पाउनेछन्</w>": 6652,
      "नेविसंघले</w>": 6653,
      "नेविसंघका</w>": 6654,
      "साथीहरु</w>": 6655,
      "साथीहरुले</w>": 6656,
      "संरचना": 6657,
      "राप्रपाका</w>": 6658,
      "१००</w>": 6659,
      "टिन्हो</w>": 6660,
      "इतिहास</w>": 6661,
      "सभापतिको</w>": 6662,
      "सिफारिसमा</w>": 6663,
      "रोयल्स</w>": 6664,
      "पीडितको</w>": 6665,
      "दशक": 6666,
      "दशरथ</w>": 6667,
      "यथाशीघ्र</w>": 6668,
      "खोज्दा</w>": 6669,
      "जाँच</w>": 6670,
      "लक्षित</w>": 6671,
      "मधेसी</w>": 6672,
      "हैदरावादका</w>": 6673,
      "सञ्चारकर्म": 6674,
      "किनकि</w>": 6675,
      "न्यायाधीशको</w>": 6676,
      "सिल्भा": 6677,
      "मोर्ग": 6678,
      "लिगामा</w>": 6679,
      "घिमिरेले</w>": 6680,
      "जुटेको</w>": 6681,
      "सिंहदरबारमा</w>": 6682,
      "बजारमा</w>": 6683,
      "भागबण्डा": 6684,
      "संख्याको</w>": 6685,
      "क्यानको</w>": 6686,
      "सिँह</w>": 6687,
      "सुनिल</w>": 6688,
      "घरमै</w>": 6689,
      "मृत्य": 6690,
      "मान्दा": 6691,
      "सञ्जालमा</w>": 6692,
      "बाँडफाँडको</w>": 6693,
      "हेटौँडा</w>": 6694,
      "स्वार्थ</w>": 6695,
      "कलेज</w>": 6696,
      "रेग्मी</w>": 6697,
      "सुदृढी": 6698,
      "उक्लने</w>": 6699,
      "त्यहाँको</w>": 6700,
      "तुलसी": 6701,
      "विलियनले</w>": 6702,
      "सहजै</w>": 6703,
      "दुबई</w>": 6704,
      "सोचेको</w>": 6705,
      "लुइस</w>": 6706,
      "जटिलता</w>": 6707,
      "नेदरल्यान्ड": 6708,
      "फोर्डमा</w>": 6709,
      "छिमेकी</w>": 6710,
      "पुरस्कार</w>": 6711,
      "अयोधीप्रसाद</w>": 6712,
      "हालान्ड": 6713,
      "खसआर्य</w>": 6714,
      "राहुल</w>": 6715,
      "सापकोटाले</w>": 6716,
      "भाषामा</w>": 6717,
      "लेखिएको</w>": 6718,
      "टेस्टको</w>": 6719,
      "अर्याल</w>": 6720,
      "विशिष्ट</w>": 6721,
      "विनोद</w>": 6722,
      "व्यावसा": 6723,
      "पारिश्रमिक</w>": 6724,
      "उमाकान्त</w>": 6725,
      "झलनाथ</w>": 6726,
      "सामूहिक</w>": 6727,
      "सहजीकरण</w>": 6728,
      "पत्राचार</w>": 6729,
      "मस्यौदा</w>": 6730,
      "सिन्धु": 6731,
      "जनार्दन</w>": 6732,
      "पेभिलियन</w>": 6733,
      "सदुपयोग</w>": 6734,
      "ँदै": 6735,
      "ः३०</w>": 6736,
      "अझ</w>": 6737,
      "अब्": 6738,
      "आतुर</w>": 6739,
      "इम": 6740,
      "इज</w>": 6741,
      "इमान्दा": 6742,
      "उता": 6743,
      "उस्तै</w>": 6744,
      "एसी</w>": 6745,
      "ओर</w>": 6746,
      "औद्यो": 6747,
      "कवि": 6748,
      "खण्ड</w>": 6749,
      "गतिमा</w>": 6750,
      "गच्छ": 6751,
      "जल</w>": 6752,
      "टेको</w>": 6753,
      "डबाट</w>": 6754,
      "डलर</w>": 6755,
      "ढी": 6756,
      "णीय</w>": 6757,
      "तीको</w>": 6758,
      "तबार</w>": 6759,
      "नम्": 6760,
      "नमू": 6761,
      "नरहने</w>": 6762,
      "पहा": 6763,
      "परे</w>": 6764,
      "बज": 6765,
      "बर": 6766,
      "बर्ष</w>": 6767,
      "ब्रि": 6768,
      "भइ</w>": 6769,
      "मद": 6770,
      "मदन</w>": 6771,
      "मर्या": 6772,
      "मञ्च": 6773,
      "रवि": 6774,
      "रत्": 6775,
      "लडा": 6776,
      "वत्</w>": 6777,
      "वश्यक</w>": 6778,
      "शः</w>": 6779,
      "सजा": 6780,
      "सत्य</w>": 6781,
      "सन्यास</w>": 6782,
      "सरिता</w>": 6783,
      "हक</w>": 6784,
      "हर्": 6785,
      "हप्ता": 6786,
      "ाको</w>": 6787,
      "ुसार</w>": 6788,
      "ैको</w>": 6789,
      "ोमा</w>": 6790,
      "ोस्</w>": 6791,
      "६८</w>": 6792,
      "६४</w>": 6793,
      "र्डले</w>": 6794,
      "्रता</w>": 6795,
      "न्सि": 6796,
      "न्हो": 6797,
      "कासँग</w>": 6798,
      "प्रसं": 6799,
      "प्रष्ट": 6800,
      "्या</w>": 6801,
      "माफ": 6802,
      "मान्</w>": 6803,
      "मार्टि": 6804,
      "क्क</w>": 6805,
      "क्लो": 6806,
      "क्सा</w>": 6807,
      "क्लिन</w>": 6808,
      "राका</w>": 6809,
      "वाट</w>": 6810,
      "वालाले</w>": 6811,
      "वारेन्टि": 6812,
      "नेर</w>": 6813,
      "नेत्र": 6814,
      "नेगे": 6815,
      "निङ</w>": 6816,
      "गरले</w>": 6817,
      "विश्र": 6818,
      "बालोन</w>": 6819,
      "समर्": 6820,
      "देश्य</w>": 6821,
      "हुम्": 6822,
      "साहि": 6823,
      "साबि": 6824,
      "सार्ने</w>": 6825,
      "केन</w>": 6826,
      "केही": 6827,
      "उनमा</w>": 6828,
      "लिम्ब": 6829,
      "लिनुपर्छ</w>": 6830,
      "दित</w>": 6831,
      "हिं": 6832,
      "हिन्द": 6833,
      "सिधै</w>": 6834,
      "्याउन</w>": 6835,
      "स्थल": 6836,
      "नुका</w>": 6837,
      "जनप्रतिनिधि": 6838,
      "जनसंख्या</w>": 6839,
      "जनप्रतिनिधि</w>": 6840,
      "सम्मत</w>": 6841,
      "सम्पाद": 6842,
      "दासम्म</w>": 6843,
      "पुल</w>": 6844,
      "पुरी</w>": 6845,
      "सरेको</w>": 6846,
      "गोर": 6847,
      "गोलमा</w>": 6848,
      "मन्त्रीले</w>": 6849,
      "सदर</w>": 6850,
      "रोज</w>": 6851,
      "रोड्रि": 6852,
      "ग्रि": 6853,
      "गाउँ</w>": 6854,
      "लेभा": 6855,
      "लेखा</w>": 6856,
      "कित</w>": 6857,
      "द्र</w>": 6858,
      "जापा": 6859,
      "कोष</w>": 6860,
      "कोटका</w>": 6861,
      "कोर्टमा</w>": 6862,
      "रेश": 6863,
      "न्द्रराज</w>": 6864,
      "सहकार्य": 6865,
      "गरिह": 6866,
      "स्ती</w>": 6867,
      "टोले</w>": 6868,
      "कार्यवाह": 6869,
      "जेल</w>": 6870,
      "बनाई</w>": 6871,
      "लोह": 6872,
      "लोको</w>": 6873,
      "लोचन</w>": 6874,
      "चिह्न</w>": 6875,
      "चित्त</w>": 6876,
      "शिक्षण</w>": 6877,
      "परिणत</w>": 6878,
      "रीक्ष": 6879,
      "राजु</w>": 6880,
      "आयोजनामा</w>": 6881,
      "त्यसबाहेक</w>": 6882,
      "ट्टा</w>": 6883,
      "बुढा</w>": 6884,
      "टाढा</w>": 6885,
      "जोए</w>": 6886,
      "जोडि": 6887,
      "टेनि": 6888,
      "ंगे": 6889,
      "ल्याइएको</w>": 6890,
      "म्बे": 6891,
      "२०११</w>": 6892,
      "होईन</w>": 6893,
      "बेरोजगा": 6894,
      "क्रमशः</w>": 6895,
      "बोल्": 6896,
      "लिगले</w>": 6897,
      "सदस्यसचिव</w>": 6898,
      "देशभ": 6899,
      "भन्नुभयो</w>": 6900,
      "हेरिएको</w>": 6901,
      "जुटि": 6902,
      "ग्वार्": 6903,
      "ञ्ज</w>": 6904,
      "सकेनौं</w>": 6905,
      "दर्शी</w>": 6906,
      "न्तै</w>": 6907,
      "फिट</w>": 6908,
      "बस्दैछ</w>": 6909,
      "शीतल": 6910,
      "बाँदर": 6911,
      "हीँ</w>": 6912,
      "रामप्रसाद</w>": 6913,
      "दलबाट</w>": 6914,
      "न्टले</w>": 6915,
      "नेतृत्वलाई</w>": 6916,
      "महत्व</w>": 6917,
      "पौड्या": 6918,
      "पछिका</w>": 6919,
      "फाइनल": 6920,
      "राजधानीका</w>": 6921,
      "नुपर्यो</w>": 6922,
      "सम्पत्ति</w>": 6923,
      "स्वामि": 6924,
      "डोमि": 6925,
      "खेलाडीसँग</w>": 6926,
      "त्वका</w>": 6927,
      "राख्नुपर्ने</w>": 6928,
      "संविधानअनुसार</w>": 6929,
      "माथी</w>": 6930,
      "गुमाउन</w>": 6931,
      "दिनदेखि</w>": 6932,
      "इङ्ल्यान्डको</w>": 6933,
      "सिटीलाई</w>": 6934,
      "धीन</w>": 6935,
      "लगान": 6936,
      "चर्को</w>": 6937,
      "कर्मचारीले</w>": 6938,
      "छोटो</w>": 6939,
      "छोडेर</w>": 6940,
      "न्यायालय": 6941,
      "प्रमुखलाई</w>": 6942,
      "खर्च": 6943,
      "मनोनित</w>": 6944,
      "त्रिलोचन</w>": 6945,
      "चुनावपछि</w>": 6946,
      "ओलीसँग</w>": 6947,
      "बजेबाट</w>": 6948,
      "समूहका</w>": 6949,
      "अधिकारीलाई</w>": 6950,
      "प्रयासमा</w>": 6951,
      "मतदाता": 6952,
      "मतदातालाई</w>": 6953,
      "विषयको</w>": 6954,
      "विज्ञप्ति": 6955,
      "सिलसि": 6956,
      "गोलबाट</w>": 6957,
      "गेन्द्र</w>": 6958,
      "बर्द": 6959,
      "बर्नि": 6960,
      "बालकृष्ण</w>": 6961,
      "२०७७</w>": 6962,
      "पुरुष": 6963,
      "नतिजा": 6964,
      "निर्णयले</w>": 6965,
      "निर्णयप्रति</w>": 6966,
      "फर्काएका</w>": 6967,
      "नसक्नु</w>": 6968,
      "गर्नुभयो</w>": 6969,
      "बुझिएको</w>": 6970,
      "चलाउन</w>": 6971,
      "१३औँ</w>": 6972,
      "गतेभित्र</w>": 6973,
      "कारागा": 6974,
      "गणतन्त्र</w>": 6975,
      "भेटवार्तामा</w>": 6976,
      "सहयोगको</w>": 6977,
      "सिरिजका</w>": 6978,
      "अपांग": 6979,
      "२००४</w>": 6980,
      "मैदानबाहिर</w>": 6981,
      "कार्यकर्तालाई</w>": 6982,
      "मर्म</w>": 6983,
      "मर्स्याङ्": 6984,
      "भित्रका</w>": 6985,
      "उद्देश्य</w>": 6986,
      "कमिटीका</w>": 6987,
      "पाउन्ड</w>": 6988,
      "काँग्रेसको</w>": 6989,
      "कहिल्यै</w>": 6990,
      "मानिने</w>": 6991,
      "पन्जाब</w>": 6992,
      "सचिवको</w>": 6993,
      "सचिवमा</w>": 6994,
      "अविलम्ब</w>": 6995,
      "हैदरावाद</w>": 6996,
      "भैसकेको</w>": 6997,
      "मुद्दाको</w>": 6998,
      "दुईवटा</w>": 6999,
      "पदाधिकारीको</w>": 7000,
      "पोर्चुगल</w>": 7001,
      "राहीमा</w>": 7002,
      "थोरै</w>": 7003,
      "स्विट्जर": 7004,
      "कैलाश</w>": 7005,
      "दुर्गा</w>": 7006,
      "दुर्घटनामा</w>": 7007,
      "रोक्ने</w>": 7008,
      "व्यवसाय</w>": 7009,
      "राजेश</w>": 7010,
      "सागको</w>": 7011,
      "हुन्छौं</w>": 7012,
      "बैंगलोर</w>": 7013,
      "मूलपा": 7014,
      "सेभिया</w>": 7015,
      "शासनको</w>": 7016,
      "खेलिरहेका</w>": 7017,
      "खेलिसकेको</w>": 7018,
      "दिइसकेको</w>": 7019,
      "कृष्णबहादुर</w>": 7020,
      "चाँडो</w>": 7021,
      "घण्टा": 7022,
      "जानुपर्छ</w>": 7023,
      "गर्दछ</w>": 7024,
      "१६५</w>": 7025,
      "बित्तिकै</w>": 7026,
      "न्युजि": 7027,
      "अर्जेन्टिनी</w>": 7028,
      "आर्चर</w>": 7029,
      "जन्मि": 7030,
      "मद्दत</w>": 7031,
      "सारेका</w>": 7032,
      "प्रत्यक्षमा</w>": 7033,
      "लिगाको</w>": 7034,
      "पुर्ण</w>": 7035,
      "२०६४</w>": 7036,
      "वार्षिको": 7037,
      "सिंहदरबार</w>": 7038,
      "सच्याउन</w>": 7039,
      "न्यून</w>": 7040,
      "लोकतन्त्रको</w>": 7041,
      "मान्छे</w>": 7042,
      "सरोकार</w>": 7043,
      "दुःख": 7044,
      "उपाधिका</w>": 7045,
      "धेरैपटक</w>": 7046,
      "भन्नेबारे</w>": 7047,
      "उन्मुख</w>": 7048,
      "मान्दै</w>": 7049,
      "धनकुटा</w>": 7050,
      "यद्यपी</w>": 7051,
      "श्रीलं": 7052,
      "विश्वकर्मा</w>": 7053,
      "मोहनराज</w>": 7054,
      "लार्इ</w>": 7055,
      "साधारणसभा</w>": 7056,
      "अस्ति": 7057,
      "स्कोर</w>": 7058,
      "छलफलपछि</w>": 7059,
      "नियन्त्रणमा</w>": 7060,
      "आदेशपछि</w>": 7061,
      "शपथग्रहण</w>": 7062,
      "लालबाबु</w>": 7063,
      "लगिएको</w>": 7064,
      "ट्रिनबागो</w>": 7065,
      "ग्रानाडाले</w>": 7066,
      "गल्ती</w>": 7067,
      "वैठक</w>": 7068,
      "राइडर्सले</w>": 7069,
      "अप्ठ्या": 7070,
      "इच्छुक</w>": 7071,
      "खतिवडा</w>": 7072,
      "जरिवाना</w>": 7073,
      "कोटीले</w>": 7074,
      "जोर्डन</w>": 7075,
      "जवाफमा</w>": 7076,
      "उच्च": 7077,
      "कठिन</w>": 7078,
      "रेलिगेसन</w>": 7079,
      "दोषी</w>": 7080,
      "मानहानी</w>": 7081,
      "रुपान्तरणको</w>": 7082,
      "बुन्डेसलिगा</w>": 7083,
      "नवलपरासी</w>": 7084,
      "साउथह्याम्पट": 7085,
      "खुमलटारमा</w>": 7086,
      "अनियमितता</w>": 7087,
      "उदाहर": 7088,
      "माक्र्स": 7089,
      "लिस्ब": 7090,
      "माहोल</w>": 7091,
      "तारेखमा</w>": 7092,
      "क्वाटरफाइनलमा</w>": 7093,
      "लुकाकुले</w>": 7094,
      "विश्लेषक</w>": 7095,
      "ओमप्रकाश</w>": 7096,
      "राजिनामा</w>": 7097,
      "जनमोर्चा": 7098,
      "बढुवा</w>": 7099,
      "ससुओ": 7100,
      "औद्योगि": 7101,
      "नमूना</w>": 7102,
      "मार्टिने": 7103,
      "नेगेटिभ</w>": 7104,
      "वार्षिकोत्स": 7105,
      "ँदैछ</w>": 7106,
      "ंदा</w>": 7107,
      "अज": 7108,
      "असहमति</w>": 7109,
      "आक": 7110,
      "आधा</w>": 7111,
      "आबद्ध</w>": 7112,
      "इँ</w>": 7113,
      "इम्": 7114,
      "इएका</w>": 7115,
      "इन्द्र": 7116,
      "इसकेको</w>": 7117,
      "एले</w>": 7118,
      "एलगत्तै</w>": 7119,
      "ओए": 7120,
      "ओस्</w>": 7121,
      "कब्": 7122,
      "कतै</w>": 7123,
      "खबर</w>": 7124,
      "खरेल</w>": 7125,
      "गहि": 7126,
      "गयो</w>": 7127,
      "गण्ड": 7128,
      "चल": 7129,
      "छे": 7130,
      "टर्": 7131,
      "टिय": 7132,
      "टरमा</w>": 7133,
      "ठी</w>": 7134,
      "ठले</w>": 7135,
      "ठमे": 7136,
      "डब्ल": 7137,
      "तल्लो</w>": 7138,
      "तव्य</w>": 7139,
      "दीको</w>": 7140,
      "धरान</w>": 7141,
      "नँ</w>": 7142,
      "नता</w>": 7143,
      "नकै</w>": 7144,
      "नमार्फत</w>": 7145,
      "परी</w>": 7146,
      "फेर</w>": 7147,
      "बका</w>": 7148,
      "बृद्": 7149,
      "भी</w>": 7150,
      "भिया": 7151,
      "मगा": 7152,
      "महो": 7153,
      "मिया": 7154,
      "मग्": 7155,
      "मलाल</w>": 7156,
      "यि": 7157,
      "यु</w>": 7158,
      "यज्ञ": 7159,
      "र्</w>": 7160,
      "वहा": 7161,
      "शम्": 7162,
      "श्रो</w>": 7163,
      "सह</w>": 7164,
      "सरु": 7165,
      "सच्": 7166,
      "हवा": 7167,
      "हप्": 7168,
      "ीयता</w>": 7169,
      "ृत</w>": 7170,
      "ेकाले</w>": 7171,
      "९९</w>": 7172,
      "न्ज</w>": 7173,
      "न्ने</w>": 7174,
      "न्जा": 7175,
      "न्छु</w>": 7176,
      "लाख": 7177,
      "लाबाट</w>": 7178,
      "लाञ्": 7179,
      "काग": 7180,
      "काभ": 7181,
      "काज</w>": 7182,
      "काडि": 7183,
      "प्रि</w>": 7184,
      "प्रती": 7185,
      "माग्": 7186,
      "मारिया</w>": 7187,
      "राय</w>": 7188,
      "रावल</w>": 7189,
      "पाल</w>": 7190,
      "नेछु</w>": 7191,
      "नेबारे</w>": 7192,
      "निज</w>": 7193,
      "निरुप": 7194,
      "नियाँ": 7195,
      "निवेदनमा</w>": 7196,
      "बाडो": 7197,
      "बार्टो": 7198,
      "देवि": 7199,
      "हारमा</w>": 7200,
      "हुनाले</w>": 7201,
      "साम</w>": 7202,
      "साफ</w>": 7203,
      "त्र्या": 7204,
      "लिनुपर्ने</w>": 7205,
      "ानका</w>": 7206,
      "न्दु</w>": 7207,
      "संभावना</w>": 7208,
      "रुसिया</w>": 7209,
      "हिँड": 7210,
      "भाडा</w>": 7211,
      "जिकल</w>": 7212,
      "लागे</w>": 7213,
      "सिंग": 7214,
      "सिब्": 7215,
      "सिरोह": 7216,
      "याएको</w>": 7217,
      "खेलहरुमा</w>": 7218,
      "मिहि": 7219,
      "मिले": 7220,
      "मिचे": 7221,
      "सम्मा": 7222,
      "सम्वन्": 7223,
      "दाको</w>": 7224,
      "कुलको</w>": 7225,
      "मुस्": 7226,
      "मुजि": 7227,
      "ट्रिक</w>": 7228,
      "त्यसमध्य": 7229,
      "सुआ": 7230,
      "सरस्व": 7231,
      "कारका</w>": 7232,
      "कारीले</w>": 7233,
      "राष्ट्रको</w>": 7234,
      "ग्रस्त</w>": 7235,
      "पर्छन्</w>": 7236,
      "पर्सा</w>": 7237,
      "एकै": 7238,
      "किसान</w>": 7239,
      "द्य</w>": 7240,
      "जान्छ</w>": 7241,
      "जाजर": 7242,
      "कोपा</w>": 7243,
      "कोटा</w>": 7244,
      "कोम्यान": 7245,
      "रेपछि</w>": 7246,
      "सहसचिव</w>": 7247,
      "अन्या": 7248,
      "गरिदिने</w>": 7249,
      "पूरै</w>": 7250,
      "शिव": 7251,
      "प्रदेशमध्ये</w>": 7252,
      "प्रतिपक्षको</w>": 7253,
      "प्त": 7254,
      "धिकार</w>": 7255,
      "भित्र्या": 7256,
      "जेसि": 7257,
      "बनाउँदै</w>": 7258,
      "लोले</w>": 7259,
      "पहिले": 7260,
      "चित्र": 7261,
      "चिन्त": 7262,
      "जनाका</w>": 7263,
      "परिस्थितिमा</w>": 7264,
      "रीरिक</w>": 7265,
      "राजपाका</w>": 7266,
      "त्यसरी</w>": 7267,
      "समावे": 7268,
      "सेन</w>": 7269,
      "सेख</w>": 7270,
      "सेटि": 7271,
      "बुट</w>": 7272,
      "टाउ": 7273,
      "शारीरिक</w>": 7274,
      "जोसे</w>": 7275,
      "तीका</w>": 7276,
      "यसपटक</w>": 7277,
      "लगाइएको</w>": 7278,
      "म्बरको</w>": 7279,
      "सीआई": 7280,
      "२०१०</w>": 7281,
      "२०३६</w>": 7282,
      "होट": 7283,
      "होम</w>": 7284,
      "उपयोग</w>": 7285,
      "थालेपछि</w>": 7286,
      "अर्को": 7287,
      "कर्मा": 7288,
      "कर्णा": 7289,
      "बोलाई</w>": 7290,
      "बोकेका</w>": 7291,
      "बोरुसिया</w>": 7292,
      "कांग्रेसभित्र</w>": 7293,
      "प्राप्": 7294,
      "ज्जत</w>": 7295,
      "हेड": 7296,
      "निकासा</w>": 7297,
      "जितमा</w>": 7298,
      "मोडा": 7299,
      "बन्धक</w>": 7300,
      "बन्धु</w>": 7301,
      "गतेको</w>": 7302,
      "गतेका</w>": 7303,
      "जुङ</w>": 7304,
      "जुनियर</w>": 7305,
      "डिने": 7306,
      "डिबा": 7307,
      "तोके": 7308,
      "बार्बाडो": 7309,
      "खाएको</w>": 7310,
      "कोरोनाले</w>": 7311,
      "पदीय</w>": 7312,
      "डारी</w>": 7313,
      "वर्षअघि</w>": 7314,
      "अधिवेश": 7315,
      "स्वच्": 7316,
      "स्वभाविक</w>": 7317,
      "देखिए</w>": 7318,
      "आफूहरुलाई</w>": 7319,
      "फिजिकल</w>": 7320,
      "वार्ताले</w>": 7321,
      "परिया": 7322,
      "पटक": 7323,
      "शुद्धिकरण</w>": 7324,
      "बस्नु": 7325,
      "न्यासको</w>": 7326,
      "एमालेभित्र</w>": 7327,
      "दलहरूले</w>": 7328,
      "लगायतलाई</w>": 7329,
      "पछिल्": 7330,
      "रेललाई</w>": 7331,
      "स्टन</w>": 7332,
      "उमेदवारलाई</w>": 7333,
      "उनीसँगै</w>": 7334,
      "भूत</w>": 7335,
      "छाडेका</w>": 7336,
      "अदालतका</w>": 7337,
      "नीतिक</w>": 7338,
      "मिलाउने</w>": 7339,
      "अध्यय": 7340,
      "पीएसजी": 7341,
      "खेलाडीहरुले</w>": 7342,
      "खेलाडीसहित</w>": 7343,
      "दीपेन्द्र</w>": 7344,
      "हजार": 7345,
      "संविधानसभा</w>": 7346,
      "तत्कालिन</w>": 7347,
      "बढ्छ</w>": 7348,
      "गुमाएका</w>": 7349,
      "धारणा": 7350,
      "रुपले</w>": 7351,
      "इङ्ल्यान्डलाई</w>": 7352,
      "प्रतिस्पर्धा": 7353,
      "भरत</w>": 7354,
      "पार्कमा</w>": 7355,
      "अन्तराष्ट्रिय</w>": 7356,
      "तोक्नुपर्ने</w>": 7357,
      "पठाइएको</w>": 7358,
      "म्याद</w>": 7359,
      "चेल्सीमा</w>": 7360,
      "अनलाइन</w>": 7361,
      "प्रमुखहरुको</w>": 7362,
      "त्रिभु": 7363,
      "क्रान्ति</w>": 7364,
      "ढिला</w>": 7365,
      "शतक</w>": 7366,
      "नेयमारको</w>": 7367,
      "अधिकारीका</w>": 7368,
      "प्रधानमन्त्री": 7369,
      "विज्ञप्ती</w>": 7370,
      "विभागमा</w>": 7371,
      "निष्पक्ष</w>": 7372,
      "बर्ट</w>": 7373,
      "२०७२</w>": 7374,
      "पुरधा": 7375,
      "दाहाललाई</w>": 7376,
      "जोड्ने</w>": 7377,
      "सफलतापूर्वक</w>": 7378,
      "चलाएको</w>": 7379,
      "नागरिकलाई</w>": 7380,
      "नैपर्ने</w>": 7381,
      "दरखास्त</w>": 7382,
      "ज्ञापन</w>": 7383,
      "महेश</w>": 7384,
      "गणतन्त्र": 7385,
      "काठमाडौंको</w>": 7386,
      "मल्ललाई</w>": 7387,
      "२००८</w>": 7388,
      "उठाएको</w>": 7389,
      "वायर्नले</w>": 7390,
      "महाधिवेशनसम्म</w>": 7391,
      "अभिव्यक्ति</w>": 7392,
      "संस्कृति</w>": 7393,
      "बद्री</w>": 7394,
      "स्टोले</w>": 7395,
      "पदाधिकारीलाई</w>": 7396,
      "पोर्चुगलको</w>": 7397,
      "पराजुली</w>": 7398,
      "दुर्गा": 7399,
      "चितवनको</w>": 7400,
      "चितवनमा</w>": 7401,
      "मड्रिडका</w>": 7402,
      "महेन्द्रसिंह</w>": 7403,
      "बैंक</w>": 7404,
      "तीनजनाको</w>": 7405,
      "होटेल</w>": 7406,
      "होटेलको</w>": 7407,
      "पुनर्जागरण</w>": 7408,
      "शक्तिले</w>": 7409,
      "पीडितलाई</w>": 7410,
      "खाँचो</w>": 7411,
      "ब्यूरो</w>": 7412,
      "बेलुका": 7413,
      "पन्जाबले</w>": 7414,
      "राउत</w>": 7415,
      "जनयुद्धको</w>": 7416,
      "राइडर्स</w>": 7417,
      "एट्लेटिको": 7418,
      "सहायता</w>": 7419,
      "जानुपर्ने</w>": 7420,
      "सान्चो</w>": 7421,
      "महिनापछि</w>": 7422,
      "भ्रमणको</w>": 7423,
      "आयरल्यान्डले</w>": 7424,
      "आयरल्यान्डका</w>": 7425,
      "बुबाको</w>": 7426,
      "बुबाले</w>": 7427,
      "समझदा": 7428,
      "श्रेयस</w>": 7429,
      "भुसाल</w>": 7430,
      "न्यूनतम</w>": 7431,
      "सरोकारवा": 7432,
      "बेन्जे": 7433,
      "महिलातर्फ</w>": 7434,
      "संशोधनका</w>": 7435,
      "कन्टे": 7436,
      "क्यानका</w>": 7437,
      "मिश्रले</w>": 7438,
      "कञ्चनपुर</w>": 7439,
      "लेखकले</w>": 7440,
      "बिदाई</w>": 7441,
      "राजनीतिलाई</w>": 7442,
      "नमिलेको</w>": 7443,
      "जनकपुरधा": 7444,
      "सञ्जाल</w>": 7445,
      "इन्डियन्सले</w>": 7446,
      "नीतिगत</w>": 7447,
      "अपनाएर</w>": 7448,
      "प्रशासनिक</w>": 7449,
      "पोलिटव्य": 7450,
      "मजबु": 7451,
      "रुकुम</w>": 7452,
      "अनुबन्धन</w>": 7453,
      "एक्लै</w>": 7454,
      "संघर्षपूर्ण</w>": 7455,
      "जलविद्यु": 7456,
      "बाटोमा</w>": 7457,
      "जागिर</w>": 7458,
      "अख्त": 7459,
      "खटाएको</w>": 7460,
      "दूरगामी</w>": 7461,
      "आक्रमण</w>": 7462,
      "एकेडेमीका</w>": 7463,
      "बाध्यता</w>": 7464,
      "अन्तर्गतका</w>": 7465,
      "दिपायल</w>": 7466,
      "म्याण्डेट</w>": 7467,
      "नैनसिंह</w>": 7468,
      "टुङ्गि": 7469,
      "फुयाँल</w>": 7470,
      "संहिता</w>": 7471,
      "दाबेदार</w>": 7472,
      "मनोनयनपत्र</w>": 7473,
      "निषेधाज्ञा</w>": 7474,
      "नान्डेजले</w>": 7475,
      "अनिश्चितकालका</w>": 7476,
      "ठक्कर</w>": 7477,
      "मधुसू": 7478,
      "मृत्यु</w>": 7479,
      "वारेन्टिनमा</w>": 7480,
      "विश्राम</w>": 7481,
      "गोरखा</w>": 7482,
      "कार्यवाहक</w>": 7483,
      "ग्वार्डि": 7484,
      "अजहर</w>": 7485,
      "गण्डकी</w>": 7486,
      "डब्लू": 7487,
      "बार्टोमेउले</w>": 7488,
      "स्वच्छ</w>": 7489,
      "अवा": 7490,
      "अना": 7491,
      "आद": 7492,
      "आलाभ": 7493,
      "इँ": 7494,
      "इब": 7495,
      "इङ</w>": 7496,
      "इनेछ</w>": 7497,
      "इज्जत</w>": 7498,
      "उप्रे": 7499,
      "उभ्या": 7500,
      "एच": 7501,
      "एन्डर": 7502,
      "कट्टे": 7503,
      "चक</w>": 7504,
      "छ्": 7505,
      "जै": 7506,
      "जहि": 7507,
      "झै": 7508,
      "टम</w>": 7509,
      "टलाई</w>": 7510,
      "टीको</w>": 7511,
      "टीका</w>": 7512,
      "णपछि</w>": 7513,
      "तव": 7514,
      "दश</w>": 7515,
      "दर</w>": 7516,
      "दानले</w>": 7517,
      "धरा": 7518,
      "नपछि</w>": 7519,
      "नगरिएको</w>": 7520,
      "नमिल्": 7521,
      "नपुगेको</w>": 7522,
      "नरेन्द्र</w>": 7523,
      "नहुँदा": 7524,
      "नईले</w>": 7525,
      "पटे": 7526,
      "पहुँ": 7527,
      "फरा": 7528,
      "बला": 7529,
      "बसा": 7530,
      "बटु": 7531,
      "भविष्": 7532,
      "मलेस": 7533,
      "मगर</w>": 7534,
      "मगरले</w>": 7535,
      "यति": 7536,
      "यत्": 7537,
      "यरले</w>": 7538,
      "रव": 7539,
      "रवादी</w>": 7540,
      "रक्त": 7541,
      "लख": 7542,
      "लनी</w>": 7543,
      "वस्तु": 7544,
      "शक्": 7545,
      "श्याम</w>": 7546,
      "सौ": 7547,
      "सक्ष": 7548,
      "सको": 7549,
      "हले": 7550,
      "हल्ला</w>": 7551,
      "ृजना</w>": 7552,
      "ैध</w>": 7553,
      "०६</w>": 7554,
      "५५०</w>": 7555,
      "्री": 7556,
      "लालले</w>": 7557,
      "काउन</w>": 7558,
      "कालिन</w>": 7559,
      "प्रगति": 7560,
      "प्रयत्": 7561,
      "माया": 7562,
      "स्ने</w>": 7563,
      "स्कृतिक</w>": 7564,
      "क्ला": 7565,
      "राको</w>": 7566,
      "पाइएको</w>": 7567,
      "पाउनुपर्छ</w>": 7568,
      "वार</w>": 7569,
      "वारिक</w>": 7570,
      "नेगरी</w>": 7571,
      "निकोल": 7572,
      "ताइ": 7573,
      "ताहरु</w>": 7574,
      "विड</w>": 7575,
      "विमला</w>": 7576,
      "बाओ</w>": 7577,
      "बाको</w>": 7578,
      "बाधा</w>": 7579,
      "नाउमा</w>": 7580,
      "देखेर</w>": 7581,
      "तित</w>": 7582,
      "हारा": 7583,
      "साध": 7584,
      "साह</w>": 7585,
      "साना</w>": 7586,
      "साम्प": 7587,
      "उनै": 7588,
      "उनकै</w>": 7589,
      "ष्मा</w>": 7590,
      "लिम</w>": 7591,
      "लिङ्": 7592,
      "ल्लाले</w>": 7593,
      "दिनका</w>": 7594,
      "दिएकाले</w>": 7595,
      "ानको</w>": 7596,
      "ानुसार</w>": 7597,
      "हिजो": 7598,
      "भारी</w>": 7599,
      "जिग</w>": 7600,
      "्याउने</w>": 7601,
      "रिलिज</w>": 7602,
      "नुहोस्</w>": 7603,
      "रहनु": 7604,
      "रहनु</w>": 7605,
      "खेले": 7606,
      "मिश्": 7607,
      "मिलेको</w>": 7608,
      "मुल": 7609,
      "ट्रो": 7610,
      "बताइ": 7611,
      "बताएपछि</w>": 7612,
      "बताएकी</w>": 7613,
      "सुट": 7614,
      "सुस्ता": 7615,
      "सुपर": 7616,
      "सुष्मा</w>": 7617,
      "पुस्ता": 7618,
      "पुरले</w>": 7619,
      "कारले</w>": 7620,
      "गोप": 7621,
      "मन्त्रीलाई</w>": 7622,
      "राष्ट्रवादी</w>": 7623,
      "मेयर</w>": 7624,
      "एकजु": 7625,
      "एकलौ": 7626,
      "लेक्": 7627,
      "लेलाई</w>": 7628,
      "बैत": 7629,
      "द्द</w>": 7630,
      "कोषा": 7631,
      "रेजले</w>": 7632,
      "अन्तर</w>": 7633,
      "अनुपा": 7634,
      "अनुदान</w>": 7635,
      "अनुराधा</w>": 7636,
      "स्तैमा</w>": 7637,
      "प्रदेशलाई</w>": 7638,
      "प्रतिको</w>": 7639,
      "प्रतिपक्षमा</w>": 7640,
      "माओवाद</w>": 7641,
      "स्थाना": 7642,
      "टोभन्दा</w>": 7643,
      "बिमाको</w>": 7644,
      "भिर</w>": 7645,
      "भिड्": 7646,
      "कार्यलाई</w>": 7647,
      "कार्यसूची</w>": 7648,
      "बनाउनुपर्छ</w>": 7649,
      "चिएको</w>": 7650,
      "चिलो</w>": 7651,
      "जनाउन</w>": 7652,
      "फातीले</w>": 7653,
      "राजमार्ग": 7654,
      "तथा": 7655,
      "वेबसाइ": 7656,
      "त्यसबेला</w>": 7657,
      "समाप्": 7658,
      "समायोजन</w>": 7659,
      "मुख्या": 7660,
      "शाखा</w>": 7661,
      "जोगि": 7662,
      "अवैध</w>": 7663,
      "गुप्ता": 7664,
      "बीमा</w>": 7665,
      "यसबारे</w>": 7666,
      "पेन्द्र": 7667,
      "नेताद्वय</w>": 7668,
      "लगाउँदै</w>": 7669,
      "निर्णयमा</w>": 7670,
      "संघीय": 7671,
      "गिरि": 7672,
      "२००</w>": 7673,
      "गरेअनुसार</w>": 7674,
      "होइ": 7675,
      "होमि": 7676,
      "महासमितिको</w>": 7677,
      "महानगर</w>": 7678,
      "महासंघले</w>": 7679,
      "उपहार</w>": 7680,
      "रणको</w>": 7681,
      "बेन</w>": 7682,
      "बेलले</w>": 7683,
      "बेच्": 7684,
      "बेलामा</w>": 7685,
      "ियाको</w>": 7686,
      "ियासँग</w>": 7687,
      "पोस्ट</w>": 7688,
      "कर्ण</w>": 7689,
      "चेक</w>": 7690,
      "महिनामा</w>": 7691,
      "बोग": 7692,
      "देशी</w>": 7693,
      "चुलिएको</w>": 7694,
      "निकास</w>": 7695,
      "निकाले": 7696,
      "मोटर": 7697,
      "एजेन्ट</w>": 7698,
      "डिए": 7699,
      "भाग्य": 7700,
      "दैछन्</w>": 7701,
      "खातामा</w>": 7702,
      "गराएर</w>": 7703,
      "वर्षमुनि</w>": 7704,
      "स्वराज</w>": 7705,
      "स्वतः</w>": 7706,
      "भइसकेपछि</w>": 7707,
      "फर्म</w>": 7708,
      "आर्म": 7709,
      "आर्य": 7710,
      "देखिँदैन</w>": 7711,
      "संसदको</w>": 7712,
      "मार्सि": 7713,
      "उत्तर": 7714,
      "क्षेप</w>": 7715,
      "शुरु": 7716,
      "राखेप": 7717,
      "राखेपका</w>": 7718,
      "फाइदा</w>": 7719,
      "आईतबार</w>": 7720,
      "आइओए": 7721,
      "रामनारायण</w>": 7722,
      "खुल्ला</w>": 7723,
      "दलहरुको</w>": 7724,
      "चौं": 7725,
      "विश्वकपको</w>": 7726,
      "विश्वविद्यालय</w>": 7727,
      "विश्वकपमा</w>": 7728,
      "उनीहरूलाई</w>": 7729,
      "आवद्ध</w>": 7730,
      "नुपर्दछ</w>": 7731,
      "ब्ल्या": 7732,
      "एन्टो": 7733,
      "छात्र": 7734,
      "चाहे</w>": 7735,
      "चाहेका</w>": 7736,
      "प्रचण्डसँग</w>": 7737,
      "खेलाडीहरूलाई</w>": 7738,
      "छिटोभन्दा</w>": 7739,
      "रियलमा</w>": 7740,
      "स्पेन</w>": 7741,
      "परिणाम": 7742,
      "्रोपटक</w>": 7743,
      "बढ्नुपर्ने</w>": 7744,
      "शेखर</w>": 7745,
      "रहेकोले</w>": 7746,
      "अवस्थालाई</w>": 7747,
      "लक्ष्मण</w>": 7748,
      "बढाउँदै</w>": 7749,
      "समाजको</w>": 7750,
      "सम्झि": 7751,
      "म्याच</w>": 7752,
      "तालिकामा</w>": 7753,
      "थापाको</w>": 7754,
      "गाउँपालिकामा</w>": 7755,
      "त्तरी</w>": 7756,
      "ब्राभो": 7757,
      "एन्फाको</w>": 7758,
      "एन्फाका</w>": 7759,
      "मिल्छ</w>": 7760,
      "देखाउँदै</w>": 7761,
      "फेरी</w>": 7762,
      "मणी</w>": 7763,
      "छुन</w>": 7764,
      "विभागका</w>": 7765,
      "बन्दी": 7766,
      "बन्दै": 7767,
      "गृहमन्त्री</w>": 7768,
      "मुख्यमन्त्री": 7769,
      "मुख्यमन्त्रीका</w>": 7770,
      "परिषद्ले</w>": 7771,
      "खेलकुदका</w>": 7772,
      "खेलकुदलाई</w>": 7773,
      "सफलताको</w>": 7774,
      "सचिवालयमा</w>": 7775,
      "नैपर्छ</w>": 7776,
      "विराट</w>": 7777,
      "सातदो": 7778,
      "कैदी": 7779,
      "काराबाओ</w>": 7780,
      "बताउँछ</w>": 7781,
      "प्रक्रियाका</w>": 7782,
      "छलफलका</w>": 7783,
      "आर्सनलका</w>": 7784,
      "सन्तुलन</w>": 7785,
      "प्यारा": 7786,
      "अर्धशतक</w>": 7787,
      "पारिमा</w>": 7788,
      "२००५</w>": 7789,
      "पारदर्शी</w>": 7790,
      "उठाउने</w>": 7791,
      "म्यानचे": 7792,
      "अलि</w>": 7793,
      "परिवारले</w>": 7794,
      "परिवारको</w>": 7795,
      "आत्मविश्वास</w>": 7796,
      "मानिएको</w>": 7797,
      "युभेन्टसलाई</w>": 7798,
      "हैदराबा": 7799,
      "प्रतिक्रिया": 7800,
      "अभियानले</w>": 7801,
      "संरचनामा</w>": 7802,
      "रिपोर्टमा</w>": 7803,
      "संगठनले</w>": 7804,
      "ढुंगा": 7805,
      "सुदृढि": 7806,
      "निर्णाय": 7807,
      "पराजुलीको</w>": 7808,
      "प्रदर्शनमा</w>": 7809,
      "चितवनबाट</w>": 7810,
      "भक्तपुरको</w>": 7811,
      "सेल्टा</w>": 7812,
      "अगस्त": 7813,
      "एटलान्टा</w>": 7814,
      "बैंगलोरले</w>": 7815,
      "अर्थतन्त्र</w>": 7816,
      "ब्राजिल</w>": 7817,
      "क्रोएसिया</w>": 7818,
      "कोलकाताका</w>": 7819,
      "पन्जाबका</w>": 7820,
      "दिइरहेको</w>": 7821,
      "यथावत</w>": 7822,
      "एभर्टनलाई</w>": 7823,
      "थुनामा</w>": 7824,
      "सान्चे": 7825,
      "सम्हालेका</w>": 7826,
      "१६८</w>": 7827,
      "विधानअनुसार</w>": 7828,
      "चाहिँ</w>": 7829,
      "भ्रमणमा</w>": 7830,
      "न्युक्या": 7831,
      "सुधारको</w>": 7832,
      "सोध्": 7833,
      "डिभिजनको</w>": 7834,
      "सुमार्गीले</w>": 7835,
      "मिश्रा</w>": 7836,
      "वृद्धभत्": 7837,
      "विश्वासको</w>": 7838,
      "पाकिस्तानबीचको</w>": 7839,
      "कौटिन्होलाई</w>": 7840,
      "आएसँगै</w>": 7841,
      "भन्नेबारेमा</w>": 7842,
      "साझेदा": 7843,
      "कार्यकाल</w>": 7844,
      "कार्यकालमा</w>": 7845,
      "अनशन": 7846,
      "कराते": 7847,
      "खिमलाल</w>": 7848,
      "रेग्मीले</w>": 7849,
      "पोलिटब्यूरो</w>": 7850,
      "पुनःनिर्माण</w>": 7851,
      "हैसियतमा</w>": 7852,
      "सदरमुकाम</w>": 7853,
      "मोहनबहादुर</w>": 7854,
      "हेरफेर</w>": 7855,
      "नेसनल</w>": 7856,
      "महामारीबीच</w>": 7857,
      "निम्ति</w>": 7858,
      "ट्वीट</w>": 7859,
      "उपत्यका</w>": 7860,
      "धर्ना</w>": 7861,
      "षड्य": 7862,
      "षडयन्त्र</w>": 7863,
      "शहीद</w>": 7864,
      "राजस्थानले</w>": 7865,
      "राजस्थानका</w>": 7866,
      "नोभेम्बर</w>": 7867,
      "अनेरास्ववियु": 7868,
      "चैत</w>": 7869,
      "प्रोटोकल</w>": 7870,
      "साविकको</w>": 7871,
      "लुम्बिनी</w>": 7872,
      "बृहत्</w>": 7873,
      "द्रु": 7874,
      "सद्भाव</w>": 7875,
      "जेलजीवन</w>": 7876,
      "मूल्यांकन</w>": 7877,
      "भविष्यमा</w>": 7878,
      "रञ्जित</w>": 7879,
      "रोल्पा</w>": 7880,
      "काठमाडौँमा</w>": 7881,
      "यसअघिको</w>": 7882,
      "प्रतिष्पर्": 7883,
      "खरिद</w>": 7884,
      "एथ्लेटिक</w>": 7885,
      "इंग्लिस</w>": 7886,
      "नरेश</w>": 7887,
      "शब्द</w>": 7888,
      "प्रवेशका</w>": 7889,
      "जितिन्</w>": 7890,
      "रक्षामन्त्री</w>": 7891,
      "सङ्क्रमणीय</w>": 7892,
      "लम्बिएको</w>": 7893,
      "सान्चोले</w>": 7894,
      "अडिट</w>": 7895,
      "ओपनर</w>": 7896,
      "जिज्ञासामा</w>": 7897,
      "केन्द्रीत</w>": 7898,
      "महासेठले</w>": 7899,
      "परम्परा": 7900,
      "मध्येबाट</w>": 7901,
      "गोलरक्षक</w>": 7902,
      "मनसाय</w>": 7903,
      "गोपालप्रसाद</w>": 7904,
      "आफैंमा</w>": 7905,
      "काउन्सि": 7906,
      "संक्रमित</w>": 7907,
      "धार्मिक</w>": 7908,
      "अनुभूति</w>": 7909,
      "परिसरमा</w>": 7910,
      "हालान्डले</w>": 7911,
      "व्यावसायिक</w>": 7912,
      "साहित्य": 7913,
      "अपांगता</w>": 7914,
      "लिस्बनमा</w>": 7915,
      "औद्योगिक</w>": 7916,
      "मग्वा": 7917,
      "हवाई</w>": 7918,
      "मिचेल</w>": 7919,
      "सरस्वती</w>": 7920,
      "त्रिभुवन</w>": 7921,
      "मधुसूदन</w>": 7922,
      "भविष्य</w>": 7923,
      "सक्षम</w>": 7924,
      "मिश्र</w>": 7925,
      "एकजुट</w>": 7926,
      "एकलौटी</w>": 7927,
      "मोटरसाइ": 7928,
      "अच": 7929,
      "अति</w>": 7930,
      "अराज": 7931,
      "अगु": 7932,
      "अछा": 7933,
      "अरू</w>": 7934,
      "आका": 7935,
      "आचार": 7936,
      "ईलाई</w>": 7937,
      "उसको</w>": 7938,
      "उपेन्द्र</w>": 7939,
      "एल": 7940,
      "एरि": 7941,
      "एपनि</w>": 7942,
      "एम्ब": 7943,
      "एसो": 7944,
      "एघा": 7945,
      "ओलि": 7946,
      "कियो</w>": 7947,
      "कटा": 7948,
      "कबहादुर</w>": 7949,
      "कतर्फ</w>": 7950,
      "कराम</w>": 7951,
      "खस</w>": 7952,
      "खानले</w>": 7953,
      "गढी</w>": 7954,
      "घे": 7955,
      "घन्": 7956,
      "ङबाट</w>": 7957,
      "चल</w>": 7958,
      "चलाई</w>": 7959,
      "चलाइ": 7960,
      "चल्न</w>": 7961,
      "छत्र": 7962,
      "छडिएको</w>": 7963,
      "जका</w>": 7964,
      "टनले</w>": 7965,
      "डसँग</w>": 7966,
      "ड्र</w>": 7967,
      "ढो": 7968,
      "थ्यौं</w>": 7969,
      "धर</w>": 7970,
      "धमा</w>": 7971,
      "नं": 7972,
      "नीका</w>": 7973,
      "नबहादुर</w>": 7974,
      "नजी": 7975,
      "नौँ</w>": 7976,
      "नदेखिएको</w>": 7977,
      "नखेल्ने</w>": 7978,
      "नकारात्मक</w>": 7979,
      "नहुनु</w>": 7980,
      "नहोस्</w>": 7981,
      "नचाहेको</w>": 7982,
      "नआएपछि</w>": 7983,
      "नन्दा</w>": 7984,
      "पो</w>": 7985,
      "पद्": 7986,
      "पब्": 7987,
      "पढा": 7988,
      "पहलमा</w>": 7989,
      "फत्</w>": 7990,
      "बट": 7991,
      "बय": 7992,
      "बू": 7993,
      "ब्यु": 7994,
      "बरिय": 7995,
      "भग": 7996,
      "भरमा</w>": 7997,
      "भक्त</w>": 7998,
      "भएकै</w>": 7999,
      "मे</w>": 8000,
      "मराज</w>": 8001,
      "यराज</w>": 8002,
      "यहि</w>": 8003,
      "रसुवा": 8004,
      "लम": 8005,
      "वन": 8006,
      "वर": 8007,
      "वता": 8008,
      "वकि": 8009,
      "वधि</w>": 8010,
      "वरिय": 8011,
      "वकप</w>": 8012,
      "शर": 8013,
      "शू": 8014,
      "शले</w>": 8015,
      "शरी": 8016,
      "सय": 8017,
      "सौं</w>": 8018,
      "सनका</w>": 8019,
      "सडाँडामा</w>": 8020,
      "सप्त": 8021,
      "सृजना</w>": 8022,
      "सस्तैमा</w>": 8023,
      "हौ": 8024,
      "ह्</w>": 8025,
      "हतार</w>": 8026,
      "हटाउने</w>": 8027,
      "ुरो</w>": 8028,
      "ेशी</w>": 8029,
      "१५": 8030,
      "९३</w>": 8031,
      "९४</w>": 8032,
      "र्त</w>": 8033,
      "न्थ्यो</w>": 8034,
      "लाई": 8035,
      "लाम्": 8036,
      "कामलाई</w>": 8037,
      "प्रसार</w>": 8038,
      "प्रबन्धक</w>": 8039,
      "माका</w>": 8040,
      "स्मार": 8041,
      "राय": 8042,
      "पाएँ</w>": 8043,
      "नेबारेमा</w>": 8044,
      "नेवि</w>": 8045,
      "निडा": 8046,
      "तारी</w>": 8047,
      "तापनि</w>": 8048,
      "विम": 8049,
      "विलियन</w>": 8050,
      "विपक्षमा</w>": 8051,
      "विज्ञ</w>": 8052,
      "बाने": 8053,
      "नाघ": 8054,
      "नामबाट</w>": 8055,
      "गर्व</w>": 8056,
      "तिलाई</w>": 8057,
      "हारीमा</w>": 8058,
      "हारबाट</w>": 8059,
      "हुर्": 8060,
      "हुनुपर्नेमा</w>": 8061,
      "सान": 8062,
      "सानु": 8063,
      "सानेपा": 8064,
      "केले</w>": 8065,
      "केनले</w>": 8066,
      "केभिन</w>": 8067,
      "उनै</w>": 8068,
      "त्तामा</w>": 8069,
      "दिप</w>": 8070,
      "दिशा</w>": 8071,
      "संग": 8072,
      "भाई": 8073,
      "भाष": 8074,
      "भार्ड": 8075,
      "भाषा</w>": 8076,
      "जिदानले</w>": 8077,
      "लागेर</w>": 8078,
      "सिमा": 8079,
      "सिक्": 8080,
      "सिमित</w>": 8081,
      "रहनुभएको</w>": 8082,
      "खेलेर</w>": 8083,
      "योसँगै</w>": 8084,
      "जनलाई</w>": 8085,
      "सम्भा": 8086,
      "सम्भव": 8087,
      "दावे": 8088,
      "दासमेत</w>": 8089,
      "दाङको</w>": 8090,
      "दाङका</w>": 8091,
      "दाङलाई</w>": 8092,
      "त्यस्ता</w>": 8093,
      "क्रिया</w>": 8094,
      "सुम्प": 8095,
      "सुरू": 8096,
      "पुम्": 8097,
      "पुरे": 8098,
      "कार्क": 8099,
      "चाइनि": 8100,
      "कारी": 8101,
      "कारखाना</w>": 8102,
      "गोले</w>": 8103,
      "गोन्जा": 8104,
      "रोक</w>": 8105,
      "रोर्": 8106,
      "रोबर्ट</w>": 8107,
      "मेर</w>": 8108,
      "धारी</w>": 8109,
      "पर्खि": 8110,
      "एकअर्": 8111,
      "गाको</w>": 8112,
      "लेगा": 8113,
      "लेखा": 8114,
      "लेख्": 8115,
      "जामा</w>": 8116,
      "रेलाई</w>": 8117,
      "युग</w>": 8118,
      "अन्सु</w>": 8119,
      "सभाले</w>": 8120,
      "अनुशा": 8121,
      "गरिन्छ</w>": 8122,
      "गरिनुपर्ने</w>": 8123,
      "स्तर</w>": 8124,
      "प्रतिबन्ध": 8125,
      "प्रतिशत": 8126,
      "कार्यभार</w>": 8127,
      "कार्यविभाजन</w>": 8128,
      "कार्यदलमा</w>": 8129,
      "जेष्ठ</w>": 8130,
      "बनाएपछि</w>": 8131,
      "बनाइने</w>": 8132,
      "जनादेश": 8133,
      "फाँ": 8134,
      "परिपा": 8135,
      "रीराम</w>": 8136,
      "समाचा": 8137,
      "बुझ</w>": 8138,
      "मुखी</w>": 8139,
      "टेपछि</w>": 8140,
      "टेबल": 8141,
      "अवरुद्ध</w>": 8142,
      "गुइ": 8143,
      "गुण": 8144,
      "यसबाट</w>": 8145,
      "यसबारेमा</w>": 8146,
      "पेर</w>": 8147,
      "ल्याएर</w>": 8148,
      "ङ्क</w>": 8149,
      "बढे</w>": 8150,
      "संघीयताको</w>": 8151,
      "संघीयता</w>": 8152,
      "सीता": 8153,
      "सीसँग</w>": 8154,
      "उपगुट</w>": 8155,
      "उपसभामुखमा</w>": 8156,
      "सोल्": 8157,
      "सोचे": 8158,
      "सोझै</w>": 8159,
      "थाइ": 8160,
      "थाका</w>": 8161,
      "थाल्यो</w>": 8162,
      "थालनी</w>": 8163,
      "सक्छौं</w>": 8164,
      "सक्नेछन्</w>": 8165,
      "सक्दो</w>": 8166,
      "खेल्नु</w>": 8167,
      "खेल्नेछन्</w>": 8168,
      "बेवास्ता</w>": 8169,
      "अर्जुन": 8170,
      "बोलो": 8171,
      "बोहो": 8172,
      "बोल्ने</w>": 8173,
      "मतपत्रमा</w>": 8174,
      "हेन्डर": 8175,
      "जुक्": 8176,
      "जुलु": 8177,
      "जुट्न</w>": 8178,
      "ग्लु": 8179,
      "डिल्": 8180,
      "लुसिया</w>": 8181,
      "दर्जन</w>": 8182,
      "मिनेट": 8183,
      "राजनीतिको</w>": 8184,
      "डाको</w>": 8185,
      "गराइएको</w>": 8186,
      "वर्षाका</w>": 8187,
      "स्वकीय</w>": 8188,
      "स्वतन्त्र": 8189,
      "दिलाउने</w>": 8190,
      "आफूसँग</w>": 8191,
      "मार्क</w>": 8192,
      "मार्गमा</w>": 8193,
      "मार्फत्</w>": 8194,
      "उत्तिकै</w>": 8195,
      "आजै": 8196,
      "वार्तापछि</w>": 8197,
      "प्रत्या": 8198,
      "पुगे": 8199,
      "पुगेपछि</w>": 8200,
      "एमालेकै</w>": 8201,
      "आइपुग्दा</w>": 8202,
      "द्धय</w>": 8203,
      "दलसँगको</w>": 8204,
      "दलहरूलाई</w>": 8205,
      "नेतृत्वकै</w>": 8206,
      "वैद्य</w>": 8207,
      "फाइनलको</w>": 8208,
      "पत्रकारको</w>": 8209,
      "छाडेर</w>": 8210,
      "योग्यता</w>": 8211,
      "क्षेत्रलाई</w>": 8212,
      "नीतिमा</w>": 8213,
      "देउवासँग</w>": 8214,
      "डोम</w>": 8215,
      "जीवी</w>": 8216,
      "घोषणा": 8217,
      "बराबरको</w>": 8218,
      "दीनानाथ</w>": 8219,
      "पूर्वअध्यक्ष</w>": 8220,
      "प्रशिक्षणले</w>": 8221,
      "त्वको</w>": 8222,
      "वीरेन्द्र</w>": 8223,
      "संविधानलाई</w>": 8224,
      "जित्नै</w>": 8225,
      "जित्नेलाई</w>": 8226,
      "व्यक्तिहरुको</w>": 8227,
      "बनेकी</w>": 8228,
      "पिर्": 8229,
      "पिछडिएको</w>": 8230,
      "सिटीमा</w>": 8231,
      "राईको</w>": 8232,
      "रहेकामा</w>": 8233,
      "लाग्दै</w>": 8234,
      "पाकिस्तानी</w>": 8235,
      "स्वर्ग": 8236,
      "पठाएका</w>": 8237,
      "म्याक": 8238,
      "म्याने": 8239,
      "उम्मेदवारले</w>": 8240,
      "उम्मेदवारहरु": 8241,
      "भनिए</w>": 8242,
      "तालिकाअनुसार</w>": 8243,
      "ङ्गले</w>": 8244,
      "भट्टले</w>": 8245,
      "पन्त</w>": 8246,
      "खर्चको</w>": 8247,
      "पराजय": 8248,
      "पराजति</w>": 8249,
      "कार्यालयलाई</w>": 8250,
      "बजेटमा</w>": 8251,
      "दिवसकै</w>": 8252,
      "पीएसजीको</w>": 8253,
      "त्तम</w>": 8254,
      "सम्झौतामा</w>": 8255,
      "एन्फाबाट</w>": 8256,
      "नगरपालिकामा</w>": 8257,
      "उहाँहरुको</w>": 8258,
      "देखाउन</w>": 8259,
      "कामहरु</w>": 8260,
      "मानबहादुर</w>": 8261,
      "विजयकुमार</w>": 8262,
      "विज्ञप्तीमा</w>": 8263,
      "हराएर</w>": 8264,
      "विभागको</w>": 8265,
      "चोक</w>": 8266,
      "फरवार्ड</w>": 8267,
      "भुमि": 8268,
      "२०७०</w>": 8269,
      "आन्दोलनलाई</w>": 8270,
      "महामारी</w>": 8271,
      "लिभरपुल</w>": 8272,
      "कैयौं</w>": 8273,
      "मधेशी</w>": 8274,
      "निर्वाचनबाट</w>": 8275,
      "निर्वाचनसम्बन्धी</w>": 8276,
      "पाँचमा</w>": 8277,
      "ब्याटिङ": 8278,
      "बाहिरिने</w>": 8279,
      "फोरमका</w>": 8280,
      "गर्नेलाई</w>": 8281,
      "ज्ञापन": 8282,
      "इन्चार्ज</w>": 8283,
      "राज्यमन्त्री</w>": 8284,
      "राज्यकोष": 8285,
      "फागुनमा</w>": 8286,
      "प्रक्रियाको</w>": 8287,
      "संक्रमणकाल</w>": 8288,
      "आर्सनलसँग</w>": 8289,
      "सन्तुल": 8290,
      "व्यापी</w>": 8291,
      "व्यापार</w>": 8292,
      "एकोले</w>": 8293,
      "पारिवारिक</w>": 8294,
      "विकेटकिपर</w>": 8295,
      "उठाउन</w>": 8296,
      "उद्योग": 8297,
      "धोनी</w>": 8298,
      "शाहको</w>": 8299,
      "धनगढीमा</w>": 8300,
      "प्रणालीबाट</w>": 8301,
      "युभेन्ट्सको</w>": 8302,
      "गम्भिर</w>": 8303,
      "पाउँ</w>": 8304,
      "काँग्रेसलाई</w>": 8305,
      "कहिले": 8306,
      "सर्वसम्म": 8307,
      "दुईजना</w>": 8308,
      "मन्त्रीसमेत</w>": 8309,
      "थ्र्": 8310,
      "मण्डलले</w>": 8311,
      "व्यवस्थाअनुसार</w>": 8312,
      "आउटमा</w>": 8313,
      "स्विकृत</w>": 8314,
      "पश्चा": 8315,
      "हार्ने</w>": 8316,
      "प्रमाण</w>": 8317,
      "रेफ्रीको</w>": 8318,
      "चितवनले</w>": 8319,
      "लकडाउनको</w>": 8320,
      "मड्रिड</w>": 8321,
      "संस्थालाई</w>": 8322,
      "दोहोर्या": 8323,
      "भारोत्तोलनका</w>": 8324,
      "दूरी</w>": 8325,
      "अंकसँगै</w>": 8326,
      "मूलक</w>": 8327,
      "आफैँ</w>": 8328,
      "पीडितले</w>": 8329,
      "ढकाल</w>": 8330,
      "बेलुकी</w>": 8331,
      "अपराध</w>": 8332,
      "सेप्टेम्बरमा</w>": 8333,
      "सडकमा</w>": 8334,
      "प्रशिक्षकसँग</w>": 8335,
      "च्छिक</w>": 8336,
      "कौटिन्हो</w>": 8337,
      "स्कट": 8338,
      "तालमे": 8339,
      "हस्ताक्षर": 8340,
      "प्रमाणित</w>": 8341,
      "पृष्ठ": 8342,
      "पाइन्छ</w>": 8343,
      "एटलान्टाविरुद्धको</w>": 8344,
      "साक्षात्कार</w>": 8345,
      "प्लेइङ</w>": 8346,
      "चाहिन्छ</w>": 8347,
      "तपाईँ": 8348,
      "तपाईं</w>": 8349,
      "आकांक्षा</w>": 8350,
      "कूट": 8351,
      "बुबाआ": 8352,
      "सञ्चारमन्त्री</w>": 8353,
      "सञ्चारमाध्य": 8354,
      "क्रान्तिकार": 8355,
      "जन्म": 8356,
      "जन्म</w>": 8357,
      "न्यायाधीशमाथि</w>": 8358,
      "एनओ": 8359,
      "परेकाले</w>": 8360,
      "वार्टर</w>": 8361,
      "भागवण्डा": 8362,
      "सुधारका</w>": 8363,
      "लोकतन्त्रलाई</w>": 8364,
      "टोटनहमलाई</w>": 8365,
      "टोटनहमले</w>": 8366,
      "सुमार्गी</w>": 8367,
      "किङ्सलाई</w>": 8368,
      "बेन्चमा</w>": 8369,
      "व्यवस्थापिका</w>": 8370,
      "बुझ्न</w>": 8371,
      "बुँदा": 8372,
      "चेन्नईका</w>": 8373,
      "क्यापिटल्सले</w>": 8374,
      "आश्चर्": 8375,
      "उचालेको</w>": 8376,
      "ट्राफोर्डमा</w>": 8377,
      "कोटामा</w>": 8378,
      "इन्डिजका</w>": 8379,
      "इन्डिजविरुद्धको</w>": 8380,
      "नमिलेका</w>": 8381,
      "क्रियाशील</w>": 8382,
      "उत्साह": 8383,
      "उत्साहित</w>": 8384,
      "खुलातर्फ</w>": 8385,
      "हेटौँडामा</w>": 8386,
      "वेस्टहाम": 8387,
      "टुंग्याउन</w>": 8388,
      "इनिङ्": 8389,
      "घटाएको</w>": 8390,
      "पदाधिकारीहरुलाई</w>": 8391,
      "माथिको</w>": 8392,
      "ब्रुनो</w>": 8393,
      "बैंकक</w>": 8394,
      "वोक्सले</w>": 8395,
      "ट्रेड</w>": 8396,
      "तीनवटा</w>": 8397,
      "कम्पनी</w>": 8398,
      "अभियानलाई</w>": 8399,
      "महर्जनले</w>": 8400,
      "भट्टराईको</w>": 8401,
      "रुपैयाँको</w>": 8402,
      "स्याङ्जा</w>": 8403,
      "अख्तियार</w>": 8404,
      "पढ्": 8405,
      "शहीद": 8406,
      "सेभिल्ला</w>": 8407,
      "पर्यटकीय</w>": 8408,
      "क्तान</w>": 8409,
      "किसिमको</w>": 8410,
      "बुढाथो": 8411,
      "क्याम्पस</w>": 8412,
      "पृथ्वीसुब्बा</w>": 8413,
      "उर्जा</w>": 8414,
      "घर्तीले</w>": 8415,
      "तारिखमा</w>": 8416,
      "सावित्र": 8417,
      "सुरेश</w>": 8418,
      "जोशीले</w>": 8419,
      "जुडोमा</w>": 8420,
      "अष्ट्रेलियाले</w>": 8421,
      "सम्पर्क</w>": 8422,
      "सम्पर्कमा</w>": 8423,
      "रायमाझीले</w>": 8424,
      "तलावा": 8425,
      "गेटाफ": 8426,
      "हेटौंडा</w>": 8427,
      "अत्यन्तै</w>": 8428,
      "कल्याण": 8429,
      "ग्यारे": 8430,
      "हस्तक्षेप</w>": 8431,
      "दीर्घकालीन</w>": 8432,
      "पशुपति</w>": 8433,
      "मरकट्टे": 8434,
      "वास्तविक</w>": 8435,
      "पेरिसडाँडामा</w>": 8436,
      "सोहीअनुसार</w>": 8437,
      "क्वार्टर": 8438,
      "आक्रोश</w>": 8439,
      "झगडा</w>": 8440,
      "काउटिन्हो": 8441,
      "पार्वती</w>": 8442,
      "बिषयमा</w>": 8443,
      "जोखिममा</w>": 8444,
      "उपाध्यक्ष": 8445,
      "नियमअनुसार</w>": 8446,
      "थपलियाले</w>": 8447,
[...]
