{
  "version": "1.0",
  "truncation": null,
  "padding": null,
  "added_tokens": [
    {
      "id": 0,
      "content": "<endoftext>",
      "single_word": false,
      "lstrip": false,
      "rstrip": false,
      "normalized": false,
      "special": true
    }
  ],
  "normalizer": {
    "type": "NFKC"
  },
  "pre_tokenizer": {
    "type": "Whitespace"
  },
  "post_processor": null,
  "decoder": null,
  "model": {
    "type": "BPE",
    "dropout": null,
    "unk_token": null,
    "continuing_subword_prefix": null,
    "end_of_word_suffix": null,
    "fuse_unk": false,
    "byte_fallback": false,
    "ignore_merges": false,
    "vocab": {
      "<endoftext>": 0,
      "!": 1,
      "\"": 2,
      "#": 3,
      "$": 4,
      "&": 5,
      "'": 6,
      "(": 7,
      ")": 8,
      "+": 9,
      ",": 10,
      "-": 11,
      ".": 12,
      "/": 13,
      "0": 14,
      "1": 15,
      "2": 16,
      "3": 17,
      "4": 18,
      "5": 19,
      "6": 20,
      "7": 21,
      "8": 22,
      "9": 23,
      ":": 24,
      ";": 25,
      "<": 26,
      ">": 27,
      "?": 28,
      "@": 29,
      "A": 30,
      "B": 31,
      "C": 32,
      "D": 33,
      "E": 34,
      "F": 35,
      "G": 36,
      "H": 37,
      "I": 38,
      "J": 39,
      "K": 40,
      "L": 41,
      "M": 42,
      "N": 43,
      "O": 44,
      "P": 45,
      "Q": 46,
      "R": 47,
      "S": 48,
      "T": 49,
      "U": 50,
      "V": 51,
      "W": 52,
      "X": 53,
      "Y": 54,
      "Z": 55,
      "[": 56,
      "]": 57,
      "a": 58,
      "b": 59,
      "c": 60,
      "d": 61,
      "e": 62,
      "f": 63,
      "g": 64,
      "h": 65,
      "i": 66,
      "j": 67,
      "k": 68,
      "l": 69,
      "m": 70,
      "n": 71,
      "o": 72,
      "p": 73,
      "q": 74,
      "r": 75,
      "s": 76,
      "t": 77,
      "u": 78,
      "v": 79,
      "w": 80,
      "x": 81,
      "y": 82,
      "z": 83,
      "£": 84,
      "®": 85,
      "á": 86,
      "é": 87,
      "í": 88,
      "ñ": 89,
      "ö": 90,
      "–": 91,
      "—": 92,
      "•": 93,
      "20": 94,
      "er": 95,
      "or": 96,
      "in": 97,
      "ed": 98,
      "on": 99,
      "he": 100,
      "ar": 101,
      "an": 102,
      "the": 103,
      "al": 104,
      "ri": 105,
      "ved": 106,
      "st": 107,
      "wi": 108,
      "201": 109,
      "ft": 110,
      "ay": 111,
      "wift": 112,
      "Swift": 113,
      "Re": 114,
      "ber": 115,
      "ch": 116,
      "at": 117,
      "om": 118,
      "202": 119,
      "es": 120,
      "en": 121,
      "\".": 122,
      "em": 123,
      "ing": 124,
      "lor": 125,
      "tri": 126,
      "ig": 127,
      "aylor": 128,
      "ll": 129,
      "Taylor": 130,
      "eved": 131,
      "Retri": 132,
      "Retrieved": 133,
      "to": 134,
      "ic": 135,
      "and": 136,
      ").": 137,
      "re": 138,
      "rom": 139,
      "ember": 140,
      "ou": 141,
      "th": 142,
      "from": 143,
      "as": 144,
      "Ar": 145,
      "of": 146,
      "chi": 147,
      "inal": 148,
      "orig": 149,
      "original": 150,
      "Archi": 151,
      "Archived": 152,
      "ion": 153,
      "ard": 154,
      "ec": 155,
      "ill": 156,
      "le": 157,
      "ov": 158,
      ".[": 159,
      "2023": 160,
      "ly": 161,
      "us": 162,
      "Ju": 163,
      "is": 164,
      "it": 165,
      "The": 166,
      "um": 167,
      "for": 168,
      "her": 169,
      "ary": 170,
      "op": 171,
      "am": 172,
      "ist": 173,
      "ad": 174,
      "ust": 175,
      "uary": 176,
      "Nov": 177,
      "usic": 178,
      "November": 179,
      "ne": 180,
      "ent": 181,
      "ers": 182,
      "bo": 183,
      "2022": 184,
      "Dec": 185,
      "tr": 186,
      "Bill": 187,
      "id": 188,
      "ur": 189,
      "art": 190,
      "im": 191,
      "ong": 192,
      "Oc": 193,
      "ac": 194,
      "St": 195,
      "tober": 196,
      "October": 197,
      "el": 198,
      "ow": 199,
      "December": 200,
      "board": 201,
      "Billboard": 202,
      "ew": 203,
      "ug": 204,
      "10": 205,
      "2021": 206,
      "ear": 207,
      "ot": 208,
      "2020": 209,
      "rit": 210,
      "oun": 211,
      "ol": 212,
      "bum": 213,
      "200": 214,
      "ation": 215,
      "July": 216,
      "ess": 217,
      "Aug": 218,
      "][": 219,
      "August": 220,
      "2012": 221,
      "eb": 222,
      "ep": 223,
      "ve": 224,
      "et": 225,
      "ir": 226,
      "2019": 227,
      "ut": 228,
      "our": 229,
      "with": 230,
      "est": 231,
      "In": 232,
      "one": 233,
      "New": 234,
      "Ap": 235,
      "2016": 236,
      "2015": 237,
      "June": 238,
      "ce": 239,
      "Music": 240,
      "cor": 241,
      "ward": 242,
      "19": 243,
      "oll": 244,
      "ul": 245,
      "ept": 246,
      "Mar": 247,
      "Feb": 248,
      ",[": 249,
      "May": 250,
      "ruary": 251,
      "February": 252,
      "Ch": 253,
      "ak": 254,
      "od": 255,
      "os": 256,
      "ril": 257,
      "April": 258,
      "Am": 259,
      "Sept": 260,
      "cord": 261,
      "September": 262,
      "album": 263,
      "Award": 264,
      "sing": 265,
      "il": 266,
      "Jan": 267,
      "try": 268,
      "January": 269,
      "13": 270,
      "ountry": 271,
      "oc": 272,
      "21": 273,
      "pr": 274,
      "March": 275,
      "She": 276,
      "ag": 277,
      "Al": 278,
      "writ": 279,
      "Tim": 280,
      "ter": 281,
      "ia": 282,
      "song": 283,
      "23": 284,
      "ap": 285,
      "music": 286,
      "18": 287,
      "An": 288,
      "ee": 289,
      "2017": 290,
      "ive": 291,
      "24": 292,
      "ian": 293,
      "eric": 294,
      "Americ": 295,
      "12": 296,
      "was": 297,
      "17": 298,
      "22": 299,
      "by": 300,
      "lo": 301,
      "ain": 302,
      "se": 303,
      "she": 304,
      "ts": 305,
      "14": 306,
      "igh": 307,
      "American": 308,
      "11": 309,
      "2014": 310,
      "end": 311,
      "ith": 312,
      "un": 313,
      "ver": 314,
      "Gr": 315,
      "hi": 316,
      "ld": 317,
      "ost": 318,
      "00": 319,
      "ab": 320,
      "og": 321,
      "15": 322,
      "Sp": 323,
      "irst": 324,
      "26": 325,
      "29": 326,
      "Tour": 327,
      "Year": 328,
      "su": 329,
      "Awards": 330,
      "25": 331,
      "27": 332,
      "Song": 333,
      "ie": 334,
      "man": 335,
      "ud": 336,
      "ide": 337,
      "con": 338,
      "30": 339,
      "all": 340,
      "Roll": 341,
      "2013": 342,
      "2018": 343,
      "Record": 344,
      "ated": 345,
      "be": 346,
      "ex": 347,
      "enn": 348,
      "over": 349,
      "Stone": 350,
      "ine": 351,
      "2010": 352,
      "Rolling": 353,
      "\",": 354,
      "Is": 355,
      "vi": 356,
      "ork": 357,
      "2024": 358,
      "pop": 359,
      "artist": 360,
      "ack": 361,
      "2009": 362,
      "Album": 363,
      "Her": 364,
      "per": 365,
      "ory": 366,
      "16": 367,
      "Country": 368,
      "are": 369,
      "ast": 370,
      "com": 371,
      "if": 372,
      "100": 373,
      "As": 374,
      "ore": 375,
      "that": 376,
      "28": 377,
      "has": 378,
      "av": 379,
      "ther": 380,
      "ash": 381,
      "illion": 382,
      "first": 383,
      "my": 384,
      "ect": 385,
      "ideo": 386,
      "iv": 387,
      "te": 388,
      "uc": 389,
      "orld": 390,
      "ate": 391,
      "rec": 392,
      "ame": 393,
      "act": 394,
      "eek": 395,
      "Jo": 396,
      "cl": 397,
      "ity": 398,
      "view": 399,
      "MT": 400,
      "country": 401,
      "pl": 402,
      "2011": 403,
      "Time": 404,
      "With": 405,
      "All": 406,
      "US": 407,
      "Wh": 408,
      "ies": 409,
      "Art": 410,
      "leas": 411,
      "form": 412,
      "News": 413,
      "Th": 414,
      "sp": 415,
      "Artist": 416,
      "ik": 417,
      "als": 418,
      "Rep": 419,
      "Chart": 420,
      "'\".": 421,
      "York": 422,
      "Er": 423,
      "bl": 424,
      "ro": 425,
      "vill": 426,
      "whi": 427,
      "Con": 428,
      "For": 429,
      "Hot": 430,
      "You": 431,
      "gr": 432,
      "qu": 433,
      "\".[": 434,
      "record": 435,
      "out": 436,
      "ville": 437,
      "bec": 438,
      "eak": 439,
      "ff": 440,
      "iz": 441,
      "les": 442,
      "releas": 443,
      "ult": 444,
      "albums": 445,
      "songwrit": 446,
      "Songwrit": 447,
      "89": 448,
      "Sh": 449,
      "Video": 450,
      "cer": 451,
      "ort": 452,
      "umber": 453,
      "ritic": 454,
      "31": 455,
      "Best": 456,
      "Gre": 457,
      "No": 458,
      "ell": 459,
      "ial": 460,
      "ry": 461,
      "ream": 462,
      "ammy": 463,
      "2008": 464,
      "which": 465,
      "Mc": 466,
      "Nash": 467,
      "ave": 468,
      "de": 469,
      "ale": 470,
      "ris": 471,
      "ade": 472,
      "ound": 473,
      "Times": 474,
      "Grammy": 475,
      "Eras": 476,
      "Nashville": 477,
      "En": 478,
      "Gu": 479,
      "Now": 480,
      "Week": 481,
      "io": 482,
      "most": 483,
      "more": 484,
      "million": 485,
      "number": 486,
      "inn": 487,
      "edia": 488,
      "ick": 489,
      "own": 490,
      "age": 491,
      "aph": 492,
      "World": 493,
      "ach": 494,
      "ual": 495,
      "year": 496,
      "top": 497,
      "old": 498,
      "1989": 499,
      "ilm": 500,
      "Top": 501,
      "less": 502,
      "ant": 503,
      "tour": 504,
      "ous": 505,
      "ight": 506,
      "Big": 507,
      "Red": 508,
      "tim": 509,
      "ure": 510,
      "ere": 511,
      "ind": 512,
      "ark": 513,
      "any": 514,
      "ree": 515,
      "ish": 516,
      "utation": 517,
      "Ac": 518,
      "eop": 519,
      "ans": 520,
      "erson": 521,
      "songs": 522,
      "Reputation": 523,
      "Pop": 524,
      "Tr": 525,
      "Will": 526,
      "aul": 527,
      "ces": 528,
      "wom": 529,
      "ome": 530,
      "emale": 531,
      "its": 532,
      "ations": 533,
      "single": 534,
      "eople": 535,
      "ais": 536,
      "bes": 537,
      "eat": 538,
      "fi": 539,
      "ok": 540,
      "soc": 541,
      "ubl": 542,
      "wo": 543,
      "ari": 544,
      "ann": 545,
      "ley": 546,
      "ents": 547,
      "ersion": 548,
      "olk": 549,
      "000": 550,
      "Pr": 551,
      "Un": 552,
      "ah": 553,
      "di": 554,
      "gh": 555,
      "won": 556,
      "ang": 557,
      "ank": 558,
      "ign": 559,
      "ights": 560,
      "released": 561,
      "Tenn": 562,
      "Version": 563,
      "critic": 564,
      "gest": 565,
      "sh": 566,
      "yn": 567,
      "ins": 568,
      "fter": 569,
      "ice": 570,
      "ions": 571,
      "ists": 572,
      "idn": 573,
      "earless": 574,
      "ote": 575,
      "rect": 576,
      "Tenness": 577,
      "Ever": 578,
      "Fearless": 579,
      "How": 580,
      "It": 581,
      "Me": 582,
      "ai": 583,
      "co": 584,
      "gen": 585,
      "sa": 586,
      "up": 587,
      "wh": 588,
      "ance": 589,
      "istory": 590,
      "ogr": 591,
      "cert": 592,
      "50": 593,
      "Br": 594,
      "Midn": 595,
      "To": 596,
      "ev": 597,
      "ip": 598,
      "ment": 599,
      "hest": 600,
      "ric": 601,
      "star": 602,
      "ighest": 603,
      "new": 604,
      "ety": 605,
      "ock": 606,
      "Bl": 607,
      "Glo": 608,
      "Lover": 609,
      "Ph": 610,
      "Sing": 611,
      "Vari": 612,
      "bal": 613,
      "fl": 614,
      "have": 615,
      "tain": 616,
      "ays": 617,
      "ebut": 618,
      "oduc": 619,
      "Speak": 620,
      "ext": 621,
      "clud": 622,
      "MTV": 623,
      "Forbes": 624,
      "soci": 625,
      "Midnights": 626,
      "At": 627,
      "aw": 628,
      "don": 629,
      "des": 630,
      "yl": 631,
      "includ": 632,
      "chart": 633,
      "att": 634,
      "ite": 635,
      "eld": 636,
      "Chris": 637,
      "Ann": 638,
      "Associ": 639,
      "also": 640,
      "ograph": 641,
      "40": 642,
      "CMT": 643,
      "Ke": 644,
      "Ro": 645,
      "ond": 646,
      "stream": 647,
      "omin": 648,
      "And": 649,
      "Tennessee": 650,
      "Blo": 651,
      "Jon": 652,
      "gan": 653,
      "other": 654,
      "ales": 655,
      "ens": 656,
      "ence": 657,
      "lore": 658,
      "ass": 659,
      "itar": 660,
      "ake": 661,
      "Records": 662,
      "became": 663,
      "Great": 664,
      "Variety": 665,
      "Keith": 666,
      "Bo": 667,
      "cent": 668,
      "do": 669,
      "ele": 670,
      "four": 671,
      "film": 672,
      "gu": 673,
      "list": 674,
      "res": 675,
      "ania": 676,
      "Review": 677,
      "amed": 678,
      "ustry": 679,
      "oss": 680,
      "ians": 681,
      "und": 682,
      "ike": 683,
      "direct": 684,
      "Association": 685,
      "44": 686,
      "BC": 687,
      "Be": 688,
      "Ed": 689,
      "Ex": 690,
      "Folk": 691,
      "Har": 692,
      "On": 693,
      "Wik": 694,
      "az": 695,
      "but": 696,
      "ever": 697,
      "fer": 698,
      "highest": 699,
      "ph": 700,
      "hel": 701,
      "ates": 702,
      "ardian": 703,
      "2007": 704,
      "Inter": 705,
      "produc": 706,
      "sub": 707,
      "artists": 708,
      "Guardian": 709,
      "First": 710,
      "Le": 711,
      "People": 712,
      "dis": 713,
      "female": 714,
      "oft": 715,
      "port": 716,
      "rece": 717,
      "reak": 718,
      "ower": 719,
      "ational": 720,
      "Ind": 721,
      "app": 722,
      "hip": 723,
      "udio": 724,
      "perform": 725,
      "areer": 726,
      "Songwriter": 727,
      "help": 728,
      "33": 729,
      "Cr": 730,
      "De": 731,
      "Dai": 732,
      "Mon": 733,
      "day": 734,
      "een": 735,
      "ge": 736,
      "ix": 737,
      "not": 738,
      "two": 739,
      "voc": 740,
      "were": 741,
      "ors": 742,
      "cho": 743,
      "rel": 744,
      "ough": 745,
      "use": 746,
      "ital": 747,
      "forman": 748,
      "open": 749,
      "adem": 750,
      "track": 751,
      "singer": 752,
      "singles": 753,
      "Recording": 754,
      "Songwriters": 755,
      "field": 756,
      "flu": 757,
      "Folklore": 758,
      ")\".": 759,
      "56": 760,
      "57": 761,
      "Cl": 762,
      "Car": 763,
      "Com": 764,
      "List": 765,
      "Wom": 766,
      "cess": 767,
      "feat": 768,
      "gel": 769,
      "ple": 770,
      "iness": 771,
      "ony": 772,
      "off": 773,
      "ional": 774,
      "ove": 775,
      "usiness": 776,
      "ney": 777,
      "urn": 778,
      "uring": 779,
      "Star": 780,
      "ets": 781,
      "Spot": 782,
      "ify": 783,
      "Willman": 784,
      "ublic": 785,
      "ography": 786,
      "guitar": 787,
      "),[": 788,
      "37": 789,
      "39": 790,
      "49": 791,
      "58": 792,
      "59": 793,
      "Brit": 794,
      "Caul": 795,
      "Em": 796,
      "History": 797,
      "Los": 798,
      "Off": 799,
      "West": 800,
      "ium": 801,
      "nal": 802,
      "por": 803,
      "world": 804,
      "ative": 805,
      "ement": 806,
      "ings": 807,
      "thr": 808,
      "this": 809,
      "Story": 810,
      "etter": 811,
      "tertain": 812,
      "Angel": 813,
      "play": 814,
      "What": 815,
      "Entertain": 816,
      "inners": 817,
      "women": 818,
      "Global": 819,
      "including": 820,
      "chool": 821,
      "Caulfield": 822,
      "),": 823,
      "Aust": 824,
      "Debut": 825,
      "Gary": 826,
      "Most": 827,
      "Mach": 828,
      "Sc": 829,
      "So": 830,
      "Vo": 831,
      "aid": 832,
      "after": 833,
      "cr": 834,
      "cri": 835,
      "career": 836,
      "ived": 837,
      "ift": 838,
      "lat": 839,
      "mak": 840,
      "ood": 841,
      "ral": 842,
      "rote": 843,
      "work": 844,
      "yle": 845,
      "ina": 846,
      "into": 847,
      "influ": 848,
      "onor": 849,
      "review": 850,
      "three": 851,
      "ady": 852,
      "concert": 853,
      "been": 854,
      "ives": 855,
      "Joe": 856,
      "songwriter": 857,
      "woman": 858,
      "Evermore": 859,
      "donated": 860,
      "received": 861,
      "Daily": 862,
      "Spotify": 863,
      "Angeles": 864,
      "Machine": 865,
      "36": 866,
      "46": 867,
      "47": 868,
      ";[": 869,
      "Break": 870,
      "Do": 871,
      "El": 872,
      "Film": 873,
      "He": 874,
      "Has": 875,
      "ME": 876,
      "Per": 877,
      "Penn": 878,
      "Ros": 879,
      "Tod": 880,
      "We": 881,
      "ced": 882,
      "che": 883,
      "call": 884,
      "ccess": 885,
      "ful": 886,
      "ger": 887,
      "had": 888,
      "land": 889,
      "mon": 890,
      "named": 891,
      "so": 892,
      "sec": 893,
      "sign": 894,
      "syl": 895,
      "ting": 896,
      "video": 897,
      "vania": 898,
      "we": 899,
      "week": 900,
      "wrote": 901,
      "ered": 902,
      "ink": 903,
      "rian": 904,
      "str": 905,
      "studio": 906,
      "ism": 907,
      "ited": 908,
      "ired": 909,
      "olly": 910,
      "success": 911,
      "ife": 912,
      "Academ": 913,
      "Trust": 914,
      "Pennsyl": 915,
      "Today": 916,
      "Academy": 917,
      "Pennsylvania": 918,
      ".\"": 919,
      "38": 920,
      "48": 921,
      "After": 922,
      "Coll": 923,
      "My": 924,
      "Mov": 925,
      "Up": 926,
      "br": 927,
      "bed": 928,
      "ble": 929,
      "light": 930,
      "made": 931,
      "media": 932,
      "pri": 933,
      "person": 934,
      "rem": 935,
      "rock": 936,
      "sound": 937,
      "sales": 938,
      "ton": 939,
      "ue": 940,
      "youn": 941,
      "hen": 942,
      "rist": 943,
      "ene": 944,
      "ision": 945,
      "ured": 946,
      "ural": 947,
      "acc": 948,
      "ace": 949,
      "ollow": 950,
      "ular": 951,
      "pres": 952,
      "prais": 953,
      "sell": 954,
      "endoft": 955,
      "abel": 956,
      "about": 957,
      "Songs": 958,
      "aster": 959,
      "ivers": 960,
      "Why": 961,
      "Charts": 962,
      "ized": 963,
      "songwriters": 964,
      "gener": 965,
      "descri": 966,
      "Austral": 967,
      "endoftext": 968,
      "45": 969,
      "?\".": 970,
      "BBC": 971,
      "Co": 972,
      "Can": 973,
      "Dis": 974,
      "Fr": 975,
      "From": 976,
      "Female": 977,
      "Lyn": 978,
      "One": 979,
      "Post": 980,
      "Person": 981,
      "Paul": 982,
      "Tog": 983,
      "award": 984,
      "cography": 985,
      "ey": 986,
      "hn": 987,
      "ire": 988,
      "ject": 989,
      "me": 990,
      "people": 991,
      "ven": 992,
      "rig": 993,
      "ath": 994,
      "igital": 995,
      "ical": 996,
      "than": 997,
      "illenn": 998,
      "itch": 999,
      "ames": 1000,
      "adio": 1001,
      "ident": 1002,
      "2006": 1003,
      "able": 1004,
      "sup": 1005,
      "performan": 1006,
      "John": 1007,
      "USA": 1008,
      "recorded": 1009,
      "songwriting": 1010,
      "Weekly": 1011,
      "industry": 1012,
      "Univers": 1013,
      "Annual": 1014,
      "Greatest": 1015,
      "Debuts": 1016,
      "':": 1017,
      "60": 1018,
      "Ab": 1019,
      "Critic": 1020,
      "Don": 1021,
      "Gold": 1022,
      "Jour": 1023,
      "Kany": 1024,
      "MA": 1025,
      "More": 1026,
      "Media": 1027,
      "Our": 1028,
      "Over": 1029,
      "Qu": 1030,
      "Sam": 1031,
      "Well": 1032,
      "ban": 1033,
      "five": 1034,
      "history": 1035,
      "ied": 1036,
      "ich": 1037,
      "jo": 1038,
      "like": 1039,
      "main": 1040,
      "ner": 1041,
      "ned": 1042,
      "nomin": 1043,
      "pre": 1044,
      "prom": 1045,
      "pect": 1046,
      "sur": 1047,
      "sel": 1048,
      "turn": 1049,
      "ull": 1050,
      "inter": 1051,
      "their": 1052,
      "ata": 1053,
      "atch": 1054,
      "ather": 1055,
      "ences": 1056,
      "ould": 1057,
      "lyric": 1058,
      "iss": 1059,
      "here": 1060,
      "adium": 1061,
      "ott": 1062,
      "eting": 1063,
      "Christ": 1064,
      "ossing": 1065,
      "musicians": 1066,
      "comm": 1067,
      "teen": 1068,
      "That": 1069,
      "Yorker": 1070,
      "grossing": 1071,
      "ultural": 1072,
      "McC": 1073,
      "years": 1074,
      "Biggest": 1075,
      "time": 1076,
      "critics": 1077,
      "istsAmerican": 1078,
      "said": 1079,
      "who": 1080,
      "Rob": 1081,
      "Entertainment": 1082,
      "called": 1083,
      "Critics": 1084,
      "Kanye": 1085,
      "lyrics": 1086,
      "35": 1087,
      "97": 1088,
      "AI": 1089,
      "Bec": 1090,
      "Business": 1091,
      "Dan": 1092,
      "Day": 1093,
      "Fa": 1094,
      "Fame": 1095,
      "La": 1096,
      "Live": 1097,
      "Man": 1098,
      "Mak": 1099,
      "NP": 1100,
      "Ne": 1101,
      "Pri": 1102,
      "Part": 1103,
      "Tom": 1104,
      "Tele": 1105,
      "ael": 1106,
      "dr": 1107,
      "debut": 1108,
      "folk": 1109,
      "gl": 1110,
      "glo": 1111,
      "how": 1112,
      "honor": 1113,
      "ily": 1114,
      "kn": 1115,
      "label": 1116,
      "mark": 1117,
      "ning": 1118,
      "oice": 1119,
      "ps": 1120,
      "pos": 1121,
      "son": 1122,
      "six": 1123,
      "ty": 1124,
      "tion": 1125,
      "ub": 1126,
      "vers": 1127,
      "win": 1128,
      "orn": 1129,
      "them": 1130,
      "alk": 1131,
      "emot": 1132,
      "ics": 1133,
      "icial": 1134,
      "reach": 1135,
      "thing": 1136,
      "lead": 1137,
      "ument": 1138,
      "opies": 1139,
      "ention": 1140,
      "Decade": 1141,
      "tra": 1142,
      "trans": 1143,
      "Apple": 1144,
      "ody": 1145,
      "singers": 1146,
      "again": 1147,
      "abor": 1148,
      "began": 1149,
      "Albums": 1150,
      "ection": 1151,
      "Artists": 1152,
      "graph": 1153,
      "McGr": 1154,
      "ublish": 1155,
      "anged": 1156,
      "anked": 1157,
      "what": 1158,
      "Too": 1159,
      "Phil": 1160,
      "Blog": 1161,
      "under": 1162,
      "Interview": 1163,
      "opened": 1164,
      "Woman": 1165,
      "making": 1166,
      "support": 1167,
      "Golden": 1168,
      "NPR": 1169,
      "Are": 1170,
      "Back": 1171,
      "Cat": 1172,
      "Di": 1173,
      "Ear": 1174,
      "Ge": 1175,
      "Gen": 1176,
      "Hall": 1177,
      "Hann": 1178,
      "Love": 1179,
      "Mor": 1180,
      "Mal": 1181,
      "MAs": 1182,
      "Million": 1183,
      "National": 1184,
      "NME": 1185,
      "Op": 1186,
      "Orig": 1187,
      "Power": 1188,
      "Sales": 1189,
      "School": 1190,
      "Ur": 1191,
      "Watch": 1192,
      "au": 1193,
      "billion": 1194,
      "copies": 1195,
      "fe": 1196,
      "fans": 1197,
      "ges": 1198,
      "ling": 1199,
      "mother": 1200,
      "millenn": 1201,
      "par": 1202,
      "part": 1203,
      "pact": 1204,
      "peak": 1205,
      "rais": 1206,
      "sc": 1207,
      "sid": 1208,
      "some": 1209,
      "ten": 1210,
      "winners": 1211,
      "insp": 1212,
      "anc": 1213,
      "story": 1214,
      "wit": 1215,
      "wide": 1216,
      "Read": 1217,
      "enced": 1218,
      "ica": 1219,
      "reat": 1220,
      "oust": 1221,
      "ectr": 1222,
      "ison": 1223,
      "ury": 1224,
      "acy": 1225,
      "Stadium": 1226,
      "olo": 1227,
      "olit": 1228,
      "essions": 1229,
      "ocal": 1230,
      "writing": 1231,
      "musician": 1232,
      "ively": 1233,
      "America": 1234,
      "sex": 1235,
      "such": 1236,
      "ief": 1237,
      "contr": 1238,
      "exp": 1239,
      "aste": 1240,
      "ified": 1241,
      "tell": 1242,
      "release": 1243,
      "ulture": 1244,
      "Press": 1245,
      "streaming": 1246,
      "Andre": 1247,
      "century": 1248,
      "Industry": 1249,
      "Official": 1250,
      "Scott": 1251,
      "Vox": 1252,
      "cred": 1253,
      "second": 1254,
      "selling": 1255,
      "described": 1256,
      "performances": 1257,
      "Telegraph": 1258,
      "posit": 1259,
      "Geor": 1260,
      "Hannah": 1261,
      "\"'": 1262,
      "55": 1263,
      "Bad": 1264,
      "Bel": 1265,
      "Brian": 1266,
      "Cal": 1267,
      "Dav": 1268,
      "High": 1269,
      "IS": 1270,
      "Jack": 1271,
      "Kat": 1272,
      "Long": 1273,
      "Mel": 1274,
      "Mich": 1275,
      "Of": 1276,
      "Out": 1277,
      "Pe": 1278,
      "Pro": 1279,
      "Pitch": 1280,
      "RI": 1281,
      "Sar": 1282,
      "Sony": 1283,
      "Tri": 1284,
      "Taste": 1285,
      "ax": 1286,
      "bur": 1287,
      "brit": 1288,
      "back": 1289,
      "bro": 1290,
      "better": 1291,
      "can": 1292,
      "ein": 1293,
      "go": 1294,
      "ha": 1295,
      "iqu": 1296,
      "just": 1297,
      "lit": 1298,
      "mer": 1299,
      "mov": 1300,
      "mod": 1301,
      "ped": 1302,
      "public": 1303,
      "radio": 1304,
      "ser": 1305,
      "tt": 1306,
      "vision": 1307,
      "voice": 1308,
      "way": 1309,
      "wins": 1310,
      "you": 1311,
      "yles": 1312,
      "inv": 1313,
      "ined": 1314,
      "hes": 1315,
      "ars": 1316,
      "ana": 1317,
      "stage": 1318,
      "fth": 1319,
      "berg": 1320,
      "atop": 1321,
      "ements": 1322,
      "lle": 1323,
      "ict": 1324,
      ").[": 1325,
      "reg": 1326,
      "ased": 1327,
      "child": 1328,
      "ects": 1329,
      "fork": 1330,
      "oper": 1331,
      "amp": 1332,
      "tress": 1333,
      "idata": 1334,
      "urther": 1335,
      "artney": 1336,
      "acle": 1337,
      "Stand": 1338,
      "epend": 1339,
      "ute": 1340,
      "utz": 1341,
      "utive": 1342,
      "Musicians": 1343,
      "21st": 1344,
      "write": 1345,
      "musical": 1346,
      "ender": 1347,
      "Years": 1348,
      "popular": 1349,
      "avor": 1350,
      "formation": 1351,
      "Const": 1352,
      "Guinn": 1353,
      "fifth": 1354,
      "Edit": 1355,
      "Wikidata": 1356,
      "appear": 1357,
      "performed": 1358,
      "performing": 1359,
      "vocal": 1360,
      "vocals": 1361,
      "through": 1362,
      ".\"[": 1363,
      "Movie": 1364,
      "youngest": 1365,
      "praised": 1366,
      "Australia": 1367,
      "Lynch": 1368,
      "Universal": 1369,
      "promot": 1370,
      "self": 1371,
      "McCartney": 1372,
      "global": 1373,
      "McGraw": 1374,
      "Reading": 1375,
      "Belong": 1376,
      "Michael": 1377,
      "Pitchfork": 1378,
      "Guinness": 1379,
      "34": 1380,
      "80": 1381,
      "Ad": 1382,
      "Ale": 1383,
      "Bro": 1384,
      "Card": 1385,
      "City": 1386,
      "Cele": 1387,
      "Down": 1388,
      "Dolly": 1389,
      "Get": 1390,
      "Hel": 1391,
      "Icon": 1392,
      "Lo": 1393,
      "Liz": 1394,
      "Life": 1395,
      "Made": 1396,
      "Miss": 1397,
      "Nick": 1398,
      "Named": 1399,
      "Po": 1400,
      "Poll": 1401,
      "Ri": 1402,
      "Sm": 1403,
      "Sex": 1404,
      "Says": 1405,
      "Win": 1406,
      "Wall": 1407,
      "Winners": 1408,
      "aim": 1409,
      "ause": 1410,
      "bri": 1411,
      "big": 1412,
      "best": 1413,
      "business": 1414,
      "cal": 1415,
      "cat": 1416,
      "cover": 1417,
      "cultural": 1418,
      "dated": 1419,
      "domin": 1420,
      "digital": 1421,
      "ef": 1422,
      "ether": 1423,
      "follow": 1424,
      "full": 1425,
      "father": 1426,
      "his": 1427,
      "high": 1428,
      "ky": 1429,
      "ker": 1430,
      "ler": 1431,
      "lin": 1432,
      "led": 1433,
      "live": 1434,
      "line": 1435,
      "life": 1436,
      "note": 1437,
      "national": 1438,
      "oot": 1439,
      "pany": 1440,
      "pass": 1441,
      "power": 1442,
      "sin": 1443,
      "sold": 1444,
      "tem": 1445,
      "tany": 1446,
      "uk": 1447,
      "vide": 1448,
      "wor": 1449,
      "would": 1450,
      "yd": 1451,
      "int": 1452,
      "head": 1453,
      "anthr": 1454,
      "ally": 1455,
      "alent": 1456,
      "alog": 1457,
      "ality": 1458,
      "styles": 1459,
      "ating": 1460,
      "atus": 1461,
      "ature": 1462,
      "omes": 1463,
      "icle": 1464,
      "oup": 1465,
      "ouse": 1466,
      "ason": 1467,
      "ford": 1468,
      "ades": 1469,
      "ented": 1470,
      "Billion": 1471,
      "idd": 1472,
      "urch": 1473,
      "ures": 1474,
      "Stream": 1475,
      "early": 1476,
      "olog": 1477,
      "Inc": 1478,
      "oney": 1479,
      "ose": 1480,
      "ility": 1481,
      "ocument": 1482,
      "pro": 1483,
      "prof": 1484,
      "ained": 1485,
      "sequ": 1486,
      "ended": 1487,
      "ending": 1488,
      "peri": 1489,
      "come": 1490,
      "aving": 1491,
      "White": 1492,
      "Short": 1493,
      "Engl": 1494,
      "Tops": 1495,
      "antic": 1496,
      "ationship": 1497,
      "oks": 1498,
      "wood": 1499,
      "anna": 1500,
      "show": 1501,
      "sault": 1502,
      "ipedia": 1503,
      "Pho": 1504,
      "Singer": 1505,
      "Blood": 1506,
      "Harris": 1507,
      "Wikipedia": 1508,
      "every": 1509,
      "discography": 1510,
      "Dead": 1511,
      "Mont": 1512,
      "noted": 1513,
      "Women": 1514,
      "Brittany": 1515,
      "Emmy": 1516,
      "worked": 1517,
      "influenced": 1518,
      "Heart": 1519,
      "soundtrack": 1520,
      "generation": 1521,
      "Canad": 1522,
      "Together": 1523,
      "awards": 1524,
      "About": 1525,
      "Journal": 1526,
      "Makes": 1527,
      "Parton": 1528,
      "emotional": 1529,
      "trait": 1530,
      "ublishing": 1531,
      "Original": 1532,
      "millennial": 1533,
      "inspired": 1534,
      "George": 1535,
      "ependent": 1536,
      "Alex": 1537,
      "Pollstar": 1538,
      "anthrop": 1539,
      "English": 1540,
      "\",[": 1541,
      ")'": 1542,
      ",'": 1543,
      "500": 1544,
      "79": 1545,
      "AA": 1546,
      "AT": 1547,
      "Ag": 1548,
      "BN": 1549,
      "CD": 1550,
      "Flat": 1551,
      "Further": 1552,
      "Hill": 1553,
      "Highest": 1554,
      "Holly": 1555,
      "Im": 1556,
      "Its": 1557,
      "James": 1558,
      "Jason": 1559,
      "Kn": 1560,
      "Kell": 1561,
      "Like": 1562,
      "Mo": 1563,
      "Mu": 1564,
      "Mat": 1565,
      "Pl": 1566,
      "Paid": 1567,
      "Pict": 1568,
      "Rand": 1569,
      "Ras": 1570,
      "Sl": 1571,
      "Sch": 1572,
      "Sur": 1573,
      "Sound": 1574,
      "Sign": 1575,
      "Sessions": 1576,
      "UK": 1577,
      "Us": 1578,
      "Van": 1579,
      "Writ": 1580,
      "Were": 1581,
      "ail": 1582,
      "aun": 1583,
      "aud": 1584,
      "ded": 1585,
      "during": 1586,
      "document": 1587,
      "flo": 1588,
      "gle": 1589,
      "ier": 1590,
      "ile": 1591,
      "ield": 1592,
      "liv": 1593,
      "ms": 1594,
      "met": 1595,
      "na": 1596,
      "nd": 1597,
      "ran": 1598,
      "set": 1599,
      "section": 1600,
      "uel": 1601,
      "vin": 1602,
      "vic": 1603,
      "vel": 1604,
      "vate": 1605,
      "wyn": 1606,
      "where": 1607,
      "ym": 1608,
      "era": 1609,
      "ern": 1610,
      "orter": 1611,
      "information": 1612,
      "only": 1613,
      "arr": 1614,
      "arity": 1615,
      "then": 1616,
      "they": 1617,
      "alth": 1618,
      "righ": 1619,
      "stin": 1620,
      "Releas": 1621,
      "omine": 1622,
      "ena": 1623,
      "entri": 1624,
      "emin": 1625,
      "tribut": 1626,
      "igan": 1627,
      "real": 1628,
      "ouble": 1629,
      "ase": 1630,
      "used": 1631,
      "Justin": 1632,
      "uments": 1633,
      "amous": 1634,
      "ister": 1635,
      "adel": 1636,
      "ides": 1637,
      "artment": 1638,
      "impact": 1639,
      "actress": 1640,
      "Stev": 1641,
      "Style": 1642,
      "earch": 1643,
      "earned": 1644,
      "eph": 1645,
      "ird": 1646,
      "irl": 1647,
      "Amy": 1648,
      "Among": 1649,
      "prov": 1650,
      "Sheff": 1651,
      "ages": 1652,
      "Alison": 1653,
      "tern": 1654,
      "apes": 1655,
      "sever": 1656,
      "Americana": 1657,
      "ends": 1658,
      "unt": 1659,
      "Grady": 1660,
      "Group": 1661,
      "sue": 1662,
      "250": 1663,
      "exec": 1664,
      "iffer": 1665,
      "ashing": 1666,
      "tele": 1667,
      "actor": 1668,
      "Joins": 1669,
      "claim": 1670,
      "Who": 1671,
      "former": 1672,
      "Than": 1673,
      "Reporter": 1674,
      "Concert": 1675,
      "grand": 1676,
      "gross": 1677,
      "become": 1678,
      "Green": 1679,
      "times": 1680,
      "arked": 1681,
      "annual": 1682,
      "criticized": 1683,
      "ynth": 1684,
      "Every": 1685,
      "aire": 1686,
      "genre": 1687,
      "certified": 1688,
      "Globe": 1689,
      "donates": 1690,
      "descent": 1691,
      "Announ": 1692,
      "Bob": 1693,
      "director": 1694,
      "producers": 1695,
      "helped": 1696,
      "relationship": 1697,
      "useum": 1698,
      "Emily": 1699,
      "Performan": 1700,
      "Rose": 1701,
      "Rosen": 1702,
      "signed": 1703,
      "Collabor": 1704,
      "present": 1705,
      "athan": 1706,
      "978": 1707,
      "supported": 1708,
      "Direct": 1709,
      "Malley": 1710,
      "Open": 1711,
      "Urban": 1712,
      "peaked": 1713,
      "David": 1714,
      "ISBN": 1715,
      "Sarah": 1716,
      "brity": 1717,
      "liter": 1718,
      "ampa": 1719,
      "avorite": 1720,
      "Constance": 1721,
      "Cardigan": 1722,
      "biggest": 1723,
      "since": 1724,
      "tempor": 1725,
      "Flatts": 1726,
      "Hollywood": 1727,
      "Rascal": 1728,
      "ominees": 1729,
      "Sheffield": 1730,
      "several": 1731,
      "\"\".": 1732,
      "):": 1733,
      "..": 1734,
      "54": 1735,
      "76": 1736,
      "90": 1737,
      "BT": 1738,
      "By": 1739,
      "Bar": 1740,
      "Bri": 1741,
      "Ben": 1742,
      "Beat": 1743,
      "Better": 1744,
      "CA": 1745,
      "Ca": 1746,
      "Cover": 1747,
      "CMA": 1748,
      "Des": 1749,
      "During": 1750,
      "Digital": 1751,
      "Ey": 1752,
      "Eric": 1753,
      "Elle": 1754,
      "Fe": 1755,
      "Fin": 1756,
      "Far": 1757,
      "Found": 1758,
      "Follow": 1759,
      "Famous": 1760,
      "Ger": 1761,
      "Good": 1762,
      "GBT": 1763,
      "Hor": 1764,
      "Hal": 1765,
      "Hug": 1766,
      "Have": 1767,
      "Honor": 1768,
      "ID": 1769,
      "IF": 1770,
      "Jim": 1771,
      "Jos": 1772,
      "King": 1773,
      "Li": 1774,
      "Lor": 1775,
      "Lou": 1776,
      "Luc": 1777,
      "Lip": 1778,
      "LGBT": 1779,
      "Main": 1780,
      "Make": 1781,
      "Museum": 1782,
      "NN": 1783,
      "Nor": 1784,
      "Nut": 1785,
      "Old": 1786,
      "Pay": 1787,
      "Pol": 1788,
      "Pain": 1789,
      "Publishing": 1790,
      "Ry": 1791,
      "Rom": 1792,
      "Se": 1793,
      "Sn": 1794,
      "Su": 1795,
      "Ser": 1796,
      "Sum": 1797,
      "Sil": 1798,
      "Spr": 1799,
      "See": 1800,
      "Some": 1801,
      "Sco": 1802,
      "Tu": 1803,
      "Tick": 1804,
      "Town": 1805,
      "Two": 1806,
      "VMAs": 1807,
      "Vocal": 1808,
      "Vulture": 1809,
      "Wy": 1810,
      "Wor": 1811,
      "When": 1812,
      "Washing": 1813,
      "Yah": 1814,
      "Ze": 1815,
      "Zack": 1816,
      "achi": 1817,
      "bon": 1818,
      "break": 1819,
      "based": 1820,
      "cus": 1821,
      "cour": 1822,
      "dem": 1823,
      "differ": 1824,
      "ean": 1825,
      "eve": 1826,
      "eff": 1827,
      "free": 1828,
      "fund": 1829,
      "gift": 1830,
      "great": 1831,
      "house": 1832,
      "having": 1833,
      "hanna": 1834,
      "iel": 1835,
      "ible": 1836,
      "jor": 1837,
      "ke": 1838,
      "ks": 1839,
      "lan": 1840,
      "long": 1841,
      "last": 1842,
      "ma": 1843,
      "mic": 1844,
      "mel": 1845,
      "mult": 1846,
      "master": 1847,
      "pe": 1848,
      "ping": 1849,
      "pian": 1850,
      "row": 1851,
      "ranked": 1852,
      "sch": 1853,
      "squ": 1854,
      "says": 1855,
      "school": 1856,
      "solo": 1857,
      "ti": 1858,
      "twi": 1859,
      "tit": 1860,
      "tick": 1861,
      "torn": 1862,
      "uce": 1863,
      "uff": 1864,
      "ves": 1865,
      "vte": 1866,
      "vice": 1867,
      "want": 1868,
      "when": 1869,
      "zan": 1870,
      "eran": 1871,
      "ertain": 1872,
      "ories": 1873,
      "intim": 1874,
      "instr": 1875,
      "edy": 1876,
      "eder": 1877,
      "onom": 1878,
      "onic": 1879,
      "ares": 1880,
      "ane": 1881,
      "anica": 1882,
      "ala": 1883,
      "stated": 1884,
      "steen": 1885,
      "style": 1886,
      "status": 1887,
      "wis": 1888,
      "Ready": 1889,
      "chn": 1890,
      "changed": 1891,
      "oming": 1892,
      "omberg": 1893,
      "ingsteen": 1894,
      "took": 1895,
      "ref": 1896,
      "assing": 1897,
      "leg": 1898,
      "overs": 1899,
      "lyn": 1900,
      "itor": 1901,
      "ities": 1902,
      "Their": 1903,
      "among": 1904,
      "amanica": 1905,
      "ado": 1906,
      "net": 1907,
      "entire": 1908,
      "entertain": 1909,
      "both": 1910,
      "article": 1911,
      "image": 1912,
      "Studio": 1913,
      "electr": 1914,
      "oter": 1915,
      "olades": 1916,
      "essional": 1917,
      "vey": 1918,
      "Insid": 1919,
      "cele": 1920,
      "Char": 1921,
      "Changed": 1922,
      "Amaz": 1923,
      "cording": 1924,
      "singing": 1925,
      "prem": 1926,
      "Sheeran": 1927,
      "agement": 1928,
      "Alwyn": 1929,
      "ape": 1930,
      "Anton": 1931,
      "Anti": 1932,
      "245": 1933,
      "iana": 1934,
      "Recorded": 1935,
      "2010s": 1936,
      "Here": 1937,
      "asters": 1938,
      "ectacle": 1939,
      "place": 1940,
      "This": 1941,
      "spent": 1942,
      "spot": 1943,
      "Republic": 1944,
      "role": 1945,
      "because": 1946,
      "Show": 1947,
      "ella": 1948,
      "ially": 1949,
      "McNut": 1950,
      "End": 1951,
      "Guitar": 1952,
      "inner": 1953,
      "touring": 1954,
      "ously": 1955,
      "social": 1956,
      "Prov": 1957,
      "anging": 1958,
      "anks": 1959,
      "shutz": 1960,
      "Tennessean": 1961,
      "Mean": 1962,
      "Brand": 1963,
      "Atl": 1964,
      "included": 1965,
      "attention": 1966,
      "streamed": 1967,
      "Bloomberg": 1968,
      "Boy": 1969,
      "doi": 1970,
      "fourth": 1971,
      "respect": 1972,
      "directors": 1973,
      "ferr": 1974,
      "phia": 1975,
      "International": 1976,
      "subject": 1977,
      "subsection": 1978,
      "Lewis": 1979,
      "often": 1980,
      "Independent": 1981,
      "relief": 1982,
      "Caramanica": 1983,
      "featuring": 1984,
      "featured": 1985,
      "guitaristsAmerican": 1986,
      "later": 1987,
      "working": 1988,
      "lighted": 1989,
      "prise": 1990,
      "private": 1991,
      "enef": 1992,
      "Australian": 1993,
      "Discography": 1994,
      "Toggle": 1995,
      "banjo": 1996,
      "mainstream": 1997,
      "nominated": 1998,
      "nominations": 1999,
      "Faith": 2000,
      "Laur": 2001,
      "Need": 2002,
      "know": 2003,
      "known": 2004,
      "alking": 2005,
      "reached": 2006,
      "Philadel": 2007,
      "ancy": 2008,
      "oustic": 2009,
      "sexual": 2010,
      "Andrew": 2011,
      "positions": 2012,
      "Project": 2013,
      "burg": 2014,
      "model": 2015,
      "Getting": 2016,
      "Look": 2017,
      "Rihanna": 2018,
      "Sexual": 2019,
      "catalog": 2020,
      "followed": 2021,
      "videos": 2022,
      "alentine": 2023,
      "Photo": 2024,
      "Montana": 2025,
      "Again": 2026,
      "documentary": 2027,
      "flood": 2028,
      "victim": 2029,
      "Release": 2030,
      "entries": 2031,
      "until": 2032,
      "executive": 2033,
      "television": 2034,
      "grossed": 2035,
      "Greenburg": 2036,
      "Performance": 2037,
      "Collaboration": 2038,
      "Foundation": 2039,
      "Following": 2040,
      "Lipshutz": 2041,
      "Ryan": 2042,
      "Summer": 2043,
      "Springsteen": 2044,
      "Washington": 2045,
      "different": 2046,
      "tornado": 2047,
      "entertainer": 2048,
      "Insider": 2049,
      "Amazon": 2050,
      "McNutt": 2051,
      "Philadelphia": 2052,
      "!\"": 2053,
      "!\".": 2054,
      ");[": 2055,
      "2nd": 2056,
      "310": 2057,
      "53": 2058,
      "63": 2059,
      "64": 2060,
      "67": 2061,
      "70": 2062,
      "72": 2063,
      "Au": 2064,
      "Aar": 2065,
      "Aly": 2066,
      "Air": 2067,
      "AMAs": 2068,
      "ARI": 2069,
      "BM": 2070,
      "Bor": 2071,
      "Bon": 2072,
      "Bur": 2073,
      "Cou": 2074,
      "Col": 2075,
      "Cour": 2076,
      "Call": 2077,
      "Career": 2078,
      "Cultural": 2079,
      "DF": 2080,
      "Dep": 2081,
      "Dream": 2082,
      "Dev": 2083,
      "Eag": 2084,
      "Equ": 2085,
      "Easter": 2086,
      "Fri": 2087,
      "Four": 2088,
      "Five": 2089,
      "Feat": 2090,
      "Fund": 2091,
      "Fift": 2092,
      "Fire": 2093,
      "Favorite": 2094,
      "Gl": 2095,
      "Go": 2096,
      "Gard": 2097,
      "Gil": 2098,
      "Girl": 2099,
      "Hi": 2100,
      "Hend": 2101,
      "Home": 2102,
      "Haz": 2103,
      "Houst": 2104,
      "Huff": 2105,
      "Jody": 2106,
      "Kre": 2107,
      "Kenn": 2108,
      "Kah": 2109,
      "Knew": 2110,
      "Kau": 2111,
      "Lee": 2112,
      "Last": 2113,
      "Lav": 2114,
      "Lives": 2115,
      "Lars": 2116,
      "MM": 2117,
      "Mom": 2118,
      "Mit": 2119,
      "Mad": 2120,
      "Mart": 2121,
      "Mine": 2122,
      "Max": 2123,
      "NY": 2124,
      "Or": 2125,
      "Other": 2126,
      "Pat": 2127,
      "Pow": 2128,
      "Pond": 2129,
      "Public": 2130,
      "PDF": 2131,
      "RA": 2132,
      "Ring": 2133,
      "Row": 2134,
      "Rania": 2135,
      "Radio": 2136,
      "Ranked": 2137,
      "RCA": 2138,
      "Sen": 2139,
      "Set": 2140,
      "Sour": 2141,
      "Scor": 2142,
      "Slo": 2143,
      "Sav": 2144,
      "Sup": 2145,
      "Solo": 2146,
      "Strait": 2147,
      "Te": 2148,
      "Tort": 2149,
      "Teen": 2150,
      "Talk": 2151,
      "Twit": 2152,
      "Vi": 2153,
      "Ver": 2154,
      "Vis": 2155,
      "Valentine": 2156,
      "Wins": 2157,
      "Winner": 2158,
      "air": 2159,
      "aff": 2160,
      "bre": 2161,
      "bel": 2162,
      "bie": 2163,
      "benef": 2164,
      "car": 2165,
      "coll": 2166,
      "cup": 2167,
      "ds": 2168,
      "dy": 2169,
      "der": 2170,
      "dec": 2171,
      "det": 2172,
      "down": 2173,
      "dub": 2174,
      "eg": 2175,
      "eh": 2176,
      "fri": 2177,
      "fre": 2178,
      "fam": 2179,
      "fel": 2180,
      "fman": 2181,
      "get": 2182,
      "gia": 2183,
      "hop": 2184,
      "host": 2185,
      "home": 2186,
      "hley": 2187,
      "ior": 2188,
      "ius": 2189,
      "ient": 2190,
      "iver": 2191,
      "jet": 2192,
      "jour": 2193,
      "li": 2194,
      "lay": 2195,
      "love": 2196,
      "local": 2197,
      "masters": 2198,
      "narr": 2199,
      "po": 2200,
      "post": 2201,
      "paid": 2202,
      "pute": 2203,
      "purch": 2204,
      "run": 2205,
      "rare": 2206,
      "sk": 2207,
      "say": 2208,
      "ses": 2209,
      "sim": 2210,
      "ssa": 2211,
      "ship": 2212,
      "scr": 2213,
      "synth": 2214,
      "ted": 2215,
      "ties": 2216,
      "ued": 2217,
      "ues": 2218,
      "ule": 2219,
      "vis": 2220,
      "vol": 2221,
      "vari": 2222,
      "wn": 2223,
      "ways": 2224,
      "xt": 2225,
      "yet": 2226,
      "za": 2227,
      "zo": 2228,
      "eras": 2229,
      "ines": 2230,
      "incor": 2231,
      "once": 2232,
      "onna": 2233,
      "aren": 2234,
      "anos": 2235,
      "ants": 2236,
      "ald": 2237,
      "aland": 2238,
      "ston": 2239,
      "stand": 2240,
      "start": 2241,
      "stud": 2242,
      "stein": 2243,
      "Rel": 2244,
      "Rece": 2245,
      "Refer": 2246,
      "Return": 2247,
      "bert": 2248,
      "ater": 2249,
      "ators": 2250,
      "omis": 2251,
      "esAmerican": 2252,
      "enzan": 2253,
      "emp": 2254,
      "ems": 2255,
      "ands": 2256,
      "repr": 2257,
      "though": 2258,
      "third": 2259,
      "econom": 2260,
      "lear": 2261,
      "uses": 2262,
      "ise": 2263,
      "issa": 2264,
      "ition": 2265,
      "They": 2266,
      "umul": 2267,
      "fore": 2268,
      "forts": 2269,
      "herself": 2270,
      "opolit": 2271,
      "need": 2272,
      "next": 2273,
      "ential": 2274,
      "trav": 2275,
      "troduc": 2276,
      "uro": 2277,
      "ime": 2278,
      "accom": 2279,
      "acoustic": 2280,
      "Ston": 2281,
      "Stre": 2282,
      "Stud": 2283,
      "Store": 2284,
      "1080": 2285,
      "ears": 2286,
      "essor": 2287,
      "ette": 2288,
      "irth": 2289,
      "utin": 2290,
      "uture": 2291,
      "Into": 2292,
      "cell": 2293,
      "Mark": 2294,
      "ode": 2295,
      "osp": 2296,
      "ilanthrop": 2297,
      "press": 2298,
      "proper": 2299,
      "Alan": 2300,
      "234": 2301,
      "aplan": 2302,
      "Anift": 2303,
      "248": 2304,
      "iant": 2305,
      "173": 2306,
      "174": 2307,
      "ains": 2308,
      "sey": 2309,
      "Grand": 2310,
      "Grow": 2311,
      "Gross": 2312,
      "ability": 2313,
      "ogn": 2314,
      "150": 2315,
      "Spin": 2316,
      "Spark": 2317,
      "Space": 2318,
      "Spanos": 2319,
      "297": 2320,
      "many": 2321,
      "concer": 2322,
      "contempor": 2323,
      "being": 2324,
      "before": 2325,
      "viv": 2326,
      "artistry": 2327,
      "Hero": 2328,
      "comes": 2329,
      "Assault": 2330,
      "Ashley": 2331,
      "avis": 2332,
      "there": 2333,
      "techn": 2334,
      "uck": 2335,
      "ateg": 2336,
      "recip": 2337,
      "recogn": 2338,
      "active": 2339,
      "Joy": 2340,
      "Joel": 2341,
      "plat": 2342,
      "plained": 2343,
      "Whit": 2344,
      "forms": 2345,
      "Three": 2346,
      "Think": 2347,
      "spectacle": 2348,
      "root": 2349,
      "while": 2350,
      "Conf": 2351,
      "Cont": 2352,
      "Consequ": 2353,
      "records": 2354,
      "becoming": 2355,
      "izing": 2356,
      "ization": 2357,
      "Shake": 2358,
      "Shares": 2359,
      "Grein": 2360,
      "deal": 2361,
      "devel": 2362,
      "Worldwide": 2363,
      "topped": 2364,
      "ished": 2365,
      "Act": 2366,
      "According": 2367,
      "ersonville": 2368,
      "Trouble": 2369,
      "Travis": 2370,
      "Willow": 2371,
      "okes": 2372,
      "United": 2373,
      "Bruce": 2374,
      "rick": 2375,
      "Black": 2376,
      "Blank": 2377,
      "Phill": 2378,
      "Single": 2379,
      "Singles": 2380,
      "charts": 2381,
      "attended": 2382,
      "ographic": 2383,
      "streams": 2384,
      "Jonathan": 2385,
      "Box": 2386,
      "Both": 2387,
      "listen": 2388,
      "resp": 2389,
      "Reviews": 2390,
      "directed": 2391,
      "Bey": 2392,
      "Expl": 2393,
      "philanthrop": 2394,
      "produced": 2395,
      "production": 2396,
      "Leg": 2397,
      "dispute": 2398,
      "Cruel": 2399,
      "Deal": 2400,
      "opening": 2401,
      "Caro": 2402,
      "Company": 2403,
      "worldwide": 2404,
      "played": 2405,
      "makes": 2406,
      "Breaks": 2407,
      "Does": 2408,
      "chell": 2409,
      "month": 2410,
      "weet": 2411,
      "weeks": 2412,
      "Moves": 2413,
      "personal": 2414,
      "remarked": 2415,
      "eneur": 2416,
      "accoun": 2417,
      "describe": 2418,
      "Personal": 2419,
      "University": 2420,
      "Queen": 2421,
      "previ": 2422,
      "turned": 2423,
      "commun": 2424,
      "teenage": 2425,
      "Daniel": 2426,
      "Fair": 2427,
      "marketing": 2428,
      "sixth": 2429,
      "versat": 2430,
      "themes": 2431,
      "singersAmerican": 2432,
      "Cats": 2433,
      "Gener": 2434,
      "feel": 2435,
      "explor": 2436,
      "Scottish": 2437,
      "credited": 2438,
      "credible": 2439,
      "Calm": 2440,
      "Calvin": 2441,
      "Melissa": 2442,
      "broke": 2443,
      "publications": 2444,
      "service": 2445,
      "Standard": 2446,
      "appeared": 2447,
      "throughout": 2448,
      "promoted": 2449,
      "Poets": 2450,
      "efforts": 2451,
      "highlighted": 2452,
      "Canada": 2453,
      "Randy": 2454,
      "Written": 2455,
      "living": 2456,
      "rights": 2457,
      "tributed": 2458,
      "ternative": 2459,
      "descentAmerican": 2460,
      "Announces": 2461,
      "literary": 2462,
      "ampaign": 2463,
      "Brid": 2464,
      "Finlay": 2465,
      "Joseph": 2466,
      "Louis": 2467,
      "Snapes": 2468,
      "Wyomis": 2469,
      "Zealand": 2470,
      "twice": 2471,
      "Antonoff": 2472,
      "Provenzan": 2473,
      "Brandle": 2474,
      "Atlantic": 2475,
      "Laura": 2476,
      "victims": 2477,
      "Aaron": 2478,
      "Alyssa": 2479,
      "ARIA": 2480,
      "Department": 2481,
      "Eagle": 2482,
      "Equality": 2483,
      "Hiatt": 2484,
      "Hendersonville": 2485,
      "Houston": 2486,
      "HuffPost": 2487,
      "Kreps": 2488,
      "Kahn": 2489,
      "Kaufman": 2490,
      "Lavender": 2491,
      "Mitchell": 2492,
      "Madonna": 2493,
      "Powers": 2494,
      "Sloan": 2495,
      "Support": 2496,
      "Tortured": 2497,
      "Twitter": 2498,
      "View": 2499,
      "family": 2500,
      "felt": 2501,
      "journal": 2502,
      "scrutin": 2503,
      "incorpor": 2504,
      "areness": 2505,
      "repreneur": 2506,
      "travel": 2507,
      "Aniftos": 2508,
      "Consequence": 2509,
      "develop": 2510,
      "Wyomissing": 2511,
      "Provenzano": 2512,
      ".).": 2513,
      "07": 2514,
      "120": 2515,
      "1st": 2516,
      "114": 2517,
      "300": 2518,
      "345": 2519,
      "43": 2520,
      "529": 2521,
      "66": 2522,
      "77": 2523,
      "78": 2524,
      "87": 2525,
      "91": 2526,
      "95": 2527,
      "98": 2528,
      "AC": 2529,
      "ABC": 2530,
      "Arian": 2531,
      "AMA": 2532,
      "Bal": 2533,
      "Bre": 2534,
      "Bie": 2535,
      "CL": 2536,
      "CO": 2537,
      "Cri": 2538,
      "Cos": 2539,
      "Dr": 2540,
      "Del": 2541,
      "Dess": 2542,
      "Dave": 2543,
      "Dick": 2544,
      "Days": 2545,
      "Dyl": 2546,
      "Domin": 2547,
      "ED": 2548,
      "Eg": 2549,
      "Even": 2550,
      "Fog": 2551,
      "Fall": 2552,
      "Free": 2553,
      "Femin": 2554,
      "Feder": 2555,
      "Future": 2556,
      "GL": 2557,
      "Gaz": 2558,
      "Games": 2559,
      "GRA": 2560,
      "Giver": 2561,
      "H1": 2562,
      "Hit": 2563,
      "Hist": 2564,
      "Hour": 2565,
      "Hun": 2566,
      "Hort": 2567,
      "If": 2568,
      "Iris": 2569,
      "Irel": 2570,
      "IME": 2571,
      "Jeff": 2572,
      "Kim": 2573,
      "Kel": 2574,
      "Kate": 2575,
      "Kaplan": 2576,
      "Lis": 2577,
      "Lit": 2578,
      "Lum": 2579,
      "Lam": 2580,
      "Lil": 2581,
      "Line": 2582,
      "Lans": 2583,
      "Law": 2584,
      "Letter": 2585,
      "Label": 2586,
      "Ma": 2587,
      "Mer": 2588,
      "Min": 2589,
      "Mic": 2590,
      "Mur": 2591,
      "Mick": 2592,
      "Master": 2593,
      "Millenn": 2594,
      "Money": 2595,
      "NS": 2596,
      "Not": 2597,
      "Net": 2598,
      "Number": 2599,
      "Night": 2600,
      "NBC": 2601,
      "Nominees": 2602,
      "Nancy": 2603,
      "Ox": 2604,
      "PI": 2605,
      "Par": 2606,
      "Pre": 2607,
      "Pet": 2608,
      "Port": 2609,
      "Pinn": 2610,
      "Pais": 2611,
      "Publ": 2612,
      "Patt": 2613,
      "Ron": 2614,
      "Rol": 2615,
      "Rock": 2616,
      "RAI": 2617,
      "Sw": 2618,
      "Sec": 2619,
      "Sel": 2620,
      "Sash": 2621,
      "Sell": 2622,
      "Sym": 2623,
      "Search": 2624,
      "Tw": 2625,
      "Turn": 2626,
      "Tweet": 2627,
      "TIME": 2628,
      "Vena": 2629,
      "VID": 2630,
      "VH1": 2631,
      "Wer": 2632,
      "Wal": 2633,
      "Was": 2634,
      "Wel": 2635,
      "Web": 2636,
      "Wil": 2637,
      "Whi": 2638,
      "Work": 2639,
      "Want": 2640,
      "Weat": 2641,
      "Wang": 2642,
      "Widd": 2643,
      "Youn": 2644,
      "aum": 2645,
      "aug": 2646,
      "aut": 2647,
      "bs": 2648,
      "bu": 2649,
      "band": 2650,
      "bass": 2651,
      "birth": 2652,
      "ci": 2653,
      "cept": 2654,
      "cap": 2655,
      "came": 2656,
      "culture": 2657,
      "categ": 2658,
      "campaign": 2659,
      "den": 2660,
      "dam": 2661,
      "dist": 2662,
      "del": 2663,
      "dsey": 2664,
      "each": 2665,
      "fan": 2666,
      "few": 2667,
      "fect": 2668,
      "fame": 2669,
      "found": 2670,
      "gin": 2671,
      "ged": 2672,
      "ginn": 2673,
      "gives": 2674,
      "hl": 2675,
      "hour": 2676,
      "hind": 2677,
      "hood": 2678,
      "ib": 2679,
      "iu": 2680,
      "ious": 2681,
      "ience": 2682,
      "jects": 2683,
      "ko": 2684,
      "kind": 2685,
      "key": 2686,
      "lists": 2687,
      "link": 2688,
      "laun": 2689,
      "min": 2690,
      "med": 2691,
      "mem": 2692,
      "mag": 2693,
      "mick": 2694,
      "ments": 2695,
      "mix": 2696,
      "mopolit": 2697,
      "no": 2698,
      "ns": 2699,
      "now": 2700,
      "nominees": 2701,
      "oo": 2702,
      "pi": 2703,
      "pp": 2704,
      "pes": 2705,
      "pen": 2706,
      "pand": 2707,
      "pol": 2708,
      "put": 2709,
      "prec": 2710,
      "publish": 2711,
      "polit": 2712,
      "passing": 2713,
      "rd": 2714,
      "rop": 2715,
      "rap": 2716,
      "rup": 2717,
      "swift": 2718,
      "sen": 2719,
      "sop": 2720,
      "sour": 2721,
      "side": 2722,
      "sav": 2723,
      "same": 2724,
      "site": 2725,
      "sens": 2726,
      "sessions": 2727,
      "tw": 2728,
      "tal": 2729,
      "taylor": 2730,
      "tic": 2731,
      "tle": 2732,
      "tale": 2733,
      "tions": 2734,
      "urit": 2735,
      "uine": 2736,
      "va": 2737,
      "vy": 2738,
      "vent": 2739,
      "vul": 2740,
      "via": 2741,
      "well": 2742,
      "yll": 2743,
      "yers": 2744,
      "ze": 2745,
      "zie": 2746,
      "206": 2747,
      "erg": 2748,
      "organ": 2749,
      "ino": 2750,
      "inst": 2751,
      "inth": 2752,
      "inate": 2753,
      "introduc": 2754,
      "incredible": 2755,
      "edd": 2756,
      "eds": 2757,
      "educ": 2758,
      "edators": 2759,
      "heart": 2760,
      "aries": 2761,
      "around": 2762,
      "theart": 2763,
      "these": 2764,
      "aly": 2765,
      "alian": 2766,
      "rill": 2767,
      "rise": 2768,
      "ster": 2769,
      "stard": 2770,
      "still": 2771,
      "stop": 2772,
      "stag": 2773,
      "wides": 2774,
      "Res": 2775,
      "Reve": 2776,
      "cher": 2777,
      "char": 2778,
      "ator": 2779,
      "ombe": 2780,
      "ense": 2781,
      "enstein": 2782,
      "emb": 2783,
      "emic": 2784,
      "today": 2785,
      "total": 2786,
      "icate": 2787,
      "icombe": 2788,
      "anda": 2789,
      "andon": 2790,
      "reed": 2791,
      "rest": 2792,
      "reform": 2793,
      "romance": 2794,
      "thers": 2795,
      "those": 2796,
      "assault": 2797,
      "Arc": 2798,
      "offer": 2799,
      "inally": 2800,
      "illed": 2801,
      "let": 2802,
      "leak": 2803,
      "isher": 2804,
      "issue": 2805,
      "iting": 2806,
      "itional": 2807,
      "itially": 2808,
      "These": 2809,
      "opher": 2810,
      "opop": 2811,
      "ophi": 2812,
      "opined": 2813,
      "amm": 2814,
      "ams": 2815,
      "amon": 2816,
      "istein": 2817,
      "add": 2818,
      "ads": 2819,
      "ador": 2820,
      "uster": 2821,
      "entered": 2822,
      "book": 2823,
      "books": 2824,
      "trol": 2825,
      "Billy": 2826,
      "arts": 2827,
      "imm": 2828,
      "imated": 2829,
      "imedia": 2830,
      "acclaim": 2831,
      "Stere": 2832,
      "States": 2833,
      "Steve": 2834,
      "elements": 2835,
      "earning": 2836,
      "ounced": 2837,
      "olid": 2838,
      "2004": 2839,
      "2005": 2840,
      "essed": 2841,
      "ution": 2842,
      "Influ": 2843,
      "InStyle": 2844,
      "celyn": 2845,
      "Musical": 2846,
      "Marjor": 2847,
      "Chil": 2848,
      "Chick": 2849,
      "Chang": 2850,
      "Chiu": 2851,
      "akes": 2852,
      "ils": 2853,
      "ocus": 2854,
      "occup": 2855,
      "prot": 2856,
      "pract": 2857,
      "Shell": 2858,
      "ago": 2859,
      "ager": 2860,
      "aguro": 2861,
      "Although": 2862,
      "185": 2863,
      "Any": 2864,
      "Angr": 2865,
      "eech": 2866,
      "eetheart": 2867,
      "170": 2868,
      "loid": 2869,
      "loyd": 2870,
      "aining": 2871,
      "endors": 2872,
      "unch": 2873,
      "units": 2874,
      "vern": 2875,
      "abe": 2876,
      "abri": 2877,
      "abloid": 2878,
      "ogue": 2879,
      "159": 2880,
      "Tours": 2881,
      "Touring": 2882,
      "suit": 2883,
      "super": 2884,
      "257": 2885,
      "conf": 2886,
      "cont": 2887,
      "consec": 2888,
      "consid": 2889,
      "contributed": 2890,
      "beat": 2891,
      "explained": 2892,
      "overall": 2893,
      "Isn": 2894,
      "Island": 2895,
      "asts": 2896,
      "astest": 2897,
      "common": 2898,
      "iful": 2899,
      "ifies": 2900,
      "ivot": 2901,
      "ucci": 2902,
      "reci": 2903,
      "activ": 2904,
      "Jocelyn": 2905,
      "class": 2906,
      "plac": 2907,
      "Allen": 2908,
      "spec": 2909,
      "Artistry": 2910,
      "Erin": 2911,
      "roy": 2912,
      "Conn": 2913,
      "Conor": 2914,
      "que": 2915,
      "quent": 2916,
      "ize": 2917,
      "ultane": 2918,
      "Songwriting": 2919,
      "Greg": 2920,
      "def": 2921,
      "deem": 2922,
      "indie": 2923,
      "Popular": 2924,
      "Track": 2925,
      "Pres": 2926,
      "Under": 2927,
      "gham": 2928,
      "critical": 2929,
      "criticism": 2930,
      "shar": 2931,
      "shoot": 2932,
      "ists21st": 2933,
      "Italian": 2934,
      "Megan": 2935,
      "genres": 2936,
      "whom": 2937,
      "Brad": 2938,
      "Brun": 2939,
      "Braun": 2940,
      "Blu": 2941,
      "Blistein": 2942,
      "Blasts": 2943,
      "Globes": 2944,
      "Sings": 2945,
      "Singers": 2946,
      "Various": 2947,
      "extens": 2948,
      "include": 2949,
      "Associated": 2950,
      "Road": 2951,
      "Andy": 2952,
      "Jones": 2953,
      "does": 2954,
      "eleven": 2955,
      "Beaut": 2956,
      "Behind": 2957,
      "Excell": 2958,
      "Harvey": 2959,
      "Onstage": 2960,
      "azine": 2961,
      "bute": 2962,
      "phony": 2963,
      "producer": 2964,
      "subsequ": 2965,
      "receive": 2966,
      "Indie": 2967,
      "appreci": 2968,
      "Cra": 2969,
      "Dailey": 2970,
      "Month": 2971,
      "Monica": 2972,
      "notes": 2973,
      "tracks": 2974,
      "Comm": 2975,
      "Comple": 2976,
      "onym": 2977,
      "Stars": 2978,
      "593": 2979,
      "playing": 2980,
      "Entertainer": 2981,
      "Voice": 2982,
      "influences": 2983,
      "influential": 2984,
      "Electr": 2985,
      "Perry": 2986,
      "Wealth": 2987,
      "chett": 2988,
      "sole": 2989,
      "signing": 2990,
      "weep": 2991,
      "younger": 2992,
      "accolades": 2993,
      "presence": 2994,
      "praise": 2995,
      "generally": 2996,
      "Cooper": 2997,
      "Cancer": 2998,
      "Frere": 2999,
      "Frank": 3000,
      "Lyndsey": 3001,
      "identity": 3002,
      "identifies": 3003,
      "performance": 3004,
      "Donates": 3005,
      "Journey": 3006,
      "Quest": 3007,
      "maintain": 3008,
      "nerable": 3009,
      "pread": 3010,
      "surpass": 3011,
      "surprise": 3012,
      "Christian": 3013,
      "Christopher": 3014,
      "Became": 3015,
      "Becomes": 3016,
      "Neil": 3017,
      "Primet": 3018,
      "dren": 3019,
      "draw": 3020,
      "honored": 3021,
      "labels": 3022,
      "reaching": 3023,
      "transferr": 3024,
      "against": 3025,
      "Philanthrop": 3026,
      "supporting": 3027,
      "Catucci": 3028,
      "Earning": 3029,
      "Morgan": 3030,
      "raiser": 3031,
      "scene": 3032,
      "contract": 3033,
      "tells": 3034,
      "positive": 3035,
      "Jackson": 3036,
      "Katy": 3037,
      "Katie": 3038,
      "Petr": 3039,
      "going": 3040,
      "ique": 3041,
      "movement": 3042,
      "modern": 3043,
      "invol": 3044,
      "invention": 3045,
      "register": 3046,
      "childhood": 3047,
      "Adrian": 3048,
      "Celebrity": 3049,
      "Lizzie": 3050,
      "Smith": 3051,
      "Wallen": 3052,
      "brief": 3053,
      "businesses": 3054,
      "lines": 3055,
      "passion": 3056,
      "powerful": 3057,
      "ukule": 3058,
      "iddle": 3059,
      "professional": 3060,
      "period": 3061,
      "Canadian": 3062,
      "AAD": 3063,
      "ATV": 3064,
      "Impact": 3065,
      "Kelly": 3066,
      "Much": 3067,
      "Matter": 3068,
      "Picture": 3069,
      "Pictures": 3070,
      "Vanity": 3071,
      "actressesAmerican": 3072,
      "Steven": 3073,
      "grandmother": 3074,
      "Direction": 3075,
      "90s": 3076,
      "Beatles": 3077,
      "Deser": 3078,
      "Eyes": 3079,
      "German": 3080,
      "Half": 3081,
      "Hughes": 3082,
      "IFPI": 3083,
      "Lorax": 3084,
      "North": 3085,
      "Paine": 3086,
      "Silva": 3087,
      "Something": 3088,
      "Scooter": 3089,
      "Townsqu": 3090,
      "Yahoo": 3091,
      "achiev": 3092,
      "cuss": 3093,
      "fundraiser": 3094,
      "longest": 3095,
      "melod": 3096,
      "multi": 3097,
      "title": 3098,
      "ticket": 3099,
      "wanted": 3100,
      "intimacy": 3101,
      "instruments": 3102,
      "itorium": 3103,
      "electropop": 3104,
      "celebrity": 3105,
      "respectively": 3106,
      "Photos": 3107,
      "Airplay": 3108,
      "Borchett": 3109,
      "Bonaguro": 3110,
      "Colin": 3111,
      "Dreams": 3112,
      "Glenn": 3113,
      "Garden": 3114,
      "Haze": 3115,
      "MMY": 3116,
      "Moments": 3117,
      "NYC": 3118,
      "Rowley": 3119,
      "Scores": 3120,
      "Very": 3121,
      "Visual": 3122,
      "belie": 3123,
      "benefit": 3124,
      "carbon": 3125,
      "detail": 3126,
      "dubbed": 3127,
      "frequent": 3128,
      "purchased": 3129,
      "simultane": 3130,
      "various": 3131,
      "Receive": 3132,
      "References": 3133,
      "aternal": 3134,
      "umulative": 3135,
      "Street": 3136,
      "Grande": 3137,
      "concerned": 3138,
      "contemporaries": 3139,
      "recipient": 3140,
      "recognized": 3141,
      "platforms": 3142,
      "okesperson": 3143,
      "Philly": 3144,
      "respond": 3145,
      "accounts": 3146,
      "versatile": 3147,
      "explored": 3148,
      "scrutiny": 3149,
      "ACM": 3150,
      "Ariana": 3151,
      "Bieber": 3152,
      "COVID": 3153,
      "Crime": 3154,
      "Cosmopolit": 3155,
      "Dessner": 3156,
      "Dylan": 3157,
      "GLAAD": 3158,
      "GRAMMY": 3159,
      "Histor": 3160,
      "Hunger": 3161,
      "Horton": 3162,
      "Irish": 3163,
      "Ireland": 3164,
      "Kelce": 3165,
      "Luminate": 3166,
      "Lansky": 3167,
      "NSAI": 3168,
      "Oxford": 3169,
      "Pinnacle": 3170,
      "Paisley": 3171,
      "Publisher": 3172,
      "Roland": 3173,
      "RAINN": 3174,
      "Sasha": 3175,
      "Symphony": 3176,
      "Twain": 3177,
      "Welcome": 3178,
      "While": 3179,
      "Weather": 3180,
      "Widdicombe": 3181,
      "augh": 3182,
      "bassador": 3183,
      "magazine": 3184,
      "pandemic": 3185,
      "published": 3186,
      "taylorswift": 3187,
      "vulnerable": 3188,
      "stardom": 3189,
      "widespread": 3190,
      "leaked": 3191,
      "Marjorie": 3192,
      "Children": 3193,
      "Chicks": 3194,
      "Angry": 3195,
      "consecutive": 3196,
      "considered": 3197,
      "extensively": 3198,
      "Beautiful": 3199,
      "subsequent": 3200,
      "Primetime": 3201,
      "briefly": 3202,
      "ukulele": 3203,
      "Townsquare": 3204,
      "Borchetta": 3205,
      "Cosmopolitan": 3206,
      "Publishers": 3207,
      "!'": 3208,
      "!.": 3209,
      "\")": 3210,
      "(\"": 3211,
      ")\",": 3212,
      "--": 3213,
      ".'": 3214,
      "113": 3215,
      "123": 3216,
      "118": 3217,
      "112": 3218,
      "2C": 3219,
      "320": 3220,
      "312": 3221,
      "317": 3222,
      "327": 3223,
      "358": 3224,
      "42": 3225,
      "418": 3226,
      "429": 3227,
      "440": 3228,
      "517": 3229,
      "522": 3230,
      "516": 3231,
      "65": 3232,
      "68": 3233,
      "69": 3234,
      "622": 3235,
      "614": 3236,
      "615": 3237,
      "62nd": 3238,
      "71": 3239,
      "73": 3240,
      "75": 3241,
      "750": 3242,
      "84": 3243,
      "92": 3244,
      "93": 3245,
      "96": 3246,
      "AG": 3247,
      "AO": 3248,
      "Aw": 3249,
      "Achi": 3250,
      "Aud": 3251,
      "Age": 3252,
      "Ahead": 3253,
      "Ahl": 3254,
      "BS": 3255,
      "Bu": 3256,
      "Bes": 3257,
      "Bid": 3258,
      "Bart": 3259,
      "Bate": 3260,
      "Bell": 3261,
      "Bank": 3262,
      "Body": 3263,
      "Bern": 3264,
      "CE": 3265,
      "CS": 3266,
      "Cin": 3267,
      "Cre": 3268,
      "Cur": 3269,
      "Crit": 3270,
      "Coun": 3271,
      "Cut": 3272,
      "Cap": 3273,
      "Care": 3274,
      "Cast": 3275,
      "Civ": 3276,
      "Came": 3277,
      "CBC": 3278,
      "Coney": 3279,
      "Case": 3280,
      "CNN": 3281,
      "CBS": 3282,
      "DV": 3283,
      "Du": 3284,
      "Der": 3285,
      "Den": 3286,
      "Dre": 3287,
      "Dit": 3288,
      "Dur": 3289,
      "Doc": 3290,
      "Denn": 3291,
      "Dark": 3292,
      "Didn": 3293,
      "Dix": 3294,
      "Data": 3295,
      "Duk": 3296,
      "Dym": 3297,
      "Diana": 3298,
      "Damon": 3299,
      "EP": 3300,
      "Ep": 3301,
      "Ell": 3302,
      "Ele": 3303,
      "Eil": 3304,
      "Econ": 3305,
      "Esqu": 3306,
      "Flor": 3307,
      "Fly": 3308,
      "Fis": 3309,
      "Ful": 3310,
      "Fash": 3311,
      "Fans": 3312,
      "Food": 3313,
      "Full": 3314,
      "Foot": 3315,
      "Finally": 3316,
      "Gar": 3317,
      "Gas": 3318,
      "Gam": 3319,
      "Gens": 3320,
      "Gets": 3321,
      "Gina": 3322,
      "Gives": 3323,
      "Ghost": 3324,
      "Gyll": 3325,
      "Gabri": 3326,
      "Hy": 3327,
      "Hard": 3328,
      "His": 3329,
      "Had": 3330,
      "Hur": 3331,
      "Hav": 3332,
      "Hits": 3333,
      "Homes": 3334,
      "House": 3335,
      "Hosp": 3336,
      "Hiddle": 3337,
      "Il": 3338,
      "Ir": 3339,
      "Iow": 3340,
      "Ice": 3341,
      "ICE": 3342,
      "Jem": 3343,
      "Jad": 3344,
      "Jers": 3345,
      "Jep": 3346,
      "Jag": 3347,
      "Jake": 3348,
      "Kar": 3349,
      "Kay": 3350,
      "Ken": 3351,
      "Kard": 3352,
      "Kam": 3353,
      "Kid": 3354,
      "Kend": 3355,
      "Kory": 3356,
      "Kick": 3357,
      "Kyl": 3358,
      "Krel": 3359,
      "Kyle": 3360,
      "Korn": 3361,
      "Led": 3362,
      "Lat": 3363,
      "Las": 3364,
      "Let": 3365,
      "Liv": 3366,
      "Link": 3367,
      "Lyd": 3368,
      "Lloyd": 3369,
      "MG": 3370,
      "MP": 3371,
      "MS": 3372,
      "Mus": 3373,
      "Mary": 3374,
      "Mac": 3375,
      "Mot": 3376,
      "Might": 3377,
      "Many": 3378,
      "Mans": 3379,
      "Mike": 3380,
      "Move": 3381,
      "NE": 3382,
      "NJ": 3383,
      "NZ": 3384,
      "Nic": 3385,
      "Nate": 3386,
      "Next": 3387,
      "Nomin": 3388,
      "Never": 3389,
      "Nathan": 3390,
      "NICE": 3391,
      "OP": 3392,
      "Ob": 3393,
      "Oral": 3394,
      "Osc": 3395,
      "Oliv": 3396,
      "Own": 3397,
      "OCL": 3398,
      "OMG": 3399,
      "Por": 3400,
      "Pac": 3401,
      "Pick": 3402,
      "Page": 3403,
      "Pass": 3404,
      "Pink": 3405,
      "Polit": 3406,
      "Rh": 3407,
      "Rac": 3408,
      "Rug": 3409,
      "Rod": 3410,
      "Rap": 3411,
      "Rout": 3412,
      "Round": 3413,
      "Rais": 3414,
      "Sa": 3415,
      "Say": 3416,
      "Sat": 3417,
      "Sto": 3418,
      "Sou": 3419,
      "Sus": 3420,
      "Sis": 3421,
      "Sug": 3422,
      "Soc": 3423,
      "Suc": 3424,
      "Sale": 3425,
      "Stop": 3426,
      "Sund": 3427,
      "Sets": 3428,
      "Said": 3429,
      "Sophi": 3430,
      "Sweep": 3431,
      "S2C": 3432,
      "Ter": 3433,
      "Ton": 3434,
      "Tam": 3435,
      "Tone": 3436,
      "Tap": 3437,
      "Tun": 3438,
      "Tree": 3439,
      "Tann": 3440,
      "Tyl": 3441,
      "Tapp": 3442,
      "Tina": 3443,
      "Tampa": 3444,
      "Tears": 3445,
      "UT": 3446,
      "UNICE": 3447,
      "Vill": 3448,
      "Vaul": 3449,
      "Vote": 3450,
      "VMA": 3451,
      "Veg": 3452,
      "Vogue": 3453,
      "Won": 3454,
      "Wis": 3455,
      "Wear": 3456,
      "Ways": 3457,
      "Wood": 3458,
      "Your": 3459,
      "Zach": 3460,
      "ait": 3461,
      "ahead": 3462,
      "bi": 3463,
      "bor": 3464,
      "bar": 3465,
      "bad": 3466,
      "bitch": 3467,
      "born": 3468,
      "ca": 3469,
      "cc": 3470,
      "cy": 3471,
      "cz": 3472,
      "cre": 3473,
      "card": 3474,
      "cur": 3475,
      "cul": 3476,
      "care": 3477,
      "cast": 3478,
      "cial": 3479,
      "cited": 3480,
      "case": 3481,
      "covers": 3482,
      "colades": 3483,
      "clear": 3484,
      "cumulative": 3485,
      "da": 3486,
      "did": 3487,
      "dep": 3488,
      "dest": 3489,
      "div": 3490,
      "dream": 3491,
      "dark": 3492,
      "dance": 3493,
      "days": 3494,
      "dating": 3495,
      "dued": 3496,
      "eight": 3497,
      "far": 3498,
      "fall": 3499,
      "find": 3500,
      "further": 3501,
      "favor": 3502,
      "foot": 3503,
      "femin": 3504,
      "favorite": 3505,
      "focus": 3506,
      "fastest": 3507,
      "gs": 3508,
      "gri": 3509,
      "gers": 3510,
      "got": 3511,
      "gun": 3512,
      "giv": 3513,
      "gree": 3514,
      "goss": 3515,
      "gender": 3516,
      "gier": 3517,
      "girl": 3518,
      "gagement": 3519,
      "hon": 3520,
      "han": 3521,
      "hand": 3522,
      "hard": 3523,
      "hug": 3524,
      "ito": 3525,
      "ials": 3526,
      "iere": 3527,
      "ients": 3528,
      "iety": 3529,
      "iCar": 3530,
      "iTun": 3531,
      "jets": 3532,
      "ka": 3533,
      "ki": 3534,
      "kins": 3535,
      "lar": 3536,
      "lia": 3537,
      "lack": 3538,
      "lect": 3539,
      "lower": 3540,
      "lbur": 3541,
      "lished": 3542,
      "mo": 3543,
      "mu": 3544,
      "mit": 3545,
      "mut": 3546,
      "might": 3547,
      "mind": 3548,
      "make": 3549,
      "mature": 3550,
      "maternal": 3551,
      "ni": 3552,
      "nu": 3553,
      "né": 3554,
      "non": 3555,
      "num": 3556,
      "nine": 3557,
      "nold": 3558,
      "nings": 3559,
      "others": 3560,
      "pan": 3561,
      "pay": 3562,
      "pat": 3563,
      "pus": 3564,
      "pers": 3565,
      "pur": 3566,
      "pear": 3567,
      "pse": 3568,
      "pite": 3569,
      "poss": 3570,
      "phen": 3571,
      "publishing": 3572,
      "pivot": 3573,
      "rer": 3574,
      "ron": 3575,
      "ray": 3576,
      "ren": 3577,
      "ram": 3578,
      "rac": 3579,
      "rather": 3580,
      "sl": 3581,
      "sw": 3582,
      "sit": 3583,
      "sist": 3584,
      "sol": 3585,
      "scor": 3586,
      "shi": 3587,
      "swit": 3588,
      "sending": 3589,
      "sister": 3590,
      "ta": 3591,
      "tu": 3592,
      "tor": 3593,
      "ters": 3594,
      "tation": 3595,
      "tone": 3596,
      "treat": 3597,
      "talent": 3598,
      "talking": 3599,
      "trepreneur": 3600,
      "tko": 3601,
      "tabloid": 3602,
      "uri": 3603,
      "uise": 3604,
      "ving": 3605,
      "vard": 3606,
      "version": 3607,
      "vention": 3608,
      "vacy": 3609,
      "ww": 3610,
      "whe": 3611,
      "wad": 3612,
      "wel": 3613,
      "wear": 3614,
      "wants": 3615,
      "yo": 3616,
      "yed": 3617,
      "ytko": 3618,
      "zzo": 3619,
      "—\"": 3620,
      "205": 3621,
      "209": 3622,
      "20th": 3623,
      "ering": 3624,
      "erous": 3625,
      "erks": 3626,
      "ored": 3627,
      "ores": 3628,
      "ormick": 3629,
      "inf": 3630,
      "ining": 3631,
      "ination": 3632,
      "incess": 3633,
      "intell": 3634,
      "income": 3635,
      "initially": 3636,
      "onse": 3637,
      "onant": 3638,
      "online": 3639,
      "onographic": 3640,
      "helle": 3641,
      "ara": 3642,
      "archi": 3643,
      "arist": 3644,
      "ario": 3645,
      "arland": 3646,
      "anth": 3647,
      "anie": 3648,
      "ances": 3649,
      "anford": 3650,
      "thew": 3651,
      "theat": 3652,
      "algia": 3653,
      "alties": 3654,
      "always": 3655,
      "alternative": 3656,
      "rie": 3657,
      "rives": 3658,
      "stay": 3659,
      "stock": 3660,
      "stake": 3661,
      "stadium": 3662,
      "Swifties": 3663,
      "Reg": 3664,
      "Reac": 3665,
      "Reun": 3666,
      "Resp": 3667,
      "Remov": 3668,
      "Remix": 3669,
      "Reinvention": 3670,
      "beration": 3671,
      "berts": 3672,
      "charity": 3673,
      "changing": 3674,
      "oma": 3675,
      "enes": 3676,
      "encer": 3677,
      "enha": 3678,
      "engagement": 3679,
      "emer": 3680,
      "emend": 3681,
      "emony": 3682,
      "tric": 3683,
      "trial": 3684,
      "tridis": 3685,
      "igy": 3686,
      "lliant": 3687,
      "tool": 3688,
      "town": 3689,
      "tobi": 3690,
      "icy": 3691,
      "iced": 3692,
      "icon": 3693,
      "ices": 3694,
      "ication": 3695,
      "icated": 3696,
      "icles": 3697,
      "icip": 3698,
      "ret": 3699,
      "read": 3700,
      "retr": 3701,
      "reve": 3702,
      "reign": 3703,
      "ready": 3704,
      "reven": 3705,
      "replace": 3706,
      "referr": 3707,
      "returned": 3708,
      "replac": 3709,
      "romantic": 3710,
      "outs": 3711,
      "think": 3712,
      "asp": 3713,
      "Arts": 3714,
      "Arrest": 3715,
      "Arnold": 3716,
      "ardrop": 3717,
      "ece": 3718,
      "eclect": 3719,
      "ectric": 3720,
      "illa": 3721,
      "lets": 3722,
      "level": 3723,
      "usive": 3724,
      "usich": 3725,
      "Jun": 3726,
      "Jude": 3727,
      "isin": 3728,
      "itge": 3729,
      "Thee": 3730,
      "ump": 3731,
      "umph": 3732,
      "umni": 3733,
      "opper": 3734,
      "opedia": 3735,
      "ama": 3736,
      "amy": 3737,
      "aming": 3738,
      "amond": 3739,
      "amina": 3740,
      "istr": 3741,
      "adu": 3742,
      "adig": 3743,
      "adap": 3744,
      "advoc": 3745,
      "added": 3746,
      "aditional": 3747,
      "entrepreneur": 3748,
      "boy": 3749,
      "tray": 3750,
      "trow": 3751,
      "tradem": 3752,
      "tremend": 3753,
      "Billie": 3754,
      "ida": 3755,
      "ider": 3756,
      "ided": 3757,
      "idol": 3758,
      "idman": 3759,
      "idence": 3760,
      "urg": 3761,
      "urday": 3762,
      "arty": 3763,
      "arted": 3764,
      "articles": 3765,
      "imag": 3766,
      "import": 3767,
      "images": 3768,
      "acter": 3769,
      "academ": 3770,
      "accomm": 3771,
      "Stat": 3772,
      "Stun": 3773,
      "Stub": 3774,
      "Stutz": 3775,
      "Steph": 3776,
      "Stella": 3777,
      "Stalking": 3778,
      "elve": 3779,
      "eline": 3780,
      "electric": 3781,
      "ewall": 3782,
      "101": 3783,
      "earnings": 3784,
      "otland": 3785,
      "oline": 3786,
      "olina": 3787,
      "olars": 3788,
      "2000": 3789,
      "essa": 3790,
      "esses": 3791,
      "ebe": 3792,
      "ebate": 3793,
      "ebird": 3794,
      "veils": 3795,
      "etw": 3796,
      "etmaster": 3797,
      "iring": 3798,
      "iration": 3799,
      "ested": 3800,
      "estab": 3801,
      "estiv": 3802,
      "estimated": 3803,
      "Inn": 3804,
      "Inv": 3805,
      "Inty": 3806,
      "Inside": 3807,
      "Instag": 3808,
      "Apartment": 3809,
      "Juneteen": 3810,
      "ceed": 3811,
      "Musicolog": 3812,
      "190": 3813,
      "192": 3814,
      "1990s": 3815,
      "olled": 3816,
      "ules": 3817,
      "eptance": 3818,
      "Maris": 3819,
      "Mayer": 3820,
      "Chap": 3821,
      "Chlo": 3822,
      "Choice": 3823,
      "Chief": 3824,
      "Church": 3825,
      "odd": 3826,
      "odigy": 3827,
      "oses": 3828,
      "ospect": 3829,
      "Amster": 3830,
      "Amanda": 3831,
      "Ambassador": 3832,
      "iled": 3833,
      "iles": 3834,
      "trying": 3835,
      "136": 3836,
      "137": 3837,
      "Shelbur": 3838,
      "aga": 3839,
      "aged": 3840,
      "agreed": 3841,
      "Ali": 3842,
      "Also": 3843,
      "Alternative": 3844,
      "Alvern": 3845,
      "Already": 3846,
      "Alumni": 3847,
      "writer": 3848,
      "Timeline": 3849,
      "ternal": 3850,
      "232": 3851,
      "appro": 3852,
      "182": 3853,
      "187": 3854,
      "247": 3855,
      "125": 3856,
      "222": 3857,
      "226": 3858,
      "228": 3859,
      "seven": 3860,
      "143": 3861,
      "116": 3862,
      "unte": 3863,
      "Grate": 3864,
      "hib": 3865,
      "ostalgia": 3866,
      "00s": 3867,
      "abandon": 3868,
      "ogum": 3869,
      "156": 3870,
      "157": 3871,
      "Split": 3872,
      "Spears": 3873,
      "Spencer": 3874,
      "260": 3875,
      "264": 3876,
      "266": 3877,
      "292": 3878,
      "278": 3879,
      "279": 3880,
      "manship": 3881,
      "manager": 3882,
      "udonym": 3883,
      "conn": 3884,
      "conqu": 3885,
      "convers": 3886,
      "concept": 3887,
      "304": 3888,
      "Rollout": 3889,
      "bell": 3890,
      "beginn": 3891,
      "exper": 3892,
      "exact": 3893,
      "experi": 3894,
      "express": 3895,
      "poptim": 3896,
      "artistic": 3897,
      "Herald": 3898,
      "percent": 3899,
      "168": 3900,
      "astic": 3901,
      "comp": 3902,
      "coming": 3903,
      "compl": 3904,
      "comment": 3905,
      "comple": 3906,
      "compar": 3907,
      "company": 3908,
      "ific": 3909,
      "Aswad": 3910,
      "286": 3911,
      "287": 3912,
      "avail": 3913,
      "therland": 3914,
      "ashian": 3915,
      "ections": 3916,
      "uct": 3917,
      "uction": 3918,
      "recept": 3919,
      "acting": 3920,
      "Joker": 3921,
      "clim": 3922,
      "close": 3923,
      "clarity": 3924,
      "clusive": 3925,
      "clopedia": 3926,
      "AllMusic": 3927,
      "Allison": 3928,
      "formed": 3929,
      "Thug": 3930,
      "Thank": 3931,
      "Things": 3932,
      "Thanks": 3933,
      "speak": 3934,
      "space": 3935,
      "speech": 3936,
      "spokesperson": 3937,
      "spread": 3938,
      "Era": 3939,
      "bles": 3940,
      "blame": 3941,
      "Convers": 3942,
      "Contempor": 3943,
      "Control": 3944,
      "Fortu": 3945,
      "Youth": 3946,
      "YouTu": 3947,
      "quired": 3948,
      "recording": 3949,
      "recordings": 3950,
      "outlets": 3951,
      "ffects": 3952,
      "izon": 3953,
      "izabe": 3954,
      "releases": 3955,
      "ulted": 3956,
      "Shut": 3957,
      "Shania": 3958,
      "Should": 3959,
      "eller": 3960,
      "rying": 3961,
      "McKenn": 3962,
      "McInty": 3963,
      "deep": 3964,
      "deals": 3965,
      "degree": 3966,
      "Grammys": 3967,
      "Entrepreneur": 3968,
      "Guide": 3969,
      "Weekend": 3970,
      "topping": 3971,
      "older": 3972,
      "tours": 3973,
      "Bigger": 3974,
      "timbre": 3975,
      "inda": 3976,
      "independent": 3977,
      "Acts": 3978,
      "Actress": 3979,
      "Accolades": 3980,
      "Trump": 3981,
      "Willi": 3982,
      "fied": 3983,
      "oke": 3984,
      "announced": 3985,
      "Predators": 3986,
      "Prodigy": 3987,
      "Units": 3988,
      "Unveils": 3989,
      "diarist": 3990,
      "ange": 3991,
      "anking": 3992,
      "shop": 3993,
      "insky": 3994,
      "cool": 3995,
      "genius": 3996,
      "genuine": 3997,
      "upbeat": 3998,
      "ogram": 3999,
      "Brent": 4000,
      "Brown": 4001,
      "even": 4002,
      "event": 4003,
      "events": 4004,
      "ips": 4005,
      "ricane": 4006,
      "stars": 4007,
      "ockey": 4008,
      "Block": 4009,
      "Blue": 4010,
      "Phonographic": 4011,
      "Singing": 4012,
      "flag": 4013,
      "flix": 4014,
      "extended": 4015,
      "extending": 4016,
      "awareness": 4017,
      "ographical": 4018,
      "409": 4019,
      "Robert": 4020,
      "Roberts": 4021,
      "Roisin": 4022,
      "TennesseeCountry": 4023,
      "Joni": 4024,
      "Jonas": 4025,
      "ganization": 4026,
      "films": 4027,
      "guest": 4028,
      "resonant": 4029,
      "ossover": 4030,
      "direction": 4031,
      "443": 4032,
      "445": 4033,
      "449": 4034,
      "4467": 4035,
      "Begin": 4036,
      "Educ": 4037,
      "Experi": 4038,
      "External": 4039,
      "Exclusive": 4040,
      "Harassing": 4041,
      "Harbor": 4042,
      "Harvard": 4043,
      "Wikimedia": 4044,
      "phy": 4045,
      "phone": 4046,
      "Internet": 4047,
      "productions": 4048,
      "subjects": 4049,
      "subdued": 4050,
      "Lead": 4051,
      "discus": 4052,
      "performer": 4053,
      "helps": 4054,
      "helping": 4055,
      "335": 4056,
      "Cruise": 4057,
      "Cremer": 4058,
      "noting": 4059,
      "tracking": 4060,
      "569": 4061,
      "Clash": 4062,
      "Clark": 4063,
      "Class": 4064,
      "Club": 4065,
      "Claire": 4066,
      "Carl": 4067,
      "Carolina": 4068,
      "Common": 4069,
      "Commer": 4070,
      "Compassion": 4071,
      "feature": 4072,
      "office": 4073,
      "Starr": 4074,
      "379": 4075,
      "396": 4076,
      "494467": 4077,
      "586": 4078,
      "Britney": 4079,
      "Offstage": 4080,
      "porter": 4081,
      "portray": 4082,
      "Entertainers": 4083,
      "Austin": 4084,
      "Scotland": 4085,
      "Soon": 4086,
      "Voytko": 4087,
      "latter": 4088,
      "influence": 4089,
      "reviews": 4090,
      "363": 4091,
      "Breaking": 4092,
      "Breakup": 4093,
      "Doyle": 4094,
      "Elizabe": 4095,
      "Filmography": 4096,
      "Head": 4097,
      "Heights": 4098,
      "Health": 4099,
      "Perone": 4100,
      "Perfect": 4101,
      "Weiss": 4102,
      "ches": 4103,
      "monop": 4104,
      "strained": 4105,
      "PennsylvaniaPhilanthrop": 4106,
      "384": 4107,
      "487": 4108,
      "Collins": 4109,
      "Collection": 4110,
      "brary": 4111,
      "brate": 4112,
      "prising": 4113,
      "remains": 4114,
      "sounds": 4115,
      "young": 4116,
      "accused": 4117,
      "acceptance": 4118,
      "president": 4119,
      "songwritersAmerican": 4120,
      "generated": 4121,
      "Discuss": 4122,
      "mezzo": 4123,
      "ically": 4124,
      "supporter": 4125,
      "Donation": 4126,
      "Ours": 4127,
      "Samanth": 4128,
      "promote": 4129,
      "surpassing": 4130,
      "select": 4131,
      "interview": 4132,
      "interrup": 4133,
      "interested": 4134,
      "Christman": 4135,
      "musiciansAmerican": 4136,
      "McCormick": 4137,
      "Robbie": 4138,
      "351": 4139,
      "355": 4140,
      "Launch": 4141,
      "Management": 4142,
      "Makers": 4143,
      "Neal": 4144,
      "Pride": 4145,
      "Privacy": 4146,
      "dress": 4147,
      "debuts": 4148,
      "debuted": 4149,
      "folklore": 4150,
      "labeled": 4151,
      "market": 4152,
      "types": 4153,
      "ubiqu": 4154,
      "emotions": 4155,
      "leading": 4156,
      "transition": 4157,
      "aborated": 4158,
      "McGrath": 4159,
      "Catalog": 4160,
      "Earth": 4161,
      "Early": 4162,
      "Genres": 4163,
      "Morris": 4164,
      "Malec": 4165,
      "Powered": 4166,
      "Powerful": 4167,
      "Urges": 4168,
      "autobi": 4169,
      "billionaire": 4170,
      "billionair": 4171,
      "parents": 4172,
      "paradig": 4173,
      "partn": 4174,
      "peaking": 4175,
      "raised": 4176,
      "raises": 4177,
      "scape": 4178,
      "ancest": 4179,
      "storytell": 4180,
      "control": 4181,
      "controvers": 4182,
      "explore": 4183,
      "Andrea": 4184,
      "seconds": 4185,
      "Georgia": 4186,
      "Davis": 4187,
      "Melody": 4188,
      "Melinda": 4189,
      "Peas": 4190,
      "Petridis": 4191,
      "RIAA": 4192,
      "Sara": 4193,
      "Tribute": 4194,
      "Triumph": 4195,
      "brities": 4196,
      "brother": 4197,
      "cancer": 4198,
      "haber": 4199,
      "movie": 4200,
      "served": 4201,
      "regard": 4202,
      "children": 4203,
      "utely": 4204,
      "popularity": 4205,
      "appearance": 4206,
      "promoting": 4207,
      "globally": 4208,
      "Adam": 4209,
      "Broad": 4210,
      "Brooks": 4211,
      "Help": 4212,
      "Helps": 4213,
      "Helping": 4214,
      "Iconic": 4215,
      "Small": 4216,
      "brid": 4217,
      "businesswoman": 4218,
      "domination": 4219,
      "dominates": 4220,
      "following": 4221,
      "fully": 4222,
      "liner": 4223,
      "ledge": 4224,
      "videography": 4225,
      "worth": 4226,
      "worse": 4227,
      "words": 4228,
      "Billionaire": 4229,
      "Streams": 4230,
      "Streamed": 4231,
      "Streaming": 4232,
      "shows": 4233,
      "showcase": 4234,
      "showmanship": 4235,
      "Phoebe": 4236,
      "Montessor": 4237,
      "Journalists": 4238,
      "emotionally": 4239,
      "Alexis": 4240,
      "Know": 4241,
      "Knopper": 4242,
      "Kellie": 4243,
      "Mojo": 4244,
      "Mueller": 4245,
      "Matthew": 4246,
      "Play": 4247,
      "Plans": 4248,
      "Randall": 4249,
      "Slate": 4250,
      "Schuster": 4251,
      "Surprise": 4252,
      "Soundtrack": 4253,
      "Signs": 4254,
      "Signed": 4255,
      "Vanessa": 4256,
      "audience": 4257,
      "auditorium": 4258,
      "right": 4259,
      "Stevens": 4260,
      "Announce": 4261,
      "producersAmerican": 4262,
      "Director": 4263,
      "Opening": 4264,
      "...": 4265,
      "Barna": 4266,
      "Cafe": 4267,
      "Despite": 4268,
      "Eyed": 4269,
      "Feed": 4270,
      "Feud": 4271,
      "Horse": 4272,
      "Horizon": 4273,
      "Hugh": 4274,
      "Jimmy": 4275,
      "Liberation": 4276,
      "Library": 4277,
      "LGBTQ": 4278,
      "Payne": 4279,
      "Romance": 4280,
      "Seidman": 4281,
      "Sutherland": 4282,
      "Scoop": 4283,
      "Tune": 4284,
      "Ticketing": 4285,
      "Ticketmaster": 4286,
      "Words": 4287,
      "Yahr": 4288,
      "court": 4289,
      "major": 4290,
      "peers": 4291,
      "piano": 4292,
      "pianistsAmerican": 4293,
      "intimate": 4294,
      "instrument": 4295,
      "refr": 4296,
      "legal": 4297,
      "amongst": 4298,
      "electronic": 4299,
      "Charles": 4300,
      "Guitarists": 4301,
      "Boys": 4302,
      "Boyfri": 4303,
      "models": 4304,
      "floods": 4305,
      "tornadoes": 4306,
      "Auto": 4307,
      "Auth": 4308,
      "BMI": 4309,
      "Burgham": 4310,
      "Court": 4311,
      "Course": 4312,
      "Calls": 4313,
      "Callie": 4314,
      "Fried": 4315,
      "Fourth": 4316,
      "Feature": 4317,
      "Fifth": 4318,
      "Girls": 4319,
      "Kennedy": 4320,
      "Martin": 4321,
      "Organization": 4322,
      "Patrick": 4323,
      "Ringo": 4324,
      "Ringer": 4325,
      "Senior": 4326,
      "Source": 4327,
      "Sources": 4328,
      "Savage": 4329,
      "Teardrop": 4330,
      "Talks": 4331,
      "affer": 4332,
      "collaborated": 4333,
      "narrative": 4334,
      "skilled": 4335,
      "saying": 4336,
      "volution": 4337,
      "starting": 4338,
      "study": 4339,
      "student": 4340,
      "Relief": 4341,
      "Returns": 4342,
      "emplo": 4343,
      "economy": 4344,
      "economic": 4345,
      "accompan": 4346,
      "Stones": 4347,
      "Stonewall": 4348,
      "Studies": 4349,
      "osphere": 4350,
      "properties": 4351,
      "Growing": 4352,
      "Grosses": 4353,
      "Spinoff": 4354,
      "Sparks": 4355,
      "Sparkling": 4356,
      "vivid": 4357,
      "vivors": 4358,
      "technique": 4359,
      "Whitney": 4360,
      "Thinks": 4361,
      "roots": 4362,
      "rooted": 4363,
      "listening": 4364,
      "Beyonce": 4365,
      "Explains": 4366,
      "Carole": 4367,
      "previous": 4368,
      "previously": 4369,
      "communities": 4370,
      "Bridges": 4371,
      "Bridgers": 4372,
      "Louisiana": 4373,
      "journalist": 4374,
      "journalists": 4375,
      "incorporated": 4376,
      "traveled": 4377,
      "developed": 4378,
      "development": 4379,
      "07494467": 4380,
      "66th": 4381,
      "Baldi": 4382,
      "Brett": 4383,
      "Delicate": 4384,
      "EDM": 4385,
      "Fogarty": 4386,
      "Fallon": 4387,
      "Feminist": 4388,
      "Federation": 4389,
      "Gaza": 4390,
      "Lisette": 4391,
      "Little": 4392,
      "Lamar": 4393,
      "Labels": 4394,
      "Merrill": 4395,
      "Minute": 4396,
      "Michelle": 4397,
      "Murphy": 4398,
      "Masterpi": 4399,
      "Millennial": 4400,
      "Netflix": 4401,
      "Prevention": 4402,
      "Ronan": 4403,
      "Sweetheart": 4404,
      "Second": 4405,
      "Self": 4406,
      "Sells": 4407,
      "Searchlight": 4408,
      "Weren": 4409,
      "Webber": 4410,
      "Wildest": 4411,
      "Works": 4412,
      "Young": 4413,
      "cameo": 4414,
      "category": 4415,
      "ibility": 4416,
      "links": 4417,
      "launch": 4418,
      "preced": 4419,
      "politics": 4420,
      "rapper": 4421,
      "sopran": 4422,
      "source": 4423,
      "savvy": 4424,
      "sensibility": 4425,
      "twang": 4426,
      "urities": 4427,
      "ergy": 4428,
      "introduced": 4429,
      "eddings": 4430,
      "Research": 4431,
      "Reveal": 4432,
      "embarked": 4433,
      "Arcade": 4434,
      "letter": 4435,
      "Stereogum": 4436,
      "oliday": 4437,
      "Changes": 4438,
      "occupy": 4439,
      "protect": 4440,
      "practice": 4441,
      "Shellback": 4442,
      "Anything": 4443,
      "endorsed": 4444,
      "superstardom": 4445,
      "activities": 4446,
      "specul": 4447,
      "royalties": 4448,
      "Connor": 4449,
      "deemed": 4450,
      "sharp": 4451,
      "shooting": 4452,
      "Bruner": 4453,
      "Bluebird": 4454,
      "Excellence": 4455,
      "appreciated": 4456,
      "Craig": 4457,
      "Commun": 4458,
      "Complete": 4459,
      "surpassed": 4460,
      "drawn": 4461,
      "transferring": 4462,
      "Petrusich": 4463,
      "involved": 4464,
      "Deseret": 4465,
      "achievements": 4466,
      "melodic": 4467,
      "frequently": 4468,
      "simultaneously": 4469,
      "responded": 4470,
      "Historic": 4471,
      "Weatherby": 4472,
      "aught": 4473,
      "AOL": 4474,
      "Awareness": 4475,
      "Achiev": 4476,
      "Ahlgri": 4477,
      "Besides": 4478,
      "Biden": 4479,
      "CSI": 4480,
      "Cinem": 4481,
      "Capital": 4482,
      "Civil": 4483,
      "DVD": 4484,
      "Duration": 4485,
      "Dennis": 4486,
      "Dixie": 4487,
      "Dukes": 4488,
      "Dymtrow": 4489,
      "Epic": 4490,
      "Eilish": 4491,
      "Econom": 4492,
      "Esquire": 4493,
      "Florida": 4494,
      "Fischer": 4495,
      "Fulford": 4496,
      "Fashion": 4497,
      "Footnotes": 4498,
      "Gasoline": 4499,
      "Gambles": 4500,
      "Gensler": 4501,
      "Ghosts": 4502,
      "Gyllenha": 4503,
      "Gabriel": 4504,
      "Hurricane": 4505,
      "Havens": 4506,
      "Hospital": 4507,
      "Hiddleston": 4508,
      "Ilana": 4509,
      "Iowa": 4510,
      "Jersey": 4511,
      "Jepson": 4512,
      "Jagger": 4513,
      "Karma": 4514,
      "Kardashian": 4515,
      "Kamala": 4516,
      "Kids": 4517,
      "Kendrick": 4518,
      "Kickoff": 4519,
      "Kylie": 4520,
      "Krelenstein": 4521,
      "Kornhaber": 4522,
      "Living": 4523,
      "Lydia": 4524,
      "MusiCar": 4525,
      "Motion": 4526,
      "Mansfield": 4527,
      "Nominations": 4528,
      "Oscar": 4529,
      "Olivia": 4530,
      "OCLC": 4531,
      "Portrait": 4532,
      "Pickler": 4533,
      "Ruggier": 4534,
      "Routledge": 4535,
      "Raisa": 4536,
      "Safe": 4537,
      "Saturday": 4538,
      "Sisario": 4539,
      "Sugarland": 4540,
      "Succeed": 4541,
      "Sophie": 4542,
      "S2CID": 4543,
      "Tonight": 4544,
      "Tyler": 4545,
      "UNICEF": 4546,
      "Vaults": 4547,
      "Vegas": 4548,
      "cyclopedia": 4549,
      "given": 4550,
      "gossip": 4551,
      "honest": 4552,
      "huge": 4553,
      "itous": 4554,
      "iTunes": 4555,
      "much": 4556,
      "mitted": 4557,
      "née": 4558,
      "numerous": 4559,
      "perspect": 4560,
      "pseudonym": 4561,
      "possesses": 4562,
      "phenom": 4563,
      "pivoting": 4564,
      "solutely": 4565,
      "shift": 4566,
      "switch": 4567,
      "treatment": 4568,
      "whether": 4569,
      "Reaches": 4570,
      "Removal": 4571,
      "retrospect": 4572,
      "revenue": 4573,
      "referred": 4574,
      "romanticism": 4575,
      "thinking": 4576,
      "Arrested": 4577,
      "eclectic": 4578,
      "itgeist": 4579,
      "adaptation": 4580,
      "trademark": 4581,
      "tremendous": 4582,
      "acterized": 4583,
      "academic": 4584,
      "accommod": 4585,
      "Stunning": 4586,
      "Stephanie": 4587,
      "established": 4588,
      "Instagram": 4589,
      "Juneteenth": 4590,
      "Musicologist": 4591,
      "Chapman": 4592,
      "Chiefs": 4593,
      "Amsterdam": 4594,
      "Shelburne": 4595,
      "Alvernia": 4596,
      "Grateful": 4597,
      "experim": 4598,
      "expressive": 4599,
      "commented": 4600,
      "compared": 4601,
      "available": 4602,
      "Conversation": 4603,
      "Contemporary": 4604,
      "Fortune": 4605,
      "YouTube": 4606,
      "McKenna": 4607,
      "McIntyre": 4608,
      "Actresses": 4609,
      "diaristic": 4610,
      "Experience": 4611,
      "Commons": 4612,
      "Elizabeth": 4613,
      "PennsylvaniaPhilanthropists": 4614,
      "Samantha": 4615,
      "ubiquitous": 4616,
      "autobiographical": 4617,
      "storytelling": 4618,
      "controversy": 4619,
      "Montessori": 4620,
      "Teardrops": 4621,
      "volutionary": 4622,
      "Masterpiece": 4623,
      "Ahlgrim": 4624,
      "Gyllenhaal": 4625,
      "MusiCares": 4626,
      "Ruggieri": 4627,
      "\"\"": 4628,
      "\"#": 4629,
      "\"$": 4630,
      "\":": 4631,
      "',": 4632,
      "'!\".": 4633,
      ");": 4634,
      ")[": 4635,
      ".,": 4636,
      ".;": 4637,
      "//": 4638,
      "0248": 4639,
      "0300": 4640,
      "042": 4641,
      "0190": 4642,
      "1B": 4643,
      "1m": 4644,
      "1s": 4645,
      "110": 4646,
      "119": 4647,
      "121": 4648,
      "124": 4649,
      "117": 4650,
      "2M": 4651,
      "220": 4652,
      "210": 4653,
      "219": 4654,
      "213": 4655,
      "221": 4656,
      "223": 4657,
      "224": 4658,
      "32": 4659,
      "319": 4660,
      "313": 4661,
      "321": 4662,
      "323": 4663,
      "318": 4664,
      "324": 4665,
      "322": 4666,
      "314": 4667,
      "311": 4668,
      "315": 4669,
      "326": 4670,
      "329": 4671,
      "325": 4672,
      "330": 4673,
      "316": 4674,
      "328": 4675,
      "389": 4676,
      "331": 4677,
      "350": 4678,
      "340": 4679,
      "344": 4680,
      "356": 4681,
      "357": 4682,
      "349": 4683,
      "359": 4684,
      "346": 4685,
      "347": 4686,
      "348": 4687,
      "3rd": 4688,
      "41": 4689,
      "420": 4690,
      "410": 4691,
      "419": 4692,
      "413": 4693,
      "421": 4694,
      "423": 4695,
      "424": 4696,
      "412": 4697,
      "417": 4698,
      "422": 4699,
      "414": 4700,
      "411": 4701,
      "400": 4702,
      "415": 4703,
      "426": 4704,
      "425": 4705,
      "427": 4706,
      "430": 4707,
      "416": 4708,
      "428": 4709,
      "489": 4710,
      "431": 4711,
      "450": 4712,
      "433": 4713,
      "456": 4714,
      "457": 4715,
      "437": 4716,
      "439": 4717,
      "458": 4718,
      "459": 4719,
      "436": 4720,
      "438": 4721,
      "435": 4722,
      "434": 4723,
      "51": 4724,
      "52": 4725,
      "520": 4726,
      "510": 4727,
      "519": 4728,
      "513": 4729,
      "521": 4730,
      "523": 4731,
      "518": 4732,
      "524": 4733,
      "512": 4734,
      "514": 4735,
      "511": 4736,
      "515": 4737,
      "526": 4738,
      "525": 4739,
      "527": 4740,
      "530": 4741,
      "528": 4742,
      "589": 4743,
      "531": 4744,
      "550": 4745,
      "540": 4746,
      "544": 4747,
      "533": 4748,
      "556": 4749,
      "557": 4750,
      "537": 4751,
      "539": 4752,
      "549": 4753,
      "558": 4754,
      "559": 4755,
      "536": 4756,
      "546": 4757,
      "547": 4758,
      "538": 4759,
      "548": 4760,
      "545": 4761,
      "535": 4762,
      "534": 4763,
      "52nd": 4764,
      "51st": 4765,
      "61": 4766,
      "62": 4767,
      "620": 4768,
      "610": 4769,
      "619": 4770,
      "613": 4771,
      "621": 4772,
      "623": 4773,
      "618": 4774,
      "624": 4775,
      "612": 4776,
      "617": 4777,
      "611": 4778,
      "600": 4779,
      "626": 4780,
      "629": 4781,
      "625": 4782,
      "627": 4783,
      "630": 4784,
      "616": 4785,
      "628": 4786,
      "631": 4787,
      "61st": 4788,
      "74": 4789,
      "7P": 4790,
      "779": 4791,
      "776": 4792,
      "71st": 4793,
      "81": 4794,
      "82": 4795,
      "83": 4796,
      "85": 4797,
      "86": 4798,
      "88": 4799,
      "825": 4800,
      "867": 4801,
      "8286": 4802,
      "94": 4803,
      "99": 4804,
      "950": 4805,
      "998": 4806,
      ":[": 4807,
      "://": 4808,
      "?\"": 4809,
      "?'": 4810,
      "?\",": 4811,
      "?)\".": 4812,
      "AF": 4813,
      "AP": 4814,
      "AY": 4815,
      "Ak": 4816,
      "Ay": 4817,
      "Aber": 4818,
      "AME": 4819,
      "Abr": 4820,
      "Ago": 4821,
      "Aston": 4822,
      "Auck": 4823,
      "Auction": 4824,
      "Affects": 4825,
      "BR": 4826,
      "Ba": 4827,
      "Bi": 4828,
      "Bay": 4829,
      "Bom": 4830,
      "Bas": 4831,
      "Bus": 4832,
      "Bent": 4833,
      "Bet": 4834,
      "Bir": 4835,
      "But": 4836,
      "Bone": 4837,
      "Bun": 4838,
      "Ball": 4839,
      "Buc": 4840,
      "Bry": 4841,
      "Bream": 4842,
      "Bark": 4843,
      "Bai": 4844,
      "Bower": 4845,
      "Burn": 4846,
      "Born": 4847,
      "BRI": 4848,
      "Benef": 4849,
      "Birth": 4850,
      "Baum": 4851,
      "Bunch": 4852,
      "Babe": 4853,
      "Berks": 4854,
      "CH": 4855,
      "CP": 4856,
      "Cy": 4857,
      "Cer": 4858,
      "Cor": 4859,
      "Che": 4860,
      "Cov": 4861,
      "Cit": 4862,
      "Cop": 4863,
      "Cam": 4864,
      "Cow": 4865,
      "Cir": 4866,
      "Clo": 4867,
      "Cav": 4868,
      "Cold": 4869,
      "Come": 4870,
      "Cens": 4871,
      "Cass": 4872,
      "Cited": 4873,
      "Crist": 4874,
      "Cather": 4875,
      "Could": 4876,
      "Copies": 4877,
      "Culture": 4878,
      "Cynth": 4879,
      "Code": 4880,
      "Caplan": 4881,
      "Categ": 4882,
      "Campaign": 4883,
      "CNBC": 4884,
      "Cumulative": 4885,
      "CNE": 4886,
      "Curi": 4887,
      "DJ": 4888,
      "DX": 4889,
      "Db": 4890,
      "Dy": 4891,
      "Ded": 4892,
      "Dar": 4893,
      "Dri": 4894,
      "Dem": 4895,
      "Dist": 4896,
      "Did": 4897,
      "Done": 4898,
      "Dul": 4899,
      "Die": 4900,
      "Date": 4901,
      "Dell": 4902,
      "Dish": 4903,
      "Dance": 4904,
      "Dock": 4905,
      "Dele": 4906,
      "Daz": 4907,
      "Dates": 4908,
      "Dway": 4909,
      "Dating": 4910,
      "Document": 4911,
      "Double": 4912,
      "Differ": 4913,
      "Della": 4914,
      "Daly": 4915,
      "Debate": 4916,
      "Detw": 4917,
      "Dolled": 4918,
      "Dodd": 4919,
      "EX": 4920,
      "Ev": 4921,
      "Est": 4922,
      "Eas": 4923,
      "Eur": 4924,
      "Ether": 4925,
      "Eell": 4926,
      "Each": 4927,
      "Eph": 4928,
      "Eves": 4929,
      "Event": 4930,
      "Effects": 4931,
      "Escape": 4932,
      "Evolutionary": 4933,
      "E7P": 4934,
      "FF": 4935,
      "FL": 4936,
      "FM": 4937,
      "Fig": 4938,
      "Fic": 4939,
      "Fre": 4940,
      "Fit": 4941,
      "Foc": 4942,
      "Flo": 4943,
      "Fun": 4944,
      "Fine": 4945,
      "Fare": 4946,
      "Fore": 4947,
      "Fant": 4948,
      "Fight": 4949,
      "Find": 4950,
      "Fights": 4951,
      "Faw": 4952,
      "Fink": 4953,
      "Flight": 4954,
      "Face": 4955,
      "Fey": 4956,
      "Frig": 4957,
      "Fitch": 4958,
      "Fancy": 4959,
      "Freed": 4960,
      "Filled": 4961,
      "Focus": 4962,
      "Floyd": 4963,
      "Fastest": 4964,
      "Festiv": 4965,
      "GO": 4966,
      "Gor": 4967,
      "Gal": 4968,
      "Gri": 4969,
      "Gay": 4970,
      "Gug": 4971,
      "Gol": 4972,
      "Gone": 4973,
      "Gend": 4974,
      "Gun": 4975,
      "Gast": 4976,
      "Grec": 4977,
      "Game": 4978,
      "Gome": 4979,
      "Gift": 4980,
      "Grig": 4981,
      "Gala": 4982,
      "Gaga": 4983,
      "HL": 4984,
      "Ha": 4985,
      "Hon": 4986,
      "Hay": 4987,
      "Hat": 4988,
      "Hand": 4989,
      "Hop": 4990,
      "Ham": 4991,
      "Hust": 4992,
      "Hid": 4993,
      "Hir": 4994,
      "Hil": 4995,
      "Host": 4996,
      "Hud": 4997,
      "Hold": 4998,
      "Haul": 4999,
      "Hais": 5000,
      "Hip": 5001,
      "Happ": 5002,
      "Hollow": 5003,
      "HAI": 5004,
      "Haim": 5005,
      "Hyd": 5006,
      "Hier": 5007,
      "Hamm": 5008,
      "Hockey": 5009,
      "Holiday": 5010,
      "IA": 5011,
      "IM": 5012,
      "IO": 5013,
      "IR": 5014,
      "IV": 5015,
      "Ian": 5016,
      "Ill": 5017,
      "Ias": 5018,
      "Idi": 5019,
      "Iker": 5020,
      "JS": 5021,
      "Je": 5022,
      "Ji": 5023,
      "Jer": 5024,
      "Jor": 5025,
      "Jen": 5026,
      "Jill": 5027,
      "Jam": 5028,
      "Jac": 5029,
      "Jess": 5030,
      "Jet": 5031,
      "Jak": 5032,
      "Jod": 5033,
      "Jens": 5034,
      "Jolly": 5035,
      "KT": 5036,
      "KY": 5037,
      "Kr": 5038,
      "Ku": 5039,
      "Kin": 5040,
      "Kes": 5041,
      "Kill": 5042,
      "Kher": 5043,
      "Kir": 5044,
      "Kris": 5045,
      "Kans": 5046,
      "Kev": 5047,
      "Koss": 5048,
      "Kings": 5049,
      "Krist": 5050,
      "Kidd": 5051,
      "Kemp": 5052,
      "Kait": 5053,
      "Khan": 5054,
      "LO": 5055,
      "LW": 5056,
      "Lu": 5057,
      "Ly": 5058,
      "Lic": 5059,
      "Land": 5060,
      "Lim": 5061,
      "Lol": 5062,
      "Lap": 5063,
      "Lab": 5064,
      "Log": 5065,
      "Lenn": 5066,
      "Lach": 5067,
      "Light": 5068,
      "Lind": 5069,
      "Lang": 5070,
      "Lev": 5071,
      "Lock": 5072,
      "Lets": 5073,
      "Lift": 5074,
      "Lady": 5075,
      "Labor": 5076,
      "Lana": 5077,
      "Lutz": 5078,
      "Luk": 5079,
      "Lanford": 5080,
      "MB": 5081,
      "MR": 5082,
      "Mr": 5083,
      "Men": 5084,
      "Mem": 5085,
      "Mam": 5086,
      "Mid": 5087,
      "Mir": 5088,
      "Mul": 5089,
      "Mos": 5090,
      "Mil": 5091,
      "Mag": 5092,
      "Mend": 5093,
      "Mud": 5094,
      "Menn": 5095,
      "Mik": 5096,
      "Mult": 5097,
      "Mah": 5098,
      "Myl": 5099,
      "Matt": 5100,
      "Mass": 5101,
      "Maid": 5102,
      "Mood": 5103,
      "Match": 5104,
      "Mier": 5105,
      "Madel": 5106,
      "Mapes": 5107,
      "Masters": 5108,
      "Meddings": 5109,
      "MIA": 5110,
      "Nat": 5111,
      "Nas": 5112,
      "Nos": 5113,
      "Nud": 5114,
      "Nik": 5115,
      "Nish": 5116,
      "Nina": 5117,
      "Names": 5118,
      "Nature": 5119,
      "Nearly": 5120,
      "NAA": 5121,
      "Ninth": 5122,
      "Nils": 5123,
      "NMP": 5124,
      "Nostalgia": 5125,
      "NFL": 5126,
      "NHL": 5127,
      "OU": 5128,
      "Oh": 5129,
      "Oft": 5130,
      "Oil": 5131,
      "Opr": 5132,
      "Oli": 5133,
      "OFF": 5134,
      "Pa": 5135,
      "Pen": 5136,
      "Pus": 5137,
      "Pher": 5138,
      "Pad": 5139,
      "Pur": 5140,
      "Pep": 5141,
      "Pul": 5142,
      "Pend": 5143,
      "Pie": 5144,
      "Past": 5145,
      "Pact": 5146,
      "Peak": 5147,
      "Park": 5148,
      "Peop": 5149,
      "Pays": 5150,
      "Pens": 5151,
      "Paz": 5152,
      "Preview": 5153,
      "Pages": 5154,
      "Pivot": 5155,
      "POP": 5156,
      "Poses": 5157,
      "Qures": 5158,
      "RK": 5159,
      "RT": 5160,
      "Ra": 5161,
      "Ric": 5162,
      "Ris": 5163,
      "Rit": 5164,
      "Rot": 5165,
      "Rog": 5166,
      "Rare": 5167,
      "Rav": 5168,
      "Riz": 5169,
      "Raph": 5170,
      "Right": 5171,
      "Ross": 5172,
      "Rough": 5173,
      "Rich": 5174,
      "Rather": 5175,
      "Rape": 5176,
      "Ranging": 5177,
      "Ranks": 5178,
      "R120": 5179,
      "RED": 5180,
      "Ramon": 5181,
      "REP": 5182,
      "Ramy": 5183,
      "Rules": 5184,
      "Ranking": 5185,
      "RJS": 5186,
      "RMB": 5187,
      "S7": 5188,
      "SN": 5189,
      "ST": 5190,
      "SW": 5191,
      "Sj": 5192,
      "Sk": 5193,
      "San": 5194,
      "Sal": 5195,
      "Stri": 5196,
      "Sand": 5197,
      "Sle": 5198,
      "Sher": 5199,
      "Sim": 5200,
      "Sol": 5201,
      "Sir": 5202,
      "Sod": 5203,
      "Sia": 5204,
      "Sab": 5205,
      "Squ": 5206,
      "Sure": 5207,
      "Seat": 5208,
      "Sext": 5209,
      "Stra": 5210,
      "Suk": 5211,
      "Syd": 5212,
      "Sally": 5213,
      "Semin": 5214,
      "Synth": 5215,
      "Sweet": 5216,
      "Simm": 5217,
      "Solid": 5218,
      "Size": 5219,
      "SAG": 5220,
      "Saga": 5221,
      "TM": 5222,
      "TV": 5223,
      "Ts": 5224,
      "Tor": 5225,
      "Ted": 5226,
      "Tal": 5227,
      "Ten": 5228,
      "Tot": 5229,
      "Test": 5230,
      "Tie": 5231,
      "Tall": 5232,
      "Tuc": 5233,
      "TNews": 5234,
      "Tell": 5235,
      "Tammy": 5236,
      "Tai": 5237,
      "Text": 5238,
      "Tatt": 5239,
      "Take": 5240,
      "There": 5241,
      "TRI": 5242,
      "Tender": 5243,
      "TIF": 5244,
      "TRA": 5245,
      "Takes": 5246,
      "Tabloid": 5247,
      "Troy": 5248,
      "TAY": 5249,
      "TOU": 5250,
      "TS7": 5251,
      "Uh": 5252,
      "Ul": 5253,
      "Ut": 5254,
      "Use": 5255,
      "UMP": 5256,
      "Urie": 5257,
      "Vn": 5258,
      "Vin": 5259,
      "Ven": 5260,
      "Vit": 5261,
      "Vad": 5262,
      "Vol": 5263,
      "Voc": 5264,
      "Vag": 5265,
      "Vick": 5266,
      "Vital": 5267,
      "Vision": 5268,
      "Vict": 5269,
      "Vern": 5270,
      "Voter": 5271,
      "Velve": 5272,
      "WS": 5273,
      "Wa": 5274,
      "Way": 5275,
      "Went": 5276,
      "Wide": 5277,
      "Wine": 5278,
      "Wade": 5279,
      "Wais": 5280,
      "Wyn": 5281,
      "Wyl": 5282,
      "Wond": 5283,
      "Wrote": 5284,
      "Winter": 5285,
      "Would": 5286,
      "Where": 5287,
      "Wars": 5288,
      "Wanna": 5289,
      "Warr": 5290,
      "WCA": 5291,
      "Wants": 5292,
      "Wrap": 5293,
      "Wedd": 5294,
      "Xand": 5295,
      "Yu": 5296,
      "Yes": 5297,
      "Yot": 5298,
      "Yet": 5299,
      "YMM": 5300,
      "Yeh": 5301,
      "YPul": 5302,
      "Zh": 5303,
      "Zo": 5304,
      "Zay": 5305,
      "Zem": 5306,
      "Zol": 5307,
      "Zoll": 5308,
      "Zell": 5309,
      "Zha": 5310,
      "Zara": 5311,
      "ae": 5312,
      "aj": 5313,
      "ahe": 5314,
      "aat": 5315,
      "aes": 5316,
      "aus": 5317,
      "aBl": 5318,
      "afer": 5319,
      "aited": 5320,
      "aired": 5321,
      "auction": 5322,
      "bom": 5323,
      "bill": 5324,
      "bine": 5325,
      "bound": 5326,
      "bach": 5327,
      "bish": 5328,
      "batt": 5329,
      "bough": 5330,
      "burn": 5331,
      "bile": 5332,
      "banks": 5333,
      "baum": 5334,
      "buster": 5335,
      "bait": 5336,
      "bination": 5337,
      "betw": 5338,
      "bastic": 5339,
      "ck": 5340,
      "cs": 5341,
      "cv": 5342,
      "cé": 5343,
      "crom": 5344,
      "cam": 5345,
      "cad": 5346,
      "coun": 5347,
      "col": 5348,
      "cut": 5349,
      "cia": 5350,
      "clo": 5351,
      "cend": 5352,
      "cog": 5353,
      "cash": 5354,
      "cro": 5355,
      "cry": 5356,
      "cock": 5357,
      "cite": 5358,
      "coff": 5359,
      "cement": 5360,
      "cident": 5361,
      "cott": 5362,
      "cause": 5363,
      "cially": 5364,
      "citing": 5365,
      "curi": 5366,
      "cination": 5367,
      "caught": 5368,
      "du": 5369,
      "dar": 5370,
      "dan": 5371,
      "dat": 5372,
      "dom": 5373,
      "done": 5374,
      "doll": 5375,
      "dog": 5376,
      "dork": 5377,
      "dyn": 5378,
      "dates": 5379,
      "due": 5380,
      "dull": 5381,
      "data": 5382,
      "danc": 5383,
      "depend": 5384,
      "double": 5385,
      "dged": 5386,
      "dads": 5387,
      "daugh": 5388,
      "debate": 5389,
      "duct": 5390,
      "dcro": 5391,
      "eu": 5392,
      "ez": 5393,
      "eas": 5394,
      "ead": 5395,
      "eigh": 5396,
      "ege": 5397,
      "eered": 5398,
      "eges": 5399,
      "fj": 5400,
      "fr": 5401,
      "fu": 5402,
      "fé": 5403,
      "fig": 5404,
      "fand": 5405,
      "fas": 5406,
      "fad": 5407,
      "foun": 5408,
      "fol": 5409,
      "fare": 5410,
      "fals": 5411,
      "fell": 5412,
      "fearless": 5413,
      "fety": 5414,
      "fake": 5415,
      "furn": 5416,
      "food": 5417,
      "fict": 5418,
      "fuel": 5419,
      "famous": 5420,
      "factor": 5421,
      "feder": 5422,
      "future": 5423,
      "fense": 5424,
      "finally": 5425,
      "fiddle": 5426,
      "festiv": 5427,
      "files": 5428,
      "gay": 5429,
      "gre": 5430,
      "git": 5431,
      "give": 5432,
      "gast": 5433,
      "gave": 5434,
      "gade": 5435,
      "gold": 5436,
      "gatt": 5437,
      "gets": 5438,
      "giant": 5439,
      "godd": 5440,
      "ho": 5441,
      "hy": 5442,
      "har": 5443,
      "hom": 5444,
      "hing": 5445,
      "hig": 5446,
      "hone": 5447,
      "hap": 5448,
      "hian": 5449,
      "hide": 5450,
      "hold": 5451,
      "hits": 5452,
      "hatt": 5453,
      "happ": 5454,
      "hired": 5455,
      "htt": 5456,
      "homes": 5457,
      "hamm": 5458,
      "holiday": 5459,
      "iat": 5460,
      "ien": 5461,
      "ieved": 5462,
      "iou": 5463,
      "ias": 5464,
      "iad": 5465,
      "irit": 5466,
      "iest": 5467,
      "icho": 5468,
      "iative": 5469,
      "iered": 5470,
      "iences": 5471,
      "iHeart": 5472,
      "ibert": 5473,
      "iators": 5474,
      "jam": 5475,
      "jockey": 5476,
      "kin": 5477,
      "king": 5478,
      "kept": 5479,
      "kee": 5480,
      "knew": 5481,
      "keen": 5482,
      "kamp": 5483,
      "kara": 5484,
      "la": 5485,
      "ls": 5486,
      "lst": 5487,
      "len": 5488,
      "lem": 5489,
      "lou": 5490,
      "lam": 5491,
      "lim": 5492,
      "lve": 5493,
      "luc": 5494,
      "lies": 5495,
      "lang": 5496,
      "law": 5497,
      "lake": 5498,
      "loss": 5499,
      "lively": 5500,
      "laud": 5501,
      "lier": 5502,
      "liel": 5503,
      "lovers": 5504,
      "mi": 5505,
      "mor": 5506,
      "mar": 5507,
      "may": 5508,
      "mat": 5509,
      "mom": 5510,
      "men": 5511,
      "mand": 5512,
      "member": 5513,
      "mas": 5514,
      "mis": 5515,
      "mist": 5516,
      "mers": 5517,
      "mart": 5518,
      "mot": 5519,
      "mine": 5520,
      "mare": 5521,
      "mere": 5522,
      "mish": 5523,
      "move": 5524,
      "mood": 5525,
      "mired": 5526,
      "mott": 5527,
      "mined": 5528,
      "money": 5529,
      "museum": 5530,
      "miration": 5531,
      "ny": 5532,
      "nas": 5533,
      "nur": 5534,
      "nie": 5535,
      "nav": 5536,
      "name": 5537,
      "nals": 5538,
      "night": 5539,
      "names": 5540,
      "nner": 5541,
      "nographic": 5542,
      "ninth": 5543,
      "nessed": 5544,
      "nakes": 5545,
      "nostalgia": 5546,
      "nific": 5547,
      "ox": 5548,
      "oved": 5549,
      "ole": 5550,
      "oly": 5551,
      "owit": 5552,
      "oiced": 5553,
      "oided": 5554,
      "oE7P": 5555,
      "pu": 5556,
      "py": 5557,
      "pin": 5558,
      "pion": 5559,
      "pec": 5560,
      "pun": 5561,
      "pack": 5562,
      "pare": 5563,
      "past": 5564,
      "piz": 5565,
      "page": 5566,
      "putation": 5567,
      "pann": 5568,
      "pents": 5569,
      "pting": 5570,
      "path": 5571,
      "pitch": 5572,
      "pull": 5573,
      "paste": 5574,
      "pted": 5575,
      "ptic": 5576,
      "paternal": 5577,
      "ring": 5578,
      "rus": 5579,
      "ress": 5580,
      "roll": 5581,
      "rall": 5582,
      "rack": 5583,
      "rav": 5584,
      "round": 5585,
      "rant": 5586,
      "rance": 5587,
      "ross": 5588,
      "rina": 5589,
      "ramp": 5590,
      "rented": 5591,
      "rose": 5592,
      "rera": 5593,
      "ronic": 5594,
      "ranging": 5595,
      "rinth": 5596,
      "rules": 5597,
      "range": 5598,
      "ranking": 5599,
      "rhy": 5600,
      "sy": 5601,
      "som": 5602,
      "sem": 5603,
      "sou": 5604,
      "sum": 5605,
      "sust": 5606,
      "sent": 5607,
      "sug": 5608,
      "see": 5609,
      "sse": 5610,
      "sigh": 5611,
      "sect": 5612,
      "sang": 5613,
      "syn": 5614,
      "soft": 5615,
      "sday": 5616,
      "sets": 5617,
      "scri": 5618,
      "slight": 5619,
      "sky": 5620,
      "sym": 5621,
      "sends": 5622,
      "svideos": 5623,
      "sses": 5624,
      "sweep": 5625,
      "sLiving": 5626,
      "smart": 5627,
      "snakes": 5628,
      "tes": 5629,
      "tum": 5630,
      "tak": 5631,
      "tie": 5632,
      "tack": 5633,
      "tect": 5634,
      "tte": 5635,
      "tight": 5636,
      "ture": 5637,
      "tree": 5638,
      "tens": 5639,
      "take": 5640,
      "tapp": 5641,
      "tured": 5642,
      "tty": 5643,
      "tics": 5644,
      "tending": 5645,
      "tail": 5646,
      "tapes": 5647,
      "tcz": 5648,
      "taught": 5649,
      "uth": 5650,
      "uit": 5651,
      "uong": 5652,
      "uity": 5653,
      "uals": 5654,
      "uating": 5655,
      "uages": 5656,
      "uished": 5657,
      "vary": 5658,
      "vive": 5659,
      "vast": 5660,
      "vant": 5661,
      "vote": 5662,
      "vital": 5663,
      "vement": 5664,
      "vable": 5665,
      "voter": 5666,
      "valentine": 5667,
      "vances": 5668,
      "voiced": 5669,
      "wa": 5670,
      "wed": 5671,
      "went": 5672,
      "web": 5673,
      "weak": 5674,
      "watch": 5675,
      "wunder": 5676,
      "wald": 5677,
      "weddings": 5678,
      "xic": 5679,
      "xiety": 5680,
      "yk": 5681,
      "yes": 5682,
      "yel": 5683,
      "your": 5684,
      "yment": 5685,
      "yond": 5686,
      "yson": 5687,
      "ype": 5688,
      "ytale": 5689,
      "zy": 5690,
      "zz": 5691,
      "zen": 5692,
      "zia": 5693,
      "zian": 5694,
      "zoff": 5695,
      "zling": 5696,
      "zko": 5697,
      "ás": 5698,
      "ís": 5699,
      "ña": 5700,
      "öberg": 5701,
      "203": 5702,
      "204": 5703,
      "207": 5704,
      "208": 5705,
      "erod": 5706,
      "eries": 5707,
      "erland": 5708,
      "erling": 5709,
      "erature": 5710,
      "ercial": 5711,
      "ermo": 5712,
      "org": 5713,
      "orus": 5714,
      "orit": 5715,
      "oration": 5716,
      "orts": 5717,
      "orated": 5718,
      "ority": 5719,
      "orph": 5720,
      "orded": 5721,
      "orrow": 5722,
      "orient": 5723,
      "oriad": 5724,
      "inis": 5725,
      "inum": 5726,
      "inew": 5727,
      "ints": 5728,
      "inte": 5729,
      "inions": 5730,
      "inten": 5731,
      "inbur": 5732,
      "inating": 5733,
      "inued": 5734,
      "inues": 5735,
      "informed": 5736,
      "incident": 5737,
      "edly": 5738,
      "edits": 5739,
      "edited": 5740,
      "editor": 5741,
      "edule": 5742,
      "ons": 5743,
      "ones": 5744,
      "onto": 5745,
      "onard": 5746,
      "onent": 5747,
      "onav": 5748,
      "onte": 5749,
      "onlight": 5750,
      "onical": 5751,
      "onics": 5752,
      "onstage": 5753,
      "oncé": 5754,
      "held": 5755,
      "height": 5756,
      "hears": 5757,
      "aring": 5758,
      "arly": 5759,
      "army": 5760,
      "argu": 5761,
      "arche": 5762,
      "arms": 5763,
      "arizing": 5764,
      "armed": 5765,
      "arcs": 5766,
      "anom": 5767,
      "aning": 5768,
      "anne": 5769,
      "anet": 5770,
      "anco": 5771,
      "anced": 5772,
      "anche": 5773,
      "anza": 5774,
      "analy": 5775,
      "animated": 5776,
      "thea": 5777,
      "thes": 5778,
      "theories": 5779,
      "theater": 5780,
      "thetics": 5781,
      "alt": 5782,
      "alle": 5783,
      "alist": 5784,
      "along": 5785,
      "alone": 5786,
      "alie": 5787,
      "alism": 5788,
      "alistsAmerican": 5789,
      "alien": 5790,
      "aluating": 5791,
      "rier": 5792,
      "ried": 5793,
      "rich": 5794,
      "riage": 5795,
      "richer": 5796,
      "ribute": 5797,
      "rified": 5798,
      "stat": 5799,
      "stig": 5800,
      "station": 5801,
      "step": 5802,
      "stations": 5803,
      "styl": 5804,
      "stalk": 5805,
      "stuff": 5806,
      "stalking": 5807,
      "stamm": 5808,
      "stores": 5809,
      "strives": 5810,
      "stamina": 5811,
      "wig": 5812,
      "will": 5813,
      "wife": 5814,
      "wipes": 5815,
      "fther": 5816,
      "ayton": 5817,
      "aygun": 5818,
      "Swiftie": 5819,
      "Swift1989": 5820,
      "Swiftonom": 5821,
      "Rev": 5822,
      "Rey": 5823,
      "Real": 5824,
      "Rest": 5825,
      "Rele": 5826,
      "Rene": 5827,
      "Reid": 5828,
      "Reform": 5829,
      "Rebec": 5830,
      "Reign": 5831,
      "Relat": 5832,
      "Remade": 5833,
      "Remain": 5834,
      "Rend": 5835,
      "Represent": 5836,
      "Reliving": 5837,
      "Reimag": 5838,
      "Required": 5839,
      "Revolutionary": 5840,
      "Remember": 5841,
      "Renner": 5842,
      "berly": 5843,
      "berated": 5844,
      "berger": 5845,
      "berlake": 5846,
      "chas": 5847,
      "chame": 5848,
      "church": 5849,
      "chronic": 5850,
      "chorus": 5851,
      "channe": 5852,
      "ats": 5853,
      "atom": 5854,
      "atto": 5855,
      "atic": 5856,
      "atre": 5857,
      "atory": 5858,
      "atext": 5859,
      "atives": 5860,
      "atural": 5861,
      "attribut": 5862,
      "atories": 5863,
      "attributed": 5864,
      "atosphere": 5865,
      "omon": 5866,
      "omedy": 5867,
      "omsky": 5868,
      "202614": 5869,
      "ese": 5870,
      "esest": 5871,
      "escent": 5872,
      "esday": 5873,
      "esche": 5874,
      "esFemale": 5875,
      "es21st": 5876,
      "escap": 5877,
      "esque": 5878,
      "espec": 5879,
      "ened": 5880,
      "enon": 5881,
      "ensu": 5882,
      "enough": 5883,
      "enjo": 5884,
      "englo": 5885,
      "enberg": 5886,
      "encour": 5887,
      "energy": 5888,
      "encyclopedia": 5889,
      "enbaum": 5890,
      "encement": 5891,
      "enzy": 5892,
      "\"...": 5893,
      "emo": 5894,
      "eming": 5895,
      "emost": 5896,
      "empl": 5897,
      "embr": 5898,
      "emiss": 5899,
      "embro": 5900,
      "emiere": 5901,
      "inging": 5902,
      "inguished": 5903,
      "lorful": 5904,
      "triol": 5905,
      "triple": 5906,
      "trips": 5907,
      "igate": 5908,
      "igence": 5909,
      "igrant": 5910,
      "lla": 5911,
      "lli": 5912,
      "Taylorman": 5913,
      "too": 5914,
      "toward": 5915,
      "toxic": 5916,
      "icing": 5917,
      "icit": 5918,
      "icia": 5919,
      "ician": 5920,
      "icab": 5921,
      "icies": 5922,
      "ications": 5923,
      "icians": 5924,
      "icism": 5925,
      "iconic": 5926,
      "icator": 5927,
      "icago": 5928,
      "andal": 5929,
      "andro": 5930,
      "andling": 5931,
      "rea": 5932,
      "rey": 5933,
      "rely": 5934,
      "refer": 5935,
      "repres": 5936,
      "reject": 5937,
      "return": 5938,
      "reinv": 5939,
      "reason": 5940,
      "represent": 5941,
      "rebirth": 5942,
      "rebell": 5943,
      "required": 5944,
      "restrained": 5945,
      "reputation": 5946,
      "rehears": 5947,
      "thon": 5948,
      "thir": 5949,
      "thank": 5950,
      "thanked": 5951,
      "threat": 5952,
      "thms": 5953,
      "thrill": 5954,
      "ases": 5955,
      "asers": 5956,
      "ashi": 5957,
      "asco": 5958,
      "aspect": 5959,
      "aspi": 5960,
      "asaygun": 5961,
      "Arames": 5962,
      "Arden": 5963,
      "Arrives": 5964,
      "Arwa": 5965,
      "Arashi": 5966,
      "ofessor": 5967,
      "chie": 5968,
      "origins": 5969,
      "originating": 5970,
      "ardine": 5971,
      "ecif": 5972,
      "ecurities": 5973,
      "ecorded": 5974,
      "illat": 5975,
      "illermo": 5976,
      "lee": 5977,
      "leon": 5978,
      "left": 5979,
      "leil": 5980,
      "leag": 5981,
      "leave": 5982,
      "leton": 5983,
      "leaving": 5984,
      "leaning": 5985,
      "oval": 5986,
      "uss": 5987,
      "using": 5988,
      "usage": 5989,
      "uskey": 5990,
      "Juli": 5991,
      "Julia": 5992,
      "Juried": 5993,
      "Julee": 5994,
      "isn": 5995,
      "ises": 5996,
      "isand": 5997,
      "issu": 5998,
      "iscan": 5999,
      "isded": 6000,
      "isode": 6001,
      "iseries": 6002,
      "itim": 6003,
      "itut": 6004,
      "itter": 6005,
      "itud": 6006,
      "itate": 6007,
      "iture": 6008,
      "itions": 6009,
      "itai": 6010,
      "itment": 6011,
      "itable": 6012,
      "items": 6013,
      "itution": 6014,
      "itiative": 6015,
      "Theon": 6016,
      "Theatre": 6017,
      "ummy": 6018,
      "umps": 6019,
      "forward": 6020,
      "forges": 6021,
      "foremost": 6022,
      "ope": 6023,
      "oping": 6024,
      "opers": 6025,
      "opting": 6026,
      "opping": 6027,
      "opinions": 6028,
      "ami": 6029,
      "amour": 6030,
      "amass": 6031,
      "amics": 6032,
      "ambassador": 6033,
      "amored": 6034,
      "amorph": 6035,
      "amicab": 6036,
      "istered": 6037,
      "istics": 6038,
      "istible": 6039,
      "istaat": 6040,
      "adz": 6041,
      "adol": 6042,
      "adult": 6043,
      "admitted": 6044,
      "adiators": 6045,
      "admired": 6046,
      "nest": 6047,
      "nell": 6048,
      "never": 6049,
      "nett": 6050,
      "neuro": 6051,
      "neider": 6052,
      "ental": 6053,
      "entine": 6054,
      "entless": 6055,
      "entions": 6056,
      "ership": 6057,
      "ersCont": 6058,
      "box": 6059,
      "bott": 6060,
      "body": 6061,
      "bolst": 6062,
      "bosses": 6063,
      "Decision": 6064,
      "Decoration": 6065,
      "tras": 6066,
      "trot": 6067,
      "trag": 6068,
      "trap": 6069,
      "tract": 6070,
      "trance": 6071,
      "trends": 6072,
      "trophi": 6073,
      "traditional": 6074,
      "truth": 6075,
      "trumps": 6076,
      "Bills": 6077,
      "idst": 6078,
      "idge": 6079,
      "urina": 6080,
      "urged": 6081,
      "urbish": 6082,
      "urring": 6083,
      "ursday": 6084,
      "artz": 6085,
      "arten": 6086,
      "artling": 6087,
      "artments": 6088,
      "iman": 6089,
      "imes": 6090,
      "imel": 6091,
      "imone": 6092,
      "impr": 6093,
      "impl": 6094,
      "imony": 6095,
      "impos": 6096,
      "imbs": 6097,
      "imalist": 6098,
      "imitate": 6099,
      "ongsvideos": 6100,
      "Oct": 6101,
      "Occup": 6102,
      "aced": 6103,
      "aces": 6104,
      "acts": 6105,
      "acular": 6106,
      "according": 6107,
      "acious": 6108,
      "acrest": 6109,
      "across": 6110,
      "acuity": 6111,
      "Still": 6112,
      "Stee": 6113,
      "Stall": 6114,
      "Strec": 6115,
      "Stage": 6116,
      "Stein": 6117,
      "Styles": 6118,
      "Status": 6119,
      "Stunt": 6120,
      "Steff": 6121,
      "Staff": 6122,
      "Starts": 6123,
      "Stores": 6124,
      "Stanford": 6125,
      "Stamina": 6126,
      "Started": 6127,
      "Sterling": 6128,
      "Startling": 6129,
      "Stimel": 6130,
      "els": 6131,
      "eland": 6132,
      "elabor": 6133,
      "election": 6134,
      "elode": 6135,
      "elections": 6136,
      "elopers": 6137,
      "owd": 6138,
      "owes": 6139,
      "owne": 6140,
      "owess": 6141,
      "owback": 6142,
      "boardcharts": 6143,
      "ugural": 6144,
      "uggle": 6145,
      "ugues": 6146,
      "102": 6147,
      "103": 6148,
      "104": 6149,
      "105": 6150,
      "106": 6151,
      "107": 6152,
      "108": 6153,
      "109": 6154,
      "10th": 6155,
      "102nd": 6156,
      "1093": 6157,
      "earli": 6158,
      "earlier": 6159,
      "ots": 6160,
      "otations": 6161,
      "otype": 6162,
      "riti": 6163,
      "ols": 6164,
      "olin": 6165,
      "olade": 6166,
      "olized": 6167,
      "olau": 6168,
      "olving": 6169,
      "olastic": 6170,
      "olarly": 6171,
      "2003": 6172,
      "essing": 6173,
      "essandro": 6174,
      "Augusta": 6175,
      "eback": 6176,
      "ebrow": 6177,
      "epens": 6178,
      "eponym": 6179,
      "episode": 6180,
      "vestig": 6181,
      "etto": 6182,
      "etings": 6183,
      "etta": 6184,
      "eticism": 6185,
      "etimes": 6186,
      "irt": 6187,
      "irer": 6188,
      "irus": 6189,
      "irley": 6190,
      "irms": 6191,
      "irrespect": 6192,
      "irns": 6193,
      "utives": 6194,
      "utner": 6195,
      "utality": 6196,
      "ourful": 6197,
      "within": 6198,
      "without": 6199,
      "ests": 6200,
      "estate": 6201,
      "Insp": 6202,
      "Inqu": 6203,
      "Intim": 6204,
      "Includ": 6205,
      "Insec": 6206,
      "Instr": 6207,
      "Information": 6208,
      "Introduc": 6209,
      "Incredible": 6210,
      "Initially": 6211,
      "Ingham": 6212,
      "Intens": 6213,
      "Initiative": 6214,
      "Investig": 6215,
      "Newly": 6216,
      "Newman": 6217,
      "Newfound": 6218,
      "Apolog": 6219,
      "Appe": 6220,
      "Appear": 6221,
      "cease": 6222,
      "ceeds": 6223,
      "MusicBr": 6224,
      "coran": 6225,
      "correct": 6226,
      "correspond": 6227,
      "coronav": 6228,
      "wardro": 6229,
      "191": 6230,
      "193": 6231,
      "194": 6232,
      "195": 6233,
      "196": 6234,
      "197": 6235,
      "198": 6236,
      "199": 6237,
      "1939": 6238,
      "1945": 6239,
      "1980": 6240,
      "1976": 6241,
      "1991": 6242,
      "1971": 6243,
      "ults": 6244,
      "ulative": 6245,
      "eptics": 6246,
      "Marc": 6247,
      "Mars": 6248,
      "Maren": 6249,
      "Maria": 6250,
      "Marian": 6251,
      "Marie": 6252,
      "Marco": 6253,
      "Marks": 6254,
      "Maybell": 6255,
      "Chance": 6256,
      "China": 6257,
      "Charity": 6258,
      "Chines": 6259,
      "Chron": 6260,
      "Chicago": 6261,
      "aker": 6262,
      "oduce": 6263,
      "osAmerican": 6264,
      "osity": 6265,
      "osures": 6266,
      "Ampl": 6267,
      "Amidst": 6268,
      "Awarding": 6269,
      "sings": 6270,
      "singless": 6271,
      "ild": 6272,
      "ilt": 6273,
      "ilar": 6274,
      "ilation": 6275,
      "Jane": 6276,
      "130": 6277,
      "131": 6278,
      "132": 6279,
      "133": 6280,
      "134": 6281,
      "135": 6282,
      "138": 6283,
      "139": 6284,
      "13th": 6285,
      "ocess": 6286,
      "ocated": 6287,
      "ocative": 6288,
      "211": 6289,
      "212": 6290,
      "214": 6291,
      "215": 6292,
      "216": 6293,
      "217": 6294,
      "218": 6295,
      "2156": 6296,
      "print": 6297,
      "predators": 6298,
      "princess": 6299,
      "program": 6300,
      "prowess": 6301,
      "produce": 6302,
      "process": 6303,
      "agg": 6304,
      "aging": 6305,
      "agree": 6306,
      "ague": 6307,
      "agile": 6308,
      "agran": 6309,
      "aglia": 6310,
      "agrance": 6311,
      "Alim": 6312,
      "Alice": 6313,
      "Alike": 6314,
      "Alanna": 6315,
      "Always": 6316,
      "Albar": 6317,
      "Alcott": 6318,
      "Althea": 6319,
      "Alicia": 6320,
      "Alessandro": 6321,
      "writers": 6322,
      "written": 6323,
      "Timbre": 6324,
      "Timberlake": 6325,
      "term": 6326,
      "terman": 6327,
      "terms": 6328,
      "termed": 6329,
      "terberger": 6330,
      "iable": 6331,
      "songbook": 6332,
      "230": 6333,
      "231": 6334,
      "233": 6335,
      "235": 6336,
      "236": 6337,
      "237": 6338,
      "238": 6339,
      "239": 6340,
      "2397": 6341,
      "2376": 6342,
      "approv": 6343,
      "apulted": 6344,
      "musicolog": 6345,
      "180": 6346,
      "181": 6347,
      "183": 6348,
      "184": 6349,
      "186": 6350,
      "188": 6351,
      "189": 6352,
      "1800s": 6353,
      "Anne": 6354,
      "Ania": 6355,
      "Angl": 6356,
      "Anally": 6357,
      "Anxiety": 6358,
      "Anatom": 6359,
      "Anitai": 6360,
      "240": 6361,
      "241": 6362,
      "242": 6363,
      "243": 6364,
      "244": 6365,
      "246": 6366,
      "249": 6367,
      "2469": 6368,
      "ianos": 6369,
      "122": 6370,
      "126": 6371,
      "127": 6372,
      "128": 6373,
      "129": 6374,
      "12th": 6375,
      "wasn": 6376,
      "171": 6377,
      "172": 6378,
      "175": 6379,
      "176": 6380,
      "177": 6381,
      "178": 6382,
      "179": 6383,
      "1787": 6384,
      "225": 6385,
      "227": 6386,
      "229": 6387,
      "byrinth": 6388,
      "look": 6389,
      "loads": 6390,
      "loamy": 6391,
      "aina": 6392,
      "ainz": 6393,
      "ainable": 6394,
      "sees": 6395,
      "seinsky": 6396,
      "seeming": 6397,
      "shelve": 6398,
      "tsen": 6399,
      "140": 6400,
      "141": 6401,
      "142": 6402,
      "144": 6403,
      "145": 6404,
      "146": 6405,
      "147": 6406,
      "148": 6407,
      "149": 6408,
      "ighs": 6409,
      "111": 6410,
      "115": 6411,
      "endon": 6412,
      "endary": 6413,
      "endless": 6414,
      "endance": 6415,
      "univers": 6416,
      "unpar": 6417,
      "unwit": 6418,
      "unknown": 6419,
      "uncommon": 6420,
      "unches": 6421,
      "unpreced": 6422,
      "unsust": 6423,
      "Graff": 6424,
      "Gradu": 6425,
      "Gracious": 6426,
      "hiatus": 6427,
      "hize": 6428,
      "abort": 6429,
      "abella": 6430,
      "absolutely": 6431,
      "abases": 6432,
      "ogg": 6433,
      "ogen": 6434,
      "ogle": 6435,
      "ogyn": 6436,
      "151": 6437,
      "152": 6438,
      "153": 6439,
      "154": 6440,
      "155": 6441,
      "158": 6442,
      "Spann": 6443,
      "Spice": 6444,
      "Spike": 6445,
      "Spectacle": 6446,
      "Speech": 6447,
      "Spokesperson": 6448,
      "Sports": 6449,
      "Specif": 6450,
      "261": 6451,
      "262": 6452,
      "263": 6453,
      "265": 6454,
      "267": 6455,
      "268": 6456,
      "269": 6457,
      "290": 6458,
      "291": 6459,
      "293": 6460,
      "294": 6461,
      "295": 6462,
      "296": 6463,
      "298": 6464,
      "299": 6465,
      "YearUniversal": 6466,
      "sued": 6467,
      "suprem": 6468,
      "251": 6469,
      "252": 6470,
      "253": 6471,
      "254": 6472,
      "255": 6473,
      "256": 6474,
      "258": 6475,
      "259": 6476,
      "25th": 6477,
      "270": 6478,
      "271": 6479,
      "272": 6480,
      "273": 6481,
      "274": 6482,
      "275": 6483,
      "276": 6484,
      "277": 6485,
      "ielle": 6486,
      "mann": 6487,
      "manip": 6488,
      "management": 6489,
      "maneu": 6490,
      "mantras": 6491,
      "uda": 6492,
      "idealism": 6493,
      "consin": 6494,
      "convin": 6495,
      "convey": 6496,
      "consist": 6497,
      "301": 6498,
      "302": 6499,
      "303": 6500,
      "305": 6501,
      "306": 6502,
      "307": 6503,
      "308": 6504,
      "309": 6505,
      "3030": 6506,
      "3087": 6507,
      "alled": 6508,
      "allow": 6509,
      "beyond": 6510,
      "exts": 6511,
      "excess": 6512,
      "expect": 6513,
      "exchanged": 6514,
      "exhib": 6515,
      "exempl": 6516,
      "Issue": 6517,
      "Isabella": 6518,
      "vio": 6519,
      "vier": 6520,
      "vior": 6521,
      "vibes": 6522,
      "vibr": 6523,
      "vitriol": 6524,
      "popstar": 6525,
      "Heran": 6526,
      "Herrera": 6527,
      "perin": 6528,
      "perts": 6529,
      "perman": 6530,
      "perstar": 6531,
      "perfect": 6532,
      "percuss": 6533,
      "perinsky": 6534,
      "160": 6535,
      "161": 6536,
      "162": 6537,
      "163": 6538,
      "164": 6539,
      "165": 6540,
      "166": 6541,
      "167": 6542,
      "169": 6543,
      "arek": 6544,
      "areAlike": 6545,
      "astical": 6546,
      "astating": 6547,
      "astoma": 6548,
      "comed": 6549,
      "comedy": 6550,
      "compositions": 6551,
      "complained": 6552,
      "combination": 6553,
      "comeback": 6554,
      "ifah": 6555,
      "Asia": 6556,
      "Aside": 6557,
      "Asker": 6558,
      "Asking": 6559,
      "orees": 6560,
      "280": 6561,
      "281": 6562,
      "282": 6563,
      "283": 6564,
      "284": 6565,
      "285": 6566,
      "288": 6567,
      "289": 6568,
      "hasiz": 6569,
      "aves": 6570,
      "avers": 6571,
      "avoided": 6572,
      "thern": 6573,
      "myself": 6574,
      "ecting": 6575,
      "ectual": 6576,
      "ivated": 6577,
      "ivity": 6578,
      "team": 6579,
      "teens": 6580,
      "teasers": 6581,
      "recent": 6582,
      "recoup": 6583,
      "recque": 6584,
      "recrack": 6585,
      "recalled": 6586,
      "action": 6587,
      "acters": 6588,
      "actions": 6589,
      "Joining": 6590,
      "click": 6591,
      "clues": 6592,
      "clients": 6593,
      "clips": 6594,
      "closures": 6595,
      "ples": 6596,
      "plus": 6597,
      "plant": 6598,
      "pluck": 6599,
      "plished": 6600,
      "ploma": 6601,
      "planet": 6602,
      "Without": 6603,
      "Allyson": 6604,
      "USIV": 6605,
      "ieson": 6606,
      "Article": 6607,
      "forming": 6608,
      "formats": 6609,
      "Newsround": 6610,
      "Thing": 6611,
      "Thous": 6612,
      "Thania": 6613,
      "Though": 6614,
      "Threat": 6615,
      "Throw": 6616,
      "Thursday": 6617,
      "spark": 6618,
      "spaw": 6619,
      "spectr": 6620,
      "spoke": 6621,
      "spirit": 6622,
      "spurring": 6623,
      "Report": 6624,
      "blem": 6625,
      "blown": 6626,
      "block": 6627,
      "blaz": 6628,
      "blue": 6629,
      "blems": 6630,
      "blessing": 6631,
      "blastoma": 6632,
      "room": 6633,
      "road": 6634,
      "roaring": 6635,
      "villa": 6636,
      "Conqu": 6637,
      "Conduct": 6638,
      "Connell": 6639,
      "Yousse": 6640,
      "gral": 6641,
      "ground": 6642,
      "grown": 6643,
      "gradu": 6644,
      "groping": 6645,
      "qui": 6646,
      "quill": 6647,
      "quick": 6648,
      "queen": 6649,
      "beca": 6650,
      "becomes": 6651,
      "eaker": 6652,
      "ffin": 6653,
      "izen": 6654,
      "izations": 6655,
      "Shore": 6656,
      "Shah": 6657,
      "Shaw": 6658,
      "Shined": 6659,
      "Shades": 6660,
      "Shape": 6661,
      "Shmick": 6662,
      "Shakes": 6663,
      "Shaming": 6664,
      "Shafer": 6665,
      "Shirley": 6666,
      "Shaina": 6667,
      "ShareAlike": 6668,
      "ceremony": 6669,
      "Grego": 6670,
      "Greta": 6671,
      "Greetings": 6672,
      "Noah": 6673,
      "elling": 6674,
      "McCl": 6675,
      "McDer": 6676,
      "McKay": 6677,
      "McDul": 6678,
      "McKin": 6679,
      "McLach": 6680,
      "McAnally": 6681,
      "avetes": 6682,
      "defied": 6683,
      "devast": 6684,
      "detract": 6685,
      "Erasure": 6686,
      "Enlist": 6687,
      "Enough": 6688,
      "Encour": 6689,
      "Encyclopedia": 6690,
      "Enamored": 6691,
      "Entrance": 6692,
      "Guillermo": 6693,
      "Weeks": 6694,
      "Weeknd": 6695,
      "numbers": 6696,
      "owns": 6697,
      "owned": 6698,
      "ownership": 6699,
      "aphor": 6700,
      "WorldPride": 6701,
      "ached": 6702,
      "achable": 6703,
      "topper": 6704,
      "lessons": 6705,
      "anta": 6706,
      "anti": 6707,
      "antics": 6708,
      "antiqu": 6709,
      "toured": 6710,
      "timate": 6711,
      "indicated": 6712,
      "indicator": 6713,
      "arkin": 6714,
      "arking": 6715,
      "anyone": 6716,
      "ishing": 6717,
      "ishments": 6718,
      "Acting": 6719,
      "Acoustic": 6720,
      "Accept": 6721,
      "Accompl": 6722,
      "anssen": 6723,
      "ansgender": 6724,
      "Poppy": 6725,
      "Trap": 6726,
      "Truck": 6727,
      "Traditional": 6728,
      "Transgender": 6729,
      "aise": 6730,
      "fiasco": 6731,
      "firecrack": 6732,
      "oky": 6733,
      "okie": 6734,
      "oklyn": 6735,
      "ariously": 6736,
      "annis": 6737,
      "annine": 6738,
      "Produc": 6739,
      "Pranks": 6740,
      "Princess": 6741,
      "Program": 6742,
      "Prae": 6743,
      "Premiere": 6744,
      "Professor": 6745,
      "Praise": 6746,
      "Unden": 6747,
      "Unstag": 6748,
      "Unabri": 6749,
      "Unbelie": 6750,
      "Unconcerned": 6751,
      "Unterberger": 6752,
      "died": 6753,
      "diamond": 6754,
      "diploma": 6755,
      "ght": 6756,
      "angements": 6757,
      "igned": 6758,
      "ignored": 6759,
      "critically": 6760,
      "gested": 6761,
      "shot": 6762,
      "short": 6763,
      "shown": 6764,
      "shares": 6765,
      "shape": 6766,
      "shines": 6767,
      "shouts": 6768,
      "shaming": 6769,
      "insecurities": 6770,
      "istsActresses": 6771,
      "Meeting": 6772,
      "Meyers": 6773,
      "safety": 6774,
      "upper": 6775,
      "upbr": 6776,
      "upsur": 6777,
      "upcoming": 6778,
      "why": 6779,
      "white": 6780,
      "whopping": 6781,
      "ograd": 6782,
      "501": 6783,
      "502": 6784,
      "503": 6785,
      "504": 6786,
      "505": 6787,
      "506": 6788,
      "507": 6789,
      "508": 6790,
      "509": 6791,
      "50K": 6792,
      "50th": 6793,
      "5072": 6794,
      "Brady": 6795,
      "Browne": 6796,
      "Brendon": 6797,
      "Midnight": 6798,
      "Toby": 6799,
      "Toomedy": 6800,
      "Tools": 6801,
      "evity": 6802,
      "evolving": 6803,
      "evocative": 6804,
      "iple": 6805,
      "ipped": 6806,
      "rict": 6807,
      "rically": 6808,
      "ricality": 6809,
      "newest": 6810,
      "Blends": 6811,
      "Blair": 6812,
      "Blanche": 6813,
      "Phone": 6814,
      "Phyll": 6815,
      "balurina": 6816,
      "flights": 6817,
      "flaw": 6818,
      "flipped": 6819,
      "sociopolit": 6820,
      "Attem": 6821,
      "Attribut": 6822,
      "Atkins": 6823,
      "away": 6824,
      "awaited": 6825,
      "awdads": 6826,
      "donation": 6827,
      "donate": 6828,
      "donations": 6829,
      "desist": 6830,
      "designed": 6831,
      "charted": 6832,
      "charting": 6833,
      "attending": 6834,
      "attitud": 6835,
      "attendance": 6836,
      "itez": 6837,
      "Anna": 6838,
      "Annie": 6839,
      "ographics": 6840,
      "401": 6841,
      "402": 6842,
      "403": 6843,
      "404": 6844,
      "405": 6845,
      "406": 6846,
      "407": 6847,
      "408": 6848,
      "Keep": 6849,
      "Roe": 6850,
      "Roth": 6851,
      "Rooney": 6852,
      "Anderson": 6853,
      "TennesseeGrammy": 6854,
      "TennesseeMTV": 6855,
      "TennesseeSony": 6856,
      "TennesseeRepublic": 6857,
      "TennesseeSingers": 6858,
      "TennesseePrimetime": 6859,
      "TennesseeActresses": 6860,
      "Jonath": 6861,
      "Jonze": 6862,
      "enses": 6863,
      "ensified": 6864,
      "assment": 6865,
      "assured": 6866,
      "RecordsTM": 6867,
      "Books": 6868,
      "Boeh": 6869,
      "center": 6870,
      "door": 6871,
      "dozen": 6872,
      "doña": 6873,
      "fourteen": 6874,
      "filmmak": 6875,
      "filmmaking": 6876,
      "guin": 6877,
      "listed": 6878,
      "listings": 6879,
      "research": 6880,
      "resurg": 6881,
      "resulted": 6882,
      "reshap": 6883,
      "resistible": 6884,
      "directing": 6885,
      "directly": 6886,
      "441": 6887,
      "442": 6888,
      "444": 6889,
      "446": 6890,
      "447": 6891,
      "448": 6892,
      "Being": 6893,
      "Beth": 6894,
      "Beard": 6895,
      "Began": 6896,
      "Beha": 6897,
      "Beginn": 6898,
      "Beavers": 6899,
      "Edward": 6900,
      "Edinbur": 6901,
      "Extra": 6902,
      "Exile": 6903,
      "Express": 6904,
      "Excite": 6905,
      "Extending": 6906,
      "Experts": 6907,
      "Harry": 6908,
      "Harbr": 6909,
      "Hargit": 6910,
      "Harvilla": 6911,
      "Only": 6912,
      "Once": 6913,
      "Online": 6914,
      "Wiki": 6915,
      "Wikiqu": 6916,
      "Wikinew": 6917,
      "azier": 6918,
      "evermore": 6919,
      "Interactive": 6920,
      "Interrup": 6921,
      "Interacting": 6922,
      "producing": 6923,
      "subtit": 6924,
      "submitted": 6925,
      "subscri": 6926,
      "artistsRecord": 6927,
      "artistsBrit": 6928,
      "artistsSinger": 6929,
      "artistsBaldi": 6930,
      "artistsSynth": 6931,
      "Leight": 6932,
      "Leena": 6933,
      "Leads": 6934,
      "Leahe": 6935,
      "Leonard": 6936,
      "League": 6937,
      "Leaves": 6938,
      "discri": 6939,
      "disappro": 6940,
      "disclose": 6941,
      "disclosures": 6942,
      "portion": 6943,
      "portant": 6944,
      "portfol": 6945,
      "receives": 6946,
      "India": 6947,
      "Induct": 6948,
      "apping": 6949,
      "apply": 6950,
      "performers": 6951,
      "332": 6952,
      "333": 6953,
      "334": 6954,
      "336": 6955,
      "337": 6956,
      "338": 6957,
      "339": 6958,
      "Cross": 6959,
      "Crossover": 6960,
      "Credits": 6961,
      "Crummy": 6962,
      "Cragg": 6963,
      "Crawdads": 6964,
      "Crazier": 6965,
      "DeLuc": 6966,
      "DeCaro": 6967,
      "Deeds": 6968,
      "DeVill": 6969,
      "Defense": 6970,
      "Deepens": 6971,
      "Monde": 6972,
      "Monuments": 6973,
      "Monitor": 6974,
      "Monius": 6975,
      "Monkey": 6976,
      "daydream": 6977,
      "eeney": 6978,
      "noticed": 6979,
      "orship": 6980,
      "choice": 6981,
      "related": 6982,
      "relocated": 6983,
      "openly": 6984,
      "tracked": 6985,
      "560": 6986,
      "561": 6987,
      "562": 6988,
      "563": 6989,
      "564": 6990,
      "565": 6991,
      "566": 6992,
      "567": 6993,
      "568": 6994,
      "56th": 6995,
      "570": 6996,
      "571": 6997,
      "572": 6998,
      "573": 6999,
      "574": 7000,
      "575": 7001,
      "576": 7002,
      "577": 7003,
      "578": 7004,
      "579": 7005,
      "Cline": 7006,
      "Clio": 7007,
      "Close": 7008,
      "Closes": 7009,
      "Clayton": 7010,
      "Climbs": 7011,
      "Carrie": 7012,
      "Carmine": 7013,
      "Coming": 7014,
      "Listen": 7015,
      "Listings": 7016,
      "feats": 7017,
      "features": 7018,
      "offerson": 7019,
      "official": 7020,
      "offset": 7021,
      "offsets": 7022,
      "Spotlight": 7023,
      "ifying": 7024,
      "guitarists21st": 7025,
      "370": 7026,
      "371": 7027,
      "372": 7028,
      "373": 7029,
      "374": 7030,
      "375": 7031,
      "376": 7032,
      "377": 7033,
      "378": 7034,
      "390": 7035,
      "391": 7036,
      "392": 7037,
      "393": 7038,
      "394": 7039,
      "395": 7040,
      "397": 7041,
      "398": 7042,
      "399": 7043,
      "490": 7044,
      "491": 7045,
      "492": 7046,
      "493": 7047,
      "494": 7048,
      "495": 7049,
      "496": 7050,
      "497": 7051,
      "498": 7052,
      "499": 7053,
      "580": 7054,
      "581": 7055,
      "582": 7056,
      "583": 7057,
      "584": 7058,
      "585": 7059,
      "587": 7060,
      "588": 7061,
      "58th": 7062,
      "590": 7063,
      "591": 7064,
      "592": 7065,
      "594": 7066,
      "595": 7067,
      "596": 7068,
      "597": 7069,
      "598": 7070,
      "599": 7071,
      "Britain": 7072,
      "Emma": 7073,
      "Empress": 7074,
      "Losing": 7075,
      "Office": 7076,
      "portrait": 7077,
      "pornographic": 7078,
      "ementing": 7079,
      "ementMo": 7080,
      "throwback": 7081,
      "Storytell": 7082,
      "Angelo": 7083,
      "player": 7084,
      "players": 7085,
      "Global200": 7086,
      "chooling": 7087,
      "Scream": 7088,
      "Scene": 7089,
      "Science": 7090,
      "Scenes": 7091,
      "Sob": 7092,
      "Soleil": 7093,
      "Voices": 7094,
      "afterno": 7095,
      "crossover": 7096,
      "crowd": 7097,
      "latest": 7098,
      "works": 7099,
      "inaugural": 7100,
      "reviewed": 7101,
      "reviewers": 7102,
      "Joey": 7103,
      "360": 7104,
      "361": 7105,
      "362": 7106,
      "364": 7107,
      "365": 7108,
      "366": 7109,
      "367": 7110,
      "368": 7111,
      "369": 7112,
      "460": 7113,
      "461": 7114,
      "462": 7115,
      "463": 7116,
      "464": 7117,
      "465": 7118,
      "466": 7119,
      "467": 7120,
      "468": 7121,
      "469": 7122,
      "470": 7123,
      "471": 7124,
      "472": 7125,
      "473": 7126,
      "474": 7127,
      "475": 7128,
      "476": 7129,
      "477": 7130,
      "478": 7131,
      "479": 7132,
      "4711": 7133,
      "Breakers": 7134,
      "Breakthrough": 7135,
      "DoSomething": 7136,
      "Elite": 7137,
      "Elena": 7138,
      "Eliana": 7139,
      "Elvis": 7140,
      "Elise": 7141,
      "Elections": 7142,
      "Elias": 7143,
      "Heap": 7144,
      "Performs": 7145,
      "Rosa": 7146,
      "Rosseinsky": 7147,
      "Weber": 7148,
      "check": 7149,
      "cheesest": 7150,
      "calls": 7151,
      "gertsen": 7152,
      "lander": 7153,
      "landscape": 7154,
      "monument": 7155,
      "monolog": 7156,
      "monuments": 7157,
      "soil": 7158,
      "secret": 7159,
      "signings": 7160,
      "signature": 7161,
      "signatory": 7162,
      "weighs": 7163,
      "weekends": 7164,
      "string": 7165,
      "struck": 7166,
      "stressed": 7167,
      "strange": 7168,
      "stratosphere": 7169,
      "struggle": 7170,
      "successor": 7171,
      "successful": 7172,
      "successfully": 7173,
      "PennsylvaniaAmerican": 7174,
      "PennsylvaniaRecord": 7175,
      "PennsylvaniaCountry": 7176,
      "PennsylvaniaFilm": 7177,
      "PennsylvaniaSinger": 7178,
      "PennsylvaniaGuitarists": 7179,
      "380": 7180,
      "381": 7181,
      "382": 7182,
      "383": 7183,
      "385": 7184,
      "386": 7185,
      "387": 7186,
      "388": 7187,
      "480": 7188,
      "481": 7189,
      "482": 7190,
      "483": 7191,
      "484": 7192,
      "485": 7193,
      "486": 7194,
      "488": 7195,
      "Collin": 7196,
      "Collider": 7197,
      "College": 7198,
      "Myles": 7199,
      "Myster": 7200,
      "Myspace": 7201,
      "Mychas": 7202,
      "Movement": 7203,
      "bra": 7204,
      "bration": 7205,
      "brands": 7206,
      "brutality": 7207,
      "blebine": 7208,
      "lighting": 7209,
      "priorit": 7210,
      "persona": 7211,
      "personas": 7212,
      "remix": 7213,
      "remained": 7214,
      "remaining": 7215,
      "removed": 7216,
      "reminis": 7217,
      "removal": 7218,
      "remarking": 7219,
      "rockist": 7220,
      "tonight": 7221,
      "ueger": 7222,
      "accumul": 7223,
      "accolade": 7224,
      "ularly": 7225,
      "preschool": 7226,
      "praises": 7227,
      "praising": 7228,
      "selli": 7229,
      "songwritersBig": 7230,
      "songwriters21st": 7231,
      "generous": 7232,
      "451": 7233,
      "452": 7234,
      "453": 7235,
      "454": 7236,
      "455": 7237,
      "Cox": 7238,
      "Cool": 7239,
      "Cohen": 7240,
      "Colorful": 7241,
      "Cookie": 7242,
      "Canonical": 7243,
      "Disney": 7244,
      "Disaster": 7245,
      "Disclaim": 7246,
      "Disappeared": 7247,
      "Discog": 7248,
      "Fred": 7249,
      "France": 7250,
      "Franc": 7251,
      "Frenzy": 7252,
      "Fragrance": 7253,
      "Franssen": 7254,
      "Lynn": 7255,
      "Paulson": 7256,
      "awarded": 7257,
      "eyebrow": 7258,
      "jectory": 7259,
      "mely": 7260,
      "meet": 7261,
      "means": 7262,
      "meets": 7263,
      "meeting": 7264,
      "megast": 7265,
      "people21st": 7266,
      "vened": 7267,
      "rigo": 7268,
      "athy": 7269,
      "athing": 7270,
      "identified": 7271,
      "identifying": 7272,
      "Johnson": 7273,
      "601": 7274,
      "602": 7275,
      "603": 7276,
      "604": 7277,
      "605": 7278,
      "606": 7279,
      "607": 7280,
      "608": 7281,
      "609": 7282,
      "Abound": 7283,
      "Abuse": 7284,
      "Abandon": 7285,
      "Absolutely": 7286,
      "Donated": 7287,
      "Donate": 7288,
      "Donations": 7289,
      "Donald": 7290,
      "Goldwyn": 7291,
      "Journals": 7292,
      "MediaWiki": 7293,
      "Overall": 7294,
      "Overblown": 7295,
      "Quinn": 7296,
      "Quite": 7297,
      "Quartz": 7298,
      "Quotations": 7299,
      "Samuel": 7300,
      "join": 7301,
      "joined": 7302,
      "joint": 7303,
      "nomination": 7304,
      "prepar": 7305,
      "pretern": 7306,
      "prepare": 7307,
      "pretty": 7308,
      "prompted": 7309,
      "surprising": 7310,
      "survivors": 7311,
      "selves": 7312,
      "turning": 7313,
      "international": 7314,
      "internet": 7315,
      "interactive": 7316,
      "intervened": 7317,
      "issette": 7318,
      "Christians": 7319,
      "Christina": 7320,
      "Christmas": 7321,
      "musicianship": 7322,
      "musiciansFilm": 7323,
      "musiciansFemale": 7324,
      "commended": 7325,
      "commands": 7326,
      "commercial": 7327,
      "commencement": 7328,
      "commitment": 7329,
      "teenager": 7330,
      "McCaffer": 7331,
      "Robin": 7332,
      "352": 7333,
      "353": 7334,
      "354": 7335,
      "97248": 7336,
      "Beck": 7337,
      "Become": 7338,
      "Because": 7339,
      "Becoming": 7340,
      "Businesses": 7341,
      "Danielle": 7342,
      "Fail": 7343,
      "Lautner": 7344,
      "Labyrinth": 7345,
      "Launches": 7346,
      "Manhatt": 7347,
      "Making": 7348,
      "Prior": 7349,
      "Price": 7350,
      "Private": 7351,
      "Particip": 7352,
      "Tomás": 7353,
      "Tomorrow": 7354,
      "Television": 7355,
      "dressed": 7356,
      "drama": 7357,
      "glitter": 7358,
      "gladiators": 7359,
      "globe": 7360,
      "however": 7361,
      "honorary": 7362,
      "labeling": 7363,
      "markets": 7364,
      "tying": 7365,
      "verse": 7366,
      "themed": 7367,
      "themselves": 7368,
      "emotion": 7369,
      "leads": 7370,
      "leader": 7371,
      "trajectory": 7372,
      "transformation": 7373,
      "transcend": 7374,
      "transluc": 7375,
      "transitions": 7376,
      "transforming": 7377,
      "singersTime": 7378,
      "singers21st": 7379,
      "Albumssingless": 7380,
      "graphs": 7381,
      "understand": 7382,
      "undergoing": 7383,
      "underdog": 7384,
      "undermined": 7385,
      "Area": 7386,
      "Diu": 7387,
      "Dierks": 7388,
      "Diamond": 7389,
      "Earned": 7390,
      "Earnest": 7391,
      "Genius": 7392,
      "Genuine": 7393,
      "Moran": 7394,
      "Morley": 7395,
      "Moreland": 7396,
      "Morissette": 7397,
      "Malik": 7398,
      "Opens": 7399,
      "Opperman": 7400,
      "Origin": 7401,
      "Origins": 7402,
      "Urged": 7403,
      "authen": 7404,
      "millennium": 7405,
      "millennials": 7406,
      "parody": 7407,
      "parts": 7408,
      "partner": 7409,
      "particip": 7410,
      "raise": 7411,
      "raising": 7412,
      "scenes": 7413,
      "scandal": 7414,
      "sides": 7415,
      "something": 7416,
      "somebody": 7417,
      "tenth": 7418,
      "winnersMTV": 7419,
      "winnersPeople": 7420,
      "winnersNME": 7421,
      "winnersRCA": 7422,
      "winnersGuitarists": 7423,
      "winnersChristians": 7424,
      "inspiring": 7425,
      "inspiration": 7426,
      "storylines": 7427,
      "sexy": 7428,
      "sexist": 7429,
      "sexism": 7430,
      "contrast": 7431,
      "controlled": 7432,
      "expand": 7433,
      "expired": 7434,
      "expenses": 7435,
      "Pressroom": 7436,
      "credits": 7437,
      "positivity": 7438,
      "551": 7439,
      "552": 7440,
      "553": 7441,
      "554": 7442,
      "555": 7443,
      "Highs": 7444,
      "Highway": 7445,
      "ISSN": 7446,
      "Longer": 7447,
      "Outstand": 7448,
      "Outside": 7449,
      "Peep": 7450,
      "Procell": 7451,
      "ProQuest": 7452,
      "Problems": 7453,
      "Trip": 7454,
      "Trial": 7455,
      "Tribu": 7456,
      "Tribeca": 7457,
      "axes": 7458,
      "background": 7459,
      "broker": 7460,
      "goer": 7461,
      "goes": 7462,
      "hailed": 7463,
      "iques": 7464,
      "movements": 7465,
      "pediat": 7466,
      "publicist": 7467,
      "server": 7468,
      "serving": 7469,
      "visionary": 7470,
      "inviting": 7471,
      "registr": 7472,
      "registered": 7473,
      "regularly": 7474,
      "opera": 7475,
      "Stands": 7476,
      "popularizing": 7477,
      "popularize": 7478,
      "Constant": 7479,
      "Constitution": 7480,
      "Edition": 7481,
      "appearances": 7482,
      "promoter": 7483,
      "promotional": 7484,
      "341": 7485,
      "342": 7486,
      "343": 7487,
      "Admiration": 7488,
      "Advances": 7489,
      "Brother": 7490,
      "Brothers": 7491,
      "Brooklyn": 7492,
      "Cardi": 7493,
      "Celeb": 7494,
      "Celebrate": 7495,
      "Celebrities": 7496,
      "Celebration": 7497,
      "Helped": 7498,
      "Loom": 7499,
      "Loathing": 7500,
      "Lizzo": 7501,
      "Missed": 7502,
      "Nicks": 7503,
      "Nickelode": 7504,
      "Point": 7505,
      "Poeh": 7506,
      "Poems": 7507,
      "River": 7508,
      "Riley": 7509,
      "Smash": 7510,
      "Smashing": 7511,
      "Sexist": 7512,
      "Winfre": 7513,
      "Winograd": 7514,
      "Wallmark": 7515,
      "brilliant": 7516,
      "bright": 7517,
      "calcul": 7518,
      "catering": 7519,
      "catapulted": 7520,
      "covert": 7521,
      "covered": 7522,
      "covering": 7523,
      "coverage": 7524,
      "dominated": 7525,
      "dominant": 7526,
      "dominating": 7527,
      "fuller": 7528,
      "highlighting": 7529,
      "lining": 7530,
      "panying": 7531,
      "passes": 7532,
      "worrying": 7533,
      "intel": 7534,
      "intuit": 7535,
      "intensified": 7536,
      "headlining": 7537,
      "ology": 7538,
      "ologies": 7539,
      "Incest": 7540,
      "projects": 7541,
      "prohib": 7542,
      "proceeds": 7543,
      "problem": 7544,
      "profit": 7545,
      "profound": 7546,
      "professor": 7547,
      "profiles": 7548,
      "Shortlist": 7549,
      "ationships": 7550,
      "WikipediaThe": 7551,
      "WikipediaCode": 7552,
      "WikipediaDisclaim": 7553,
      "everyone": 7554,
      "everything": 7555,
      "Deadline": 7556,
      "Deadlines": 7557,
      "Emmylou": 7558,
      "soundtracks": 7559,
      "799": 7560,
      "ATIO": 7561,
      "Agent": 7562,
      "CDs": 7563,
      "Hillary": 7564,
      "Image": 7565,
      "Imogen": 7566,
      "Important": 7567,
      "Knight": 7568,
      "Knib": 7569,
      "Kellogg": 7570,
      "Moore": 7571,
      "Moeh": 7572,
      "Moonlight": 7573,
      "Muhamm": 7574,
      "Matza": 7575,
      "Place": 7576,
      "Places": 7577,
      "Slut": 7578,
      "Slave": 7579,
      "Slays": 7580,
      "Slime": 7581,
      "Scholars": 7582,
      "Schaffer": 7583,
      "Schneider": 7584,
      "Scholastic": 7585,
      "Surprising": 7586,
      "Survivors": 7587,
      "Survive": 7588,
      "Surpasses": 7589,
      "Signature": 7590,
      "Signatories": 7591,
      "VanDer": 7592,
      "Writer": 7593,
      "Writing": 7594,
      "audiences": 7595,
      "dedication": 7596,
      "documented": 7597,
      "floor": 7598,
      "metaphor": 7599,
      "setting": 7600,
      "vices": 7601,
      "whereas": 7602,
      "arrangements": 7603,
      "although": 7604,
      "Releases": 7605,
      "realization": 7606,
      "actresses21st": 7607,
      "Stevie": 7608,
      "proves": 7609,
      "proven": 7610,
      "provision": 7611,
      "provides": 7612,
      "provided": 7613,
      "terns": 7614,
      "endship": 7615,
      "2505072": 7616,
      "executives": 7617,
      "telethon": 7618,
      "claims": 7619,
      "claimed": 7620,
      "formerly": 7621,
      "grandfather": 7622,
      "Greenwald": 7623,
      "Everything": 7624,
      "Bobby": 7625,
      "relationships": 7626,
      "Performances": 7627,
      "Collaborative": 7628,
      "presentations": 7629,
      "Directing": 7630,
      "literacy": 7631,
      "literature": 7632,
      "541": 7633,
      "542": 7634,
      "543": 7635,
      "54th": 7636,
      "761": 7637,
      "Barbad": 7638,
      "Barbra": 7639,
      "Brilliant": 7640,
      "Benjam": 7641,
      "Benitez": 7642,
      "Beats": 7643,
      "Causes": 7644,
      "Caillat": 7645,
      "Cairns": 7646,
      "Feels": 7647,
      "Finest": 7648,
      "Farley": 7649,
      "Famously": 7650,
      "Gerber": 7651,
      "Gerwig": 7652,
      "Horowit": 7653,
      "Halsey": 7654,
      "Halperin": 7655,
      "IFT": 7656,
      "Josh": 7657,
      "Kingdom": 7658,
      "Lori": 7659,
      "Loretta": 7660,
      "Loulla": 7661,
      "Lucy": 7662,
      "Lucas": 7663,
      "Lucia": 7664,
      "Lucky": 7665,
      "Nora": 7666,
      "Nordy": 7667,
      "Payoff": 7668,
      "Payami": 7669,
      "Police": 7670,
      "Policy": 7671,
      "Polarizing": 7672,
      "Polanco": 7673,
      "Policing": 7674,
      "Roman": 7675,
      "Romantic": 7676,
      "Romantics": 7677,
      "Seibert": 7678,
      "Seisded": 7679,
      "Seacrest": 7680,
      "Snake": 7681,
      "Suprem": 7682,
      "Sufj": 7683,
      "Superstar": 7684,
      "Server": 7685,
      "Serpe": 7686,
      "Service": 7687,
      "Serpents": 7688,
      "Services": 7689,
      "Silence": 7690,
      "Silvio": 7691,
      "Tuesday": 7692,
      "Tickets": 7693,
      "Vocalist": 7694,
      "Wynet": 7695,
      "Worst": 7696,
      "Worth": 7697,
      "Worse": 7698,
      "Zeitgeist": 7699,
      "achieved": 7700,
      "achieve": 7701,
      "bonus": 7702,
      "bonanza": 7703,
      "breaks": 7704,
      "breaking": 7705,
      "courses": 7706,
      "demo": 7707,
      "demands": 7708,
      "demographic": 7709,
      "demographics": 7710,
      "effel": 7711,
      "funds": 7712,
      "greatest": 7713,
      "longevity": 7714,
      "lasting": 7715,
      "microp": 7716,
      "melody": 7717,
      "multimedia": 7718,
      "multiple": 7719,
      "masterful": 7720,
      "mastermind": 7721,
      "pianists21st": 7722,
      "rowaving": 7723,
      "scholars": 7724,
      "schedule": 7725,
      "scholarly": 7726,
      "schools": 7727,
      "soloist": 7728,
      "twist": 7729,
      "titles": 7730,
      "tickets": 7731,
      "ticketing": 7732,
      "zanese": 7733,
      "ederate": 7734,
      "chnologies": 7735,
      "refused": 7736,
      "refuses": 7737,
      "refurbish": 7738,
      "legend": 7739,
      "legitim": 7740,
      "celebrate": 7741,
      "celebrities": 7742,
      "Charges": 7743,
      "Characterized": 7744,
      "Charitable": 7745,
      "premium": 7746,
      "premiere": 7747,
      "premiered": 7748,
      "Antonio": 7749,
      "spots": 7750,
      "spotlight": 7751,
      "spotlighted": 7752,
      "Showgoer": 7753,
      "Guitars": 7754,
      "Provides": 7755,
      "Atlanta": 7756,
      "directorsAmerican": 7757,
      "directorsFeminist": 7758,
      "banjoistsAmerican": 7759,
      "Lauren": 7760,
      "knows": 7761,
      "sexually": 7762,
      "modeled": 7763,
      "Looking": 7764,
      "Sexuality": 7765,
      "FoundationPowered": 7766,
      "532": 7767,
      "63rd": 7768,
      "64th": 7769,
      "702": 7770,
      "BMG": 7771,
      "BMR120": 7772,
      "Borgen": 7773,
      "Bonuses": 7774,
      "Burt": 7775,
      "Burnett": 7776,
      "Couch": 7777,
      "Couple": 7778,
      "Courier": 7779,
      "Couples": 7780,
      "Colbie": 7781,
      "DreamWorks": 7782,
      "Devin": 7783,
      "Devon": 7784,
      "Developers": 7785,
      "Devastating": 7786,
      "Friend": 7787,
      "Friday": 7788,
      "Featured": 7789,
      "Fifty": 7790,
      "Fifteen": 7791,
      "Glamour": 7792,
      "Goth": 7793,
      "Google": 7794,
      "Gardner": 7795,
      "Hazel": 7796,
      "Martino": 7797,
      "Maximalist": 7798,
      "Orrall": 7799,
      "Ordoña": 7800,
      "Patino": 7801,
      "Patsy": 7802,
      "Publications": 7803,
      "Publicists": 7804,
      "Senate": 7805,
      "Senator": 7806,
      "Setters": 7807,
      "Score": 7808,
      "Savors": 7809,
      "Savair": 7810,
      "Soloists": 7811,
      "Teams": 7812,
      "Technologies": 7813,
      "Verges": 7814,
      "Visit": 7815,
      "breathy": 7816,
      "believed": 7817,
      "benefactor": 7818,
      "carrying": 7819,
      "colleges": 7820,
      "collecting": 7821,
      "dystop": 7822,
      "decade": 7823,
      "decision": 7824,
      "decades": 7825,
      "decorated": 7826,
      "detached": 7827,
      "downloads": 7828,
      "downsides": 7829,
      "dubstep": 7830,
      "egg": 7831,
      "eggs": 7832,
      "frivol": 7833,
      "friendship": 7834,
      "getting": 7835,
      "hosted": 7836,
      "ivery": 7837,
      "liberated": 7838,
      "narrator": 7839,
      "narratives": 7840,
      "point": 7841,
      "poems": 7842,
      "points": 7843,
      "poeticism": 7844,
      "posted": 7845,
      "purchase": 7846,
      "running": 7847,
      "skirt": 7848,
      "skeptics": 7849,
      "similar": 7850,
      "visit": 7851,
      "visual": 7852,
      "visuals": 7853,
      "volunte": 7854,
      "variety": 7855,
      "inescap": 7856,
      "standard": 7857,
      "starts": 7858,
      "started": 7859,
      "Relentless": 7860,
      "Relationships": 7861,
      "Receives": 7862,
      "emphasiz": 7863,
      "thought": 7864,
      "learning": 7865,
      "learns": 7866,
      "needed": 7867,
      "accomplished": 7868,
      "accompanying": 7869,
      "Streisand": 7870,
      "Students": 7871,
      "Studded": 7872,
      "property": 7873,
      "Alanis": 7874,
      "Grandfather": 7875,
      "concerns": 7876,
      "contemporary": 7877,
      "technician": 7878,
      "technology": 7879,
      "recipients": 7880,
      "recognition": 7881,
      "Joyful": 7882,
      "platinum": 7883,
      "Whitaker": 7884,
      "Whiteaker": 7885,
      "Confessional": 7886,
      "Confidence": 7887,
      "Confirms": 7888,
      "Confederate": 7889,
      "Contest": 7890,
      "Contents": 7891,
      "Continues": 7892,
      "Phillips": 7893,
      "Boxscor": 7894,
      "Boxoffice": 7895,
      "listeners": 7896,
      "response": 7897,
      "Beyond": 7898,
      "Beyoncé": 7899,
      "Explaining": 7900,
      "Explicit": 7901,
      "philanthropic": 7902,
      "philanthropistsAmerican": 7903,
      "philanthropists21st": 7904,
      "philanthropistsActresses": 7905,
      "Legal": 7906,
      "Legacy": 7907,
      "Legaspi": 7908,
      "Legendary": 7909,
      "Carolyn": 7910,
      "Doesn": 7911,
      "months": 7912,
      "monthly": 7913,
      "account": 7914,
      "community": 7915,
      "communicate": 7916,
      "Fairytale": 7917,
      "versatility": 7918,
      "Generation": 7919,
      "Generous": 7920,
      "Generations": 7921,
      "Generosity": 7922,
      "feeling": 7923,
      "feelings": 7924,
      "explores": 7925,
      "Louisa": 7926,
      "Supporting": 7927,
      "Viewing": 7928,
      "scrutinized": 7929,
      "incorporate": 7930,
      "incorporates": 7931,
      "432": 7932,
      "43rd": 7933,
      "5294": 7934,
      "95th": 7935,
      "953030": 7936,
      "Balasaygun": 7937,
      "Brehian": 7938,
      "CLUSIV": 7939,
      "Drake": 7940,
      "Dominus": 7941,
      "Dominate": 7942,
      "Dominates": 7943,
      "Egg": 7944,
      "Eggs": 7945,
      "Eggertsen": 7946,
      "Evening": 7947,
      "Foggatt": 7948,
      "Feminism": 7949,
      "Federal": 7950,
      "Gazette": 7951,
      "Hours": 7952,
      "Kimberly": 7953,
      "Lisa": 7954,
      "Literature": 7955,
      "Lambert": 7956,
      "Lilia": 7957,
      "Lawyers": 7958,
      "Lawsuit": 7959,
      "Mae": 7960,
      "Maher": 7961,
      "Maeve": 7962,
      "Mercuri": 7963,
      "Minogue": 7964,
      "Microwaving": 7965,
      "Murray": 7966,
      "Mickey": 7967,
      "Mastermind": 7968,
      "Millennials": 7969,
      "Network": 7970,
      "Numbers": 7971,
      "Parade": 7972,
      "Parents": 7973,
      "Paratext": 7974,
      "Preston": 7975,
      "Peter": 7976,
      "Peters": 7977,
      "Peterson": 7978,
      "Portals": 7979,
      "Portugues": 7980,
      "Patti": 7981,
      "Patty": 7982,
      "Pattison": 7983,
      "Ronnie": 7984,
      "Sweeney": 7985,
      "Secret": 7986,
      "Selena": 7987,
      "Selling": 7988,
      "Turns": 7989,
      "Turning": 7990,
      "Tweeted": 7991,
      "Werff": 7992,
      "Walter": 7993,
      "Walrus": 7994,
      "Website": 7995,
      "Wilson": 7996,
      "Wanted": 7997,
      "Wanting": 7998,
      "Youngest": 7999,
      "buy": 8000,
      "build": 8001,
      "birthday": 8002,
      "birthsLiving": 8003,
      "capture": 8004,
      "categories": 8005,
      "denounced": 8006,
      "damages": 8007,
      "distant": 8008,
      "distribute": 8009,
      "distinguished": 8010,
      "delved": 8011,
      "delivery": 8012,
      "founding": 8013,
      "kinderg": 8014,
      "linked": 8015,
      "launches": 8016,
      "mination": 8017,
      "minated": 8018,
      "miniseries": 8019,
      "medical": 8020,
      "memes": 8021,
      "memory": 8022,
      "memories": 8023,
      "mixed": 8024,
      "police": 8025,
      "policy": 8026,
      "policies": 8027,
      "putting": 8028,
      "precision": 8029,
      "political": 8030,
      "senior": 8031,
      "sophom": 8032,
      "sources": 8033,
      "savant": 8034,
      "sensation": 8035,
      "twelve": 8036,
      "ticity": 8037,
      "urity": 8038,
      "vying": 8039,
      "venturing": 8040,
      "ventured": 8041,
      "zeitgeist": 8042,
      "organization": 8043,
      "organises": 8044,
      "organizations": 8045,
      "inois": 8046,
      "instant": 8047,
      "instead": 8048,
      "institut": 8049,
      "introduction": 8050,
      "education": 8051,
      "educated": 8052,
      "educational": 8053,
      "heartland": 8054,
      "heartbreak": 8055,
      "heartfelt": 8056,
      "stopped": 8057,
      "Results": 8058,
      "Reveals": 8059,
      "charities": 8060,
      "characterized": 8061,
      "characters": 8062,
      "embaum": 8063,
      "assaulted": 8064,
      "Arctic": 8065,
      "offering": 8066,
      "adding": 8067,
      "addition": 8068,
      "additional": 8069,
      "troluong": 8070,
      "immense": 8071,
      "immigrant": 8072,
      "Stereotype": 8073,
      "Influences": 8074,
      "Influenced": 8075,
      "Influential": 8076,
      "occupied": 8077,
      "protests": 8078,
      "practices": 8079,
      "Shelley": 8080,
      "endorses": 8081,
      "vernacular": 8082,
      "superstar": 8083,
      "confident": 8084,
      "confessional": 8085,
      "confidence": 8086,
      "contented": 8087,
      "continued": 8088,
      "contexts": 8089,
      "beats": 8090,
      "activism": 8091,
      "classic": 8092,
      "placed": 8093,
      "special": 8094,
      "Connects": 8095,
      "defined": 8096,
      "defiant": 8097,
      "defining": 8098,
      "Tracker": 8099,
      "Tracklist": 8100,
      "Present": 8101,
      "Presley": 8102,
      "Presented": 8103,
      "Underwood": 8104,
      "criticisms": 8105,
      "shared": 8106,
      "shoots": 8107,
      "Bruno": 8108,
      "doesn": 8109,
      "eleventh": 8110,
      "Excellent": 8111,
      "appreciative": 8112,
      "Craft": 8113,
      "Months": 8114,
      "Command": 8115,
      "Complex": 8116,
      "Electro": 8117,
      "Electronic": 8118,
      "Electronics": 8119,
      "solely": 8120,
      "Frankenstein": 8121,
      "Frankenberg": 8122,
      "Question": 8123,
      "Questions": 8124,
      "maintains": 8125,
      "draws": 8126,
      "transferred": 8127,
      "Philanthropy": 8128,
      "Petraglia": 8129,
      "involvement": 8130,
      "registering": 8131,
      "passionate": 8132,
      "professionalism": 8133,
      "Deserve": 8134,
      "achievement": 8135,
      "melodies": 8136,
      "multiplayer": 8137,
      "believe": 8138,
      "believes": 8139,
      "details": 8140,
      "detailed": 8141,
      "simultaneous": 8142,
      "Dylanesque": 8143,
      "GRAMMYs": 8144,
      "Historical": 8145,
      "RAINNDay": 8146,
      "Weatherhead": 8147,
      "taylorswift13": 8148,
      "---": 8149,
      "11277": 8150,
      "4408": 8151,
      "61564": 8152,
      "AGE": 8153,
      "Auditorium": 8154,
      "Audrey": 8155,
      "Buy": 8156,
      "Built": 8157,
      "Bartender": 8158,
      "Bartsch": 8159,
      "Belle": 8160,
      "Bernstein": 8161,
      "Bernardine": 8162,
      "Create": 8163,
      "Creative": 8164,
      "Curto": 8165,
      "Curated": 8166,
      "Critique": 8167,
      "Critiques": 8168,
      "Counting": 8169,
      "County": 8170,
      "Carefully": 8171,
      "Castro": 8172,
      "Duet": 8173,
      "Denis": 8174,
      "Denmark": 8175,
      "Drew": 8176,
      "Ditum": 8177,
      "Ditzian": 8178,
      "Doctor": 8179,
      "Darker": 8180,
      "Darkest": 8181,
      "EPs": 8182,
      "Ellis": 8183,
      "Ellise": 8184,
      "Eleven": 8185,
      "Elefther": 8186,
      "Garth": 8187,
      "Garcia": 8188,
      "Hyper": 8189,
      "Hyannis": 8190,
      "Hardworking": 8191,
      "Hardiman": 8192,
      "Hissong": 8193,
      "Irvin": 8194,
      "Irresistible": 8195,
      "Iceberg": 8196,
      "Jada": 8197,
      "Jaded": 8198,
      "Kayla": 8199,
      "Latour": 8200,
      "Latifah": 8201,
      "Linker": 8202,
      "Linked": 8203,
      "MSN": 8204,
      "MSNBC": 8205,
      "MacPher": 8206,
      "NEWS": 8207,
      "Nicole": 8208,
      "Nicolau": 8209,
      "Obama": 8210,
      "Observer": 8211,
      "Pacella": 8212,
      "Pacific": 8213,
      "Passes": 8214,
      "Political": 8215,
      "Politicians": 8216,
      "Rhian": 8217,
      "Rhode": 8218,
      "Racist": 8219,
      "Rachel": 8220,
      "Roddy": 8221,
      "Rodrigo": 8222,
      "Raps": 8223,
      "Rapkin": 8224,
      "Stood": 8225,
      "Stoeffel": 8226,
      "South": 8227,
      "Southern": 8228,
      "Susan": 8229,
      "Suskind": 8230,
      "Social": 8231,
      "Society": 8232,
      "Sundance": 8233,
      "Sundress": 8234,
      "Sweeps": 8235,
      "Terms": 8236,
      "Terrified": 8237,
      "Tamar": 8238,
      "Tamarkin": 8239,
      "Tonelli": 8240,
      "Tannenbaum": 8241,
      "Tannembaum": 8242,
      "Tapped": 8243,
      "UTC": 8244,
      "UTATIO": 8245,
      "Village": 8246,
      "Wishes": 8247,
      "Wisconsin": 8248,
      "Woods": 8249,
      "Zachary": 8250,
      "Zacharek": 8251,
      "café": 8252,
      "ccc": 8253,
      "czyk": 8254,
      "crew": 8255,
      "creative": 8256,
      "cards": 8257,
      "curated": 8258,
      "curate": 8259,
      "culminated": 8260,
      "careful": 8261,
      "casting": 8262,
      "cleared": 8263,
      "dawi": 8264,
      "departed": 8265,
      "departments": 8266,
      "diva": 8267,
      "divides": 8268,
      "dreamy": 8269,
      "farm": 8270,
      "falls": 8271,
      "finds": 8272,
      "finding": 8273,
      "footage": 8274,
      "footprint": 8275,
      "feminist": 8276,
      "feministsAmerican": 8277,
      "girls": 8278,
      "handedly": 8279,
      "hardest": 8280,
      "kiw": 8281,
      "largest": 8282,
      "large": 8283,
      "lacked": 8284,
      "moved": 8285,
      "muted": 8286,
      "mutual": 8287,
      "nuance": 8288,
      "nuanced": 8289,
      "payments": 8290,
      "pathize": 8291,
      "patterns": 8292,
      "pushes": 8293,
      "pushing": 8294,
      "pursue": 8295,
      "pursuit": 8296,
      "peare": 8297,
      "rerecorded": 8298,
      "racism": 8299,
      "raconte": 8300,
      "slut": 8301,
      "slides": 8302,
      "sweetheart": 8303,
      "swapping": 8304,
      "sitcom": 8305,
      "sisters": 8306,
      "scores": 8307,
      "torch": 8308,
      "tersued": 8309,
      "versions": 8310,
      "www": 8311,
      "welcomes": 8312,
      "welcomed": 8313,
      "wearing": 8314,
      "yoing": 8315,
      "infused": 8316,
      "infancy": 8317,
      "intelligence": 8318,
      "intellectual": 8319,
      "archies": 8320,
      "architect": 8321,
      "theaters": 8322,
      "theatricality": 8323,
      "stayed": 8324,
      "stockbroker": 8325,
      "Register": 8326,
      "Registr": 8327,
      "Reunion": 8328,
      "Reunite": 8329,
      "Respers": 8330,
      "Response": 8331,
      "tools": 8332,
      "reveal": 8333,
      "reveals": 8334,
      "reigning": 8335,
      "replaces": 8336,
      "replacement": 8337,
      "aspects": 8338,
      "aspiring": 8339,
      "leveling": 8340,
      "Junior": 8341,
      "Junkee": 8342,
      "advocated": 8343,
      "advocates": 8344,
      "entrepreneurship": 8345,
      "urging": 8346,
      "imagined": 8347,
      "important": 8348,
      "importance": 8349,
      "Statements": 8350,
      "Statistics": 8351,
      "Stubbs": 8352,
      "Stubblebine": 8353,
      "2000s": 8354,
      "Invokes": 8355,
      "Inviting": 8356,
      "Marisa": 8357,
      "Mariska": 8358,
      "Chloe": 8359,
      "Chloé": 8360,
      "approachable": 8361,
      "unteers": 8362,
      "abandoned": 8363,
      "abandoning": 8364,
      "connection": 8365,
      "connects": 8366,
      "conquered": 8367,
      "conquering": 8368,
      "conversations": 8369,
      "conversational": 8370,
      "beginning": 8371,
      "beginnings": 8372,
      "exactly": 8373,
      "experiences": 8374,
      "experienced": 8375,
      "poptimist": 8376,
      "poptimism": 8377,
      "component": 8378,
      "compilation": 8379,
      "complementing": 8380,
      "complex": 8381,
      "complete": 8382,
      "reception": 8383,
      "receptive": 8384,
      "climate": 8385,
      "climaxes": 8386,
      "Thanki": 8387,
      "speaker": 8388,
      "speaking": 8389,
      "Shutler": 8390,
      "deeper": 8391,
      "deeply": 8392,
      "Entrepreneurship": 8393,
      "William": 8394,
      "Williams": 8395,
      "genuinely": 8396,
      "Brenton": 8397,
      "Blockbuster": 8398,
      "44918": 8399,
      "Education": 8400,
      "Educational": 8401,
      "Leader": 8402,
      "discussing": 8403,
      "discusses": 8404,
      "Classic": 8405,
      "Carlie": 8406,
      "Commercial": 8407,
      "Commercially": 8408,
      "portrayed": 8409,
      "portraying": 8410,
      "Headliner": 8411,
      "Perfectly": 8412,
      "Weissmann": 8413,
      "monopoly": 8414,
      "monopolized": 8415,
      "presidential": 8416,
      "Discussed": 8417,
      "interruption": 8418,
      "interrupted": 8419,
      "Launching": 8420,
      "transitioned": 8421,
      "billionairesAmerican": 8422,
      "billionairesFemale": 8423,
      "paradigm": 8424,
      "paradigms": 8425,
      "partners": 8426,
      "partnered": 8427,
      "ancestor": 8428,
      "ancestry": 8429,
      "regards": 8430,
      "Adamczyk": 8431,
      "Broadway": 8432,
      "Broadcast": 8433,
      "bridge": 8434,
      "bridges": 8435,
      "Knows": 8436,
      "Playlist": 8437,
      "...)\".": 8438,
      "Feeding": 8439,
      "instrumentalistsAmerican": 8440,
      "refrain": 8441,
      "refraining": 8442,
      "Boyfriend": 8443,
      "Boyfriends": 8444,
      "Authority": 8445,
      "Authorship": 8446,
      "Friedman": 8447,
      "Friedlander": 8448,
      "Featurette": 8449,
      "employed": 8450,
      "employment": 8451,
      "accompanies": 8452,
      "accompanied": 8453,
      "launched": 8454,
      "preceded": 8455,
      "soprano": 8456,
      "sopranosAmerican": 8457,
      "Revealed": 8458,
      "protected": 8459,
      "speculation": 8460,
      "speculated": 8461,
      "Community": 8462,
      "Communication": 8463,
      "Achieves": 8464,
      "Achievement": 8465,
      "CinemaBl": 8466,
      "Cinematic": 8467,
      "Capitalist": 8468,
      "Economic": 8469,
      "Economist": 8470,
      "Portraitist": 8471,
      "honesty": 8472,
      "perspective": 8473,
      "perspectives": 8474,
      "phenomenon": 8475,
      "shifts": 8476,
      "shifted": 8477,
      "retrospective": 8478,
      "retrospectively": 8479,
      "trademarks": 8480,
      "accommodated": 8481,
      "accommodates": 8482,
      "experimented": 8483,
      "experimental": 8484,
      "024817": 8485,
      "0300776": 8486,
      "1BVn": 8487,
      "95045": 8488,
      "998522": 8489,
      "AFTRA": 8490,
      "Akers": 8491,
      "Ayala": 8492,
      "Abercrom": 8493,
      "AMEX": 8494,
      "Abrams": 8495,
      "Astonishing": 8496,
      "Auckland": 8497,
      "BR24": 8498,
      "Baby": 8499,
      "Biography": 8500,
      "Bombalurina": 8501,
      "Basically": 8502,
      "Busis": 8503,
      "Bentley": 8504,
      "Betty": 8505,
      "Birch": 8506,
      "Bunny": 8507,
      "Ballentine": 8508,
      "Bucks": 8509,
      "Bryan": 8510,
      "Barker": 8511,
      "Bailey": 8512,
      "Bowery": 8513,
      "BRITs": 8514,
      "Benefit": 8515,
      "Baumbach": 8516,
      "CHOP": 8517,
      "Cyber": 8518,
      "Ceremony": 8519,
      "Corcoran": 8520,
      "Chemist": 8521,
      "Covid": 8522,
      "Citizen": 8523,
      "Copy": 8524,
      "Camilla": 8525,
      "Cowboy": 8526,
      "Cirque": 8527,
      "Clothes": 8528,
      "Cava": 8529,
      "Coldplay": 8530,
      "Census": 8531,
      "Cassavetes": 8532,
      "Cristina": 8533,
      "Catherine": 8534,
      "Cynthia": 8535,
      "Categories": 8536,
      "CNET": 8537,
      "Curious": 8538,
      "Dying": 8539,
      "Dedicated": 8540,
      "Darn": 8541,
      "Drivers": 8542,
      "Dementri": 8543,
      "District": 8544,
      "Diehl": 8545,
      "Dellatto": 8546,
      "Dockterman": 8547,
      "Delete": 8548,
      "Dazzling": 8549,
      "Dwayne": 8550,
      "Documentary": 8551,
      "Differences": 8552,
      "Detwanging": 8553,
      "EXCLUSIV": 8554,
      "Evaluating": 8555,
      "Estate": 8556,
      "Easy": 8557,
      "Europe": 8558,
      "Etheridge": 8559,
      "Eells": 8560,
      "Ephron": 8561,
      "Figures": 8562,
      "Fiction": 8563,
      "Freistaat": 8564,
      "Focused": 8565,
      "Flood": 8566,
      "Forever": 8567,
      "Fantastical": 8568,
      "Fawzia": 8569,
      "Friggin": 8570,
      "Freedom": 8571,
      "Festival": 8572,
      "Gormely": 8573,
      "Gallo": 8574,
      "Griffin": 8575,
      "Gayle": 8576,
      "Gugliel": 8577,
      "Golsen": 8578,
      "Gendered": 8579,
      "Gaston": 8580,
      "Greco": 8581,
      "Gomez": 8582,
      "Grigoriad": 8583,
      "Haag": 8584,
      "Honorees": 8585,
      "Hayley": 8586,
      "Hatza": 8587,
      "Handbook": 8588,
      "HopDX": 8589,
      "Hammel": 8590,
      "Hustle": 8591,
      "Hira": 8592,
      "Hilariously": 8593,
      "Hudak": 8594,
      "HipHopDX": 8595,
      "Happy": 8596,
      "Holloway": 8597,
      "HAIM": 8598,
      "Hyden": 8599,
      "Hierarchies": 8600,
      "Hammar": 8601,
      "IMDb": 8602,
      "IRMA": 8603,
      "Illinois": 8604,
      "Iasimone": 8605,
      "Idiots": 8606,
      "Jeannine": 8607,
      "Jihan": 8608,
      "Jericho": 8609,
      "Jordan": 8610,
      "Jenkins": 8611,
      "Jillian": 8612,
      "Jamieson": 8613,
      "Jacqui": 8614,
      "Jessica": 8615,
      "Jakks": 8616,
      "Jodi": 8617,
      "Jensen": 8618,
      "KTRK": 8619,
      "KYGO": 8620,
      "Krueger": 8621,
      "Kuperinsky": 8622,
      "Kesha": 8623,
      "Kheraj": 8624,
      "Kirsch": 8625,
      "Kansas": 8626,
      "Kevin": 8627,
      "Kosser": 8628,
      "Kingsley": 8629,
      "Kristofferson": 8630,
      "Kaitlin": 8631,
      "LOR": 8632,
      "LWYMM": 8633,
      "Luis": 8634,
      "Lyrically": 8635,
      "License": 8636,
      "Landmark": 8637,
      "Limits": 8638,
      "Lola": 8639,
      "Labrecque": 8640,
      "Lennox": 8641,
      "Lindsay": 8642,
      "Levine": 8643,
      "Lockdown": 8644,
      "Lifting": 8645,
      "Luke": 8646,
      "MRC": 8647,
      "Mraz": 8648,
      "Meme": 8649,
      "Mamo": 8650,
      "Midterm": 8651,
      "Miranda": 8652,
      "Mulvey": 8653,
      "Mosselli": 8654,
      "Milzoff": 8655,
      "Magnific": 8656,
      "Mendez": 8657,
      "Mudd": 8658,
      "Mennen": 8659,
      "Mikael": 8660,
      "Multi": 8661,
      "Mahdawi": 8662,
      "Mylrea": 8663,
      "Massive": 8664,
      "Moods": 8665,
      "Madeline": 8666,
      "Natalie": 8667,
      "Nudes": 8668,
      "Nikki": 8669,
      "Nisha": 8670,
      "NAACP": 8671,
      "NMPA": 8672,
      "Often": 8673,
      "Oprah": 8674,
      "Olivier": 8675,
      "OFFST": 8676,
      "País": 8677,
      "Penguin": 8678,
      "Pushes": 8679,
      "Padilla": 8680,
      "Pursuit": 8681,
      "Peppin": 8682,
      "Pendleton": 8683,
      "Pietroluong": 8684,
      "Peoplem": 8685,
      "Pazzanese": 8686,
      "Pivotal": 8687,
      "Qureshi": 8688,
      "RTTNews": 8689,
      "Raab": 8690,
      "Ricch": 8691,
      "Rising": 8692,
      "Ritchie": 8693,
      "Rotman": 8694,
      "Rogers": 8695,
      "Rarely": 8696,
      "Raven": 8697,
      "Rizzo": 8698,
      "Raphael": 8699,
      "Roughstock": 8700,
      "REPUTATIO": 8701,
      "SWIFT": 8702,
      "Sjöberg": 8703,
      "Skinner": 8704,
      "Sanz": 8705,
      "Salon": 8706,
      "Strip": 8707,
      "Sanders": 8708,
      "Sleep": 8709,
      "Sherman": 8710,
      "Simon": 8711,
      "Solomon": 8712,
      "Siroky": 8713,
      "Sodomsky": 8714,
      "Sabrina": 8715,
      "Square": 8716,
      "Seattle": 8717,
      "Sexton": 8718,
      "Strauss": 8719,
      "Sukriti": 8720,
      "Sydney": 8721,
      "Seminar": 8722,
      "Sweeter": 8723,
      "Simmone": 8724,
      "Solidarity": 8725,
      "Sizeable": 8726,
      "Toro": 8727,
      "Tedder": 8728,
      "Talbott": 8729,
      "Total": 8730,
      "Testimony": 8731,
      "Tallies": 8732,
      "Tucker": 8733,
      "Telltale": 8734,
      "Tailor": 8735,
      "Tatters": 8736,
      "TRIUMP": 8737,
      "TIFF": 8738,
      "TAYLOR": 8739,
      "TOUR": 8740,
      "Uhrich": 8741,
      "Ultimate": 8742,
      "Utley": 8743,
      "Vincent": 8744,
      "Venue": 8745,
      "Vitale": 8746,
      "Vadala": 8747,
      "Volunteers": 8748,
      "Vocals": 8749,
      "Vagianos": 8750,
      "Vicky": 8751,
      "Victory": 8752,
      "Vernon": 8753,
      "Velvet": 8754,
      "Wahi": 8755,
      "Winehouse": 8756,
      "Waiss": 8757,
      "Wyndcro": 8758,
      "Wyland": 8759,
      "Wonderland": 8760,
      "Warren": 8761,
      "WCAU": 8762,
      "Wraps": 8763,
      "Wedding": 8764,
      "Xander": 8765,
      "Yuan": 8766,
      "Yotka": 8767,
      "Yehuda": 8768,
      "YPulse": 8769,
      "Zhu": 8770,
      "Zoe": 8771,
      "Zayn": 8772,
      "Zemler": 8773,
      "Zoladz": 8774,
      "Zollo": 8775,
      "Zellner": 8776,
      "Zhao": 8777,
      "aesthetics": 8778,
      "bombastic": 8779,
      "billboardcharts": 8780,
      "boundary": 8781,
      "battles": 8782,
      "bought": 8783,
      "burns": 8784,
      "between": 8785,
      "cameras": 8786,
      "cadences": 8787,
      "countersued": 8788,
      "colourful": 8789,
      "clothing": 8790,
      "cryptic": 8791,
      "cocktail": 8792,
      "coffee": 8793,
      "duo": 8794,
      "darling": 8795,
      "databases": 8796,
      "dolls": 8797,
      "dorky": 8798,
      "dynamics": 8799,
      "dancers": 8800,
      "depending": 8801,
      "daughter": 8802,
      "easiest": 8803,
      "eighth": 8804,
      "fragran": 8805,
      "fuelling": 8806,
      "figure": 8807,
      "fandom": 8808,
      "fascination": 8809,
      "faded": 8810,
      "fountain": 8811,
      "falsetto": 8812,
      "fellow": 8813,
      "fearlessly": 8814,
      "furniture": 8815,
      "fictional": 8816,
      "federal": 8817,
      "festivals": 8818,
      "greeting": 8819,
      "goldenglo": 8820,
      "goddess": 8821,
      "hooks": 8822,
      "harassment": 8823,
      "higher": 8824,
      "holds": 8825,
      "happened": 8826,
      "https": 8827,
      "homeschooling": 8828,
      "iHeartRadio": 8829,
      "keenly": 8830,
      "karaoke": 8831,
      "lenkamp": 8832,
      "lamented": 8833,
      "limited": 8834,
      "languages": 8835,
      "lawyers": 8836,
      "lauded": 8837,
      "morality": 8838,
      "marriage": 8839,
      "maturity": 8840,
      "moment": 8841,
      "menu": 8842,
      "mandolin": 8843,
      "misogyn": 8844,
      "motivated": 8845,
      "mishandling": 8846,
      "nasal": 8847,
      "nurtured": 8848,
      "navigate": 8849,
      "nightmare": 8850,
      "namesake": 8851,
      "oE7P1BVn": 8852,
      "puzz": 8853,
      "pioneered": 8854,
      "punk": 8855,
      "packaging": 8856,
      "pizza": 8857,
      "panned": 8858,
      "paths": 8859,
      "rollouts": 8860,
      "ravaged": 8861,
      "rampant": 8862,
      "rhythms": 8863,
      "sometimes": 8864,
      "semi": 8865,
      "soul": 8866,
      "summers": 8867,
      "suggested": 8868,
      "sectors": 8869,
      "synergy": 8870,
      "sympathize": 8871,
      "sweeps": 8872,
      "smartest": 8873,
      "tumult": 8874,
      "taking": 8875,
      "tackling": 8876,
      "tapped": 8877,
      "tcz042": 8878,
      "varying": 8879,
      "vitality": 8880,
      "website": 8881,
      "watching": 8882,
      "wunderkind": 8883,
      "yelps": 8884,
      "eroding": 8885,
      "orientation": 8886,
      "integral": 8887,
      "intense": 8888,
      "arguing": 8889,
      "archetypes": 8890,
      "anomaly": 8891,
      "analyses": 8892,
      "alleled": 8893,
      "alienation": 8894,
      "statementMo": 8895,
      "stylings": 8896,
      "stalkers": 8897,
      "stammt": 8898,
      "Swiftonomics": 8899,
      "Relevant": 8900,
      "Renegade": 8901,
      "Rebecca": 8902,
      "Reigning": 8903,
      "Relatives": 8904,
      "Rending": 8905,
      "Reimagines": 8906,
      "chameleon": 8907,
      "chronicled": 8908,
      "channels": 8909,
      "aturally": 8910,
      "attribute": 8911,
      "2026148": 8912,
      "eschewed": 8913,
      "escapism": 8914,
      "especially": 8915,
      "ensure": 8916,
      "enjoyed": 8917,
      "encouraged": 8918,
      "embraced": 8919,
      "emissions": 8920,
      "embroiled": 8921,
      "Taylormania": 8922,
      "reference": 8923,
      "represented": 8924,
      "rejected": 8925,
      "returns": 8926,
      "reinventions": 8927,
      "reasons": 8928,
      "representing": 8929,
      "rebellious": 8930,
      "rehearsal": 8931,
      "thirteen": 8932,
      "thankful": 8933,
      "threatens": 8934,
      "thrilling": 8935,
      "Aramesh": 8936,
      "leagues": 8937,
      "issues": 8938,
      "amassed": 8939,
      "amorphous": 8940,
      "amicably": 8941,
      "adolescent": 8942,
      "neuroblastoma": 8943,
      "ersContact": 8944,
      "bolstered": 8945,
      "trotting": 8946,
      "tragedy": 8947,
      "trophies": 8948,
      "improve": 8949,
      "implications": 8950,
      "imposed": 8951,
      "ongsvideosperformances": 8952,
      "Occupations": 8953,
      "Steele": 8954,
      "Stallion": 8955,
      "Strecker": 8956,
      "Stimeling": 8957,
      "elaborate": 8958,
      "earliest": 8959,
      "eponymous": 8960,
      "irrespective": 8961,
      "Inspired": 8962,
      "Inquirer": 8963,
      "Intimacy": 8964,
      "Included": 8965,
      "Insecurities": 8966,
      "Instruments": 8967,
      "Introducing": 8968,
      "Intensify": 8969,
      "Investigation": 8970,
      "Apologize": 8971,
      "Appeal": 8972,
      "MusicBrainz": 8973,
      "correcting": 8974,
      "corresponding": 8975,
      "coronavirus": 8976,
      "wardrobe": 8977,
      "19392397": 8978,
      "1945226": 8979,
      "1980s": 8980,
      "1976586": 8981,
      "Marianne": 8982,
      "Maybelline": 8983,
      "Chinese": 8984,
      "Chronicle": 8985,
      "Amplified": 8986,
      "2156761": 8987,
      "programmer": 8988,
      "Albarn": 8989,
      "237695045": 8990,
      "approval": 8991,
      "musicological": 8992,
      "Anglosphere": 8993,
      "Anatomy": 8994,
      "246997248": 8995,
      "1787396": 8996,
      "seemingly": 8997,
      "universe": 8998,
      "unparalleled": 8999,
      "unwitnessed": 9000,
      "unprecedented": 9001,
      "unsustainable": 9002,
      "Graduation": 9003,
      "abortion": 9004,
      "Spanning": 9005,
      "Sportswear": 9006,
      "Specifically": 9007,
      "supremacy": 9008,
      "manipulative": 9009,
      "maneuver": 9010,
      "convinced": 9011,
      "consisting": 9012,
      "excessively": 9013,
      "expectations": 9014,
      "exhibit": 9015,
      "exemplary": 9016,
      "vibrant": 9017,
      "percussion": 9018,
      "recoupable": 9019,
      "planting": 9020,
      "plucking": 9021,
      "Thousands": 9022,
      "Threaten": 9023,
      "Throwback": 9024,
      "sparkling": 9025,
      "spawned": 9026,
      "spectrum": 9027,
      "spirited": 9028,
      "blazer": 9029,
      "Conquered": 9030,
      "ConductDevelopers": 9031,
      "Youssef": 9032,
      "graduated": 9033,
      "quickly": 9034,
      "Shmicketing": 9035,
      "Shakespeare": 9036,
      "Gregoire": 9037,
      "McCluskey": 9038,
      "McDermott": 9039,
      "McDuling": 9040,
      "McKinley": 9041,
      "McLachlan": 9042,
      "devastation": 9043,
      "detractors": 9044,
      "Encourages": 9045,
      "antiquated": 9046,
      "Acceptance": 9047,
      "Accomplishments": 9048,
      "firecracker": 9049,
      "Productions": 9050,
      "Praeger": 9051,
      "Undeniable": 9052,
      "Unstaged": 9053,
      "Unabridged": 9054,
      "Unbelievable": 9055,
      "upbringing": 9056,
      "upsurge": 9057,
      "Blanchet": 9058,
      "Phyllis": 9059,
      "flawless": 9060,
      "sociopolitical": 9061,
      "Attempting": 9062,
      "Attribution": 9063,
      "Atkinson": 9064,
      "attitude": 9065,
      "Jonathon": 9066,
      "Boehrer": 9067,
      "filmmaker": 9068,
      "resurgent": 9069,
      "reshaped": 9070,
      "Behavior": 9071,
      "Beginning": 9072,
      "Edinburgh": 9073,
      "Harbron": 9074,
      "Hargitay": 9075,
      "Wikiquote": 9076,
      "Wikinews": 9077,
      "Interruption": 9078,
      "subtitled": 9079,
      "subscribed": 9080,
      "Leahey": 9081,
      "discrimination": 9082,
      "disapproved": 9083,
      "portfolio": 9084,
      "DeLuca": 9085,
      "DeVille": 9086,
      "Moniuszko": 9087,
      "Monkeys": 9088,
      "Storytellers": 9089,
      "afternoon": 9090,
      "cheesesteak": 9091,
      "monologue": 9092,
      "Mysterious": 9093,
      "Mychaskiw": 9094,
      "prioritizing": 9095,
      "reminiscent": 9096,
      "accumulate": 9097,
      "Discogs": 9098,
      "Franciscan": 9099,
      "megastar": 9100,
      "Abandoned": 9101,
      "preparing": 9102,
      "preternaturally": 9103,
      "McCafferty": 9104,
      "Manhattan": 9105,
      "Participants": 9106,
      "transcendence": 9107,
      "translucent": 9108,
      "Albumssinglessongsvideosperformances": 9109,
      "authenticity": 9110,
      "participated": 9111,
      "Outstanding": 9112,
      "Tribune": 9113,
      "pediatric": 9114,
      "registration": 9115,
      "Nickelodeon": 9116,
      "Poehler": 9117,
      "Winfrey": 9118,
      "calculated": 9119,
      "intuitive": 9120,
      "prohibits": 9121,
      "WikipediaDisclaimersContact": 9122,
      "Knibbs": 9123,
      "Moehlenkamp": 9124,
      "Muhammad": 9125,
      "VanDerWerff": 9126,
      "250507223": 9127,
      "Barbadian": 9128,
      "Benjamin": 9129,
      "Horowitz": 9130,
      "Nordyke": 9131,
      "Seisdedos": 9132,
      "Supreme": 9133,
      "Sufjan": 9134,
      "Wynette": 9135,
      "microphone": 9136,
      "legitimizing": 9137,
      "BMR120702": 9138,
      "Savaira": 9139,
      "dystopian": 9140,
      "frivolous": 9141,
      "volunteer": 9142,
      "inescapable": 9143,
      "emphasizes": 9144,
      "Boxscore": 9145,
      "953030187": 9146,
      "LawsuitNew": 9147,
      "Paratextual": 9148,
      "Portuguese": 9149,
      "kindergarten": 9150,
      "policyAbout": 9151,
      "sophomore": 9152,
      "institutions": 9153,
      "Eleftheriou": 9154,
      "MacPherson": 9155,
      "raconteur": 9156,
      "architecture": 9157,
      "Registrations": 9158,
      "StatisticsCookie": 9159,
      "CinemaBlend": 9160,
      "03007766": 9161,
      "Abercrombie": 9162,
      "Chemistry": 9163,
      "EXCLUSIVE": 9164,
      "Guglielmi": 9165,
      "Grigoriadis": 9166,
      "LWYMMD": 9167,
      "Magnificent": 9168,
      "OFFSTAGE": 9169,
      "Pietroluongo": 9170,
      "Peoplemag": 9171,
      "REPUTATION": 9172,
      "TRIUMPH": 9173,
      "Wyndcroft": 9174,
      "fragrances": 9175,
      "goldenglobes": 9176,
      "misogyny": 9177,
      "oE7P1BVnNJ": 9178,
      "puzzle": 9179,
      "statementMobile": 9180,
      "ConductDevelopersStatisticsCookie": 9181
    },
    "merges": [
      "2 0",
      "e r",
      "o r",
      "i n",
      "e d",
      "o n",
      "h e",
      "a r",
      "a n",
      "t he",
      "a l",
      "r i",
      "v ed",
      "s t",
      "w i",
      "20 1",
      "f t",
      "a y",
      "wi ft",
      "S wift",
      "R e",
      "b er",
      "c h",
      "a t",
      "o m",
      "20 2",
      "e s",
      "e n",
      "\" .",
      "e m",
      "in g",
      "l or",
      "t ri",
      "i g",
      "ay lor",
      "l l",
      "T aylor",
      "e ved",
      "Re tri",
      "Retri eved",
      "t o",
      "i c",
      "an d",
      ") .",
      "r e",
      "r om",
      "em ber",
      "o u",
      "t h",
      "f rom",
      "a s",
      "A r",
      "o f",
      "ch i",
      "in al",
      "or ig",
      "orig inal",
      "Ar chi",
      "Archi ved",
      "i on",
      "ar d",
      "e c",
      "i ll",
      "l e",
      "o v",
      ". [",
      "202 3",
      "l y",
      "u s",
      "J u",
      "i s",
      "i t",
      "T he",
      "u m",
      "f or",
      "h er",
      "ar y",
      "o p",
      "a m",
      "i st",
      "a d",
      "u st",
      "u ary",
      "N ov",
      "us ic",
      "Nov ember",
      "n e",
      "en t",
      "er s",
      "b o",
      "202 2",
      "D ec",
      "t r",
      "B ill",
      "i d",
      "u r",
      "ar t",
      "i m",
      "on g",
      "O c",
      "a c",
      "S t",
      "to ber",
      "Oc tober",
      "e l",
      "o w",
      "Dec ember",
      "bo ard",
      "Bill board",
      "e w",
      "u g",
      "1 0",
      "202 1",
      "e ar",
      "o t",
      "20 20",
      "ri t",
      "ou n",
      "o l",
      "b um",
      "20 0",
      "at ion",
      "Ju ly",
      "es s",
      "A ug",
      "] [",
      "Aug ust",
      "201 2",
      "e b",
      "e p",
      "v e",
      "e t",
      "i r",
      "201 9",
      "u t",
      "ou r",
      "wi th",
      "e st",
      "I n",
      "on e",
      "N ew",
      "A p",
      "201 6",
      "201 5",
      "Ju ne",
      "c e",
      "M usic",
      "c or",
      "w ard",
      "1 9",
      "o ll",
      "u l",
      "ep t",
      "M ar",
      "F eb",
      ", [",
      "M ay",
      "r uary",
      "Feb ruary",
      "C h",
      "a k",
      "o d",
      "o s",
      "ri l",
      "Ap ril",
      "A m",
      "S ept",
      "cor d",
      "Sept ember",
      "al bum",
      "A ward",
      "s ing",
      "i l",
      "J an",
      "tr y",
      "Jan uary",
      "1 3",
      "oun try",
      "o c",
      "2 1",
      "p r",
      "Mar ch",
      "S he",
      "a g",
      "A l",
      "w rit",
      "T im",
      "t er",
      "i a",
      "s ong",
      "2 3",
      "a p",
      "m usic",
      "1 8",
      "A n",
      "e e",
      "201 7",
      "i ve",
      "2 4",
      "i an",
      "er ic",
      "Am eric",
      "1 2",
      "w as",
      "1 7",
      "2 2",
      "b y",
      "l o",
      "a in",
      "s e",
      "s he",
      "t s",
      "1 4",
      "ig h",
      "Americ an",
      "1 1",
      "201 4",
      "en d",
      "i th",
      "u n",
      "v er",
      "G r",
      "h i",
      "l d",
      "o st",
      "0 0",
      "a b",
      "o g",
      "1 5",
      "S p",
      "ir st",
      "2 6",
      "2 9",
      "T our",
      "Y ear",
      "s u",
      "Award s",
      "2 5",
      "2 7",
      "S ong",
      "i e",
      "m an",
      "u d",
      "id e",
      "c on",
      "3 0",
      "al l",
      "R oll",
      "201 3",
      "201 8",
      "Re cord",
      "at ed",
      "b e",
      "e x",
      "en n",
      "ov er",
      "St one",
      "in e",
      "201 0",
      "Roll ing",
      "\" ,",
      "I s",
      "v i",
      "or k",
      "202 4",
      "p op",
      "art ist",
      "ac k",
      "200 9",
      "Al bum",
      "H er",
      "p er",
      "or y",
      "1 6",
      "C ountry",
      "ar e",
      "a st",
      "c om",
      "i f",
      "10 0",
      "A s",
      "or e",
      "th at",
      "2 8",
      "h as",
      "a v",
[...]
